{
  "version": "1.0",
  "truncation": null,
  "padding": null,
  "added_tokens": [
    {
      "id": 0,
      "content": "[PAD]",
      "single_word": false,
      "lstrip": false,
      "rstrip": false,
      "normalized": false,
      "special": true
    },
    {
      "id": 1,
      "content": "[BOS]",
      "single_word": false,
      "lstrip": false,
      "rstrip": false,
      "normalized": false,
      "special": true
    },
    {
      "id": 2,
      "content": "[EOS]",
      "single_word": false,
      "lstrip": false,
      "rstrip": false,
      "normalized": false,
      "special": true
    },
    {
      "id": 3,
      "content": "[MASK]",
      "single_word": false,
      "lstrip": false,
      "rstrip": false,
      "normalized": false,
      "special": true
    },
    {
      "id": 4,
      "content": "<|user|>",
      "single_word": false,
      "lstrip": false,
      "rstrip": false,
      "normalized": false,
      "special": true
    },
    {
      "id": 5,
      "content": "<|assistant|>",
      "single_word": false,
      "lstrip": false,
      "rstrip": false,
      "normalized": false,
      "special": true
    },
    {
      "id": 6,
      "content": "<|system|>",
      "single_word": false,
      "lstrip": false,
      "rstrip": false,
      "normalized": false,
      "special": true
    },
    {
      "id": 7,
      "content": "<|end|>",
      "single_word": false,
      "lstrip": false,
      "rstrip": false,
      "normalized": false,
      "special": true
    }
  ],
  "normalizer": {
    "type": "NFKC"
  },
  "pre_tokenizer": {
    "type": "ByteLevel",
    "add_prefix_space": false,
    "trim_offsets": true,
    "use_regex": true
  },
  "post_processor": {
    "type": "TemplateProcessing",
    "single": [
      {
        "SpecialToken": {
          "id": "[BOS]",
          "type_id": 0
        }
      },
      {
        "Sequence": {
          "id": "A",
          "type_id": 0
        }
      },
      {
        "SpecialToken": {
          "id": "[EOS]",
          "type_id": 0
        }
      }
    ],
    "pair": [
      {
        "Sequence": {
          "id": "A",
          "type_id": 0
        }
      },
      {
        "Sequence": {
          "id": "B",
          "type_id": 1
        }
      }
    ],
    "special_tokens": {
      "[BOS]": {
        "id": "[BOS]",
        "ids": [
          1
        ],
        "tokens": [
          "[BOS]"
        ]
      },
      "[EOS]": {
        "id": "[EOS]",
        "ids": [
          2
        ],
        "tokens": [
          "[EOS]"
        ]
      }
    }
  },
  "decoder": {
    "type": "ByteLevel",
    "add_prefix_space": true,
    "trim_offsets": true,
    "use_regex": true
  },
  "model": {
    "type": "BPE",
    "dropout": null,
    "unk_token": null,
    "continuing_subword_prefix": null,
    "end_of_word_suffix": null,
    "fuse_unk": false,
    "byte_fallback": false,
    "ignore_merges": false,
    "vocab": {
      "[PAD]": 0,
      "[BOS]": 1,
      "[EOS]": 2,
      "[MASK]": 3,
      "<|user|>": 4,
      "<|assistant|>": 5,
      "<|system|>": 6,
      "<|end|>": 7,
      "!": 8,
      "\"": 9,
      "$": 10,
      "&": 11,
      "'": 12,
      "(": 13,
      ")": 14,
      "*": 15,
      "+": 16,
      ",": 17,
      "-": 18,
      ".": 19,
      "/": 20,
      "0": 21,
      "1": 22,
      "2": 23,
      "3": 24,
      "4": 25,
      "5": 26,
      "6": 27,
      "7": 28,
      "8": 29,
      "9": 30,
      ":": 31,
      ";": 32,
      "<": 33,
      ">": 34,
      "?": 35,
      "A": 36,
      "B": 37,
      "C": 38,
      "D": 39,
      "E": 40,
      "F": 41,
      "G": 42,
      "H": 43,
      "I": 44,
      "J": 45,
      "K": 46,
      "L": 47,
      "M": 48,
      "N": 49,
      "O": 50,
      "P": 51,
      "Q": 52,
      "R": 53,
      "S": 54,
      "T": 55,
      "U": 56,
      "V": 57,
      "W": 58,
      "X": 59,
      "Y": 60,
      "Z": 61,
      "a": 62,
      "b": 63,
      "c": 64,
      "d": 65,
      "e": 66,
      "f": 67,
      "g": 68,
      "h": 69,
      "i": 70,
      "j": 71,
      "k": 72,
      "l": 73,
      "m": 74,
      "n": 75,
      "o": 76,
      "p": 77,
      "q": 78,
      "r": 79,
      "s": 80,
      "t": 81,
      "u": 82,
      "v": 83,
      "w": 84,
      "x": 85,
      "y": 86,
      "z": 87,
      "|": 88,
      "¡": 89,
      "¢": 90,
      "¦": 91,
      "©": 92,
      "«": 93,
      "¬": 94,
      "°": 95,
      "±": 96,
      "»": 97,
      "Â": 98,
      "Ã": 99,
      "Å": 100,
      "Ì": 101,
      "â": 102,
      "ĉ": 103,
      "Ċ": 104,
      "Ġ": 105,
      "Ģ": 106,
      "ģ": 107,
      "Ĥ": 108,
      "ĥ": 109,
      "ĵ": 110,
      "ľ": 111,
      "Ŀ": 112,
      "he": 113,
      "Ġt": 114,
      "Ġa": 115,
      "Ġs": 116,
      "nd": 117,
      "Ġw": 118,
      "Ġthe": 119,
      "ed": 120,
      "Ġand": 121,
      "Ġto": 122,
      "Ġb": 123,
      "in": 124,
      "it": 125,
      "Ġh": 126,
      "er": 127,
      "Ġwa": 128,
      "Ġf": 129,
      "ou": 130,
      "re": 131,
      "Ġl": 132,
      "Ġc": 133,
      "Ġd": 134,
      "Ġhe": 135,
      "or": 136,
      "is": 137,
      "Ġm": 138,
      "Ġp": 139,
      "Ġwas": 140,
      "ĠT": 141,
      "om": 142,
      "ay": 143,
      "on": 144,
      "an": 145,
      "ar": 146,
      "ing": 147,
      "il": 148,
      "Ġg": 149,
      "id": 150,
      "at": 151,
      "en": 152,
      "Ġn": 153,
      "Ġsa": 154,
      "Ġha": 155,
      "<|": 156,
      "|>": 157,
      "ĠS": 158,
      "ĠThe": 159,
      "im": 160,
      "Ġst": 161,
      "Ġit": 162,
      "Ġth": 163,
      "Ġo": 164,
      "ll": 165,
      "le": 166,
      "ĠH": 167,
      "Ġher": 168,
      "ot": 169,
      "et": 170,
      "ir": 171,
      "ĠShe": 172,
      "end": 173,
      "es": 174,
      "ĠHe": 175,
      "Ġin": 176,
      "Ġsh": 177,
      "us": 178,
      "ver": 179,
      "ut": 180,
      "ow": 181,
      "as": 182,
      "ĠThey": 183,
      "ck": 184,
      "ily": 185,
      "ld": 186,
      "Ġy": 187,
      "oo": 188,
      "Ġsaid": 189,
      "ig": 190,
      "am": 191,
      "Ġr": 192,
      "Ġe": 193,
      "Ġ\"": 194,
      "Ġbe": 195,
      "Lily": 196,
      "Ġu": 197,
      "ce": 198,
      "ĠI": 199,
      "ith": 200,
      "pp": 201,
      "Ġshe": 202,
      "ke": 203,
      "Ġwith": 204,
      "ve": 205,
      "On": 206,
      "Ġon": 207,
      "ri": 208,
      "ked": 209,
      "Ġpl": 210,
      "Ġyou": 211,
      "Ġof": 212,
      "Ġhis": 213,
      "Ġso": 214,
      "Ġday": 215,
      "very": 216,
      "ad": 217,
      "ist": 218,
      "nt": 219,
      "Ġthat": 220,
      "ant": 221,
      "ite": 222,
      "ĠLily": 223,
      "Ġplay": 224,
      "ort": 225,
      "Ġup": 226,
      "ass": 227,
      "Ġhad": 228,
      "Ġthey": 229,
      "Ġmom": 230,
      "Ġstor": 231,
      "el": 232,
      "Ġstory": 233,
      "ĠB": 234,
      "un": 235,
      "my": 236,
      "ent": 237,
      "Ġfor": 238,
      "ould": 239,
      "rite": 240,
      "'s": 241,
      "Ġshort": 242,
      "istant": 243,
      "Write": 244,
      "user": 245,
      "assistant": 246,
      "Ġhapp": 247,
      "Ġli": 248,
      "ch": 249,
      "The": 250,
      "itt": 251,
      "Ġwant": 252,
      "her": 253,
      "out": 254,
      "Ġdo": 255,
      "all": 256,
      "Ġnot": 257,
      "Ġvery": 258,
      "ome": 259,
      "ly": 260,
      "ound": 261,
      "ime": 262,
      "ittle": 263,
      "Ġtime": 264,
      "Ġlittle": 265,
      "Ġwh": 266,
      "Ġk": 267,
      "Ġthere": 268,
      "Ġbig": 269,
      "Ġne": 270,
      "Ġhappy": 271,
      "al": 272,
      "ht": 273,
      "Ġre": 274,
      "Ġis": 275,
      "ĠM": 276,
      "Ġsm": 277,
      "Ġbut": 278,
      "riend": 279,
      "ĠIt": 280,
      "Ġsaw": 281,
      "Ġfriend": 282,
      "ter": 283,
      "Ġan": 284,
      "ĠĊ": 285,
      "ack": 286,
      ".\"": 287,
      "Ġas": 288,
      "ry": 289,
      "One": 290,
      "ide": 291,
      "ved": 292,
      "ake": 293,
      "'t": 294,
      "ere": 295,
      "ug": 296,
      "Ġlo": 297,
      "Once": 298,
      "ĠTim": 299,
      "Ġloo": 300,
      "!\"": 301,
      "Ġwere": 302,
      "ore": 303,
      "ra": 304,
      "Ġse": 305,
      "Ġbo": 306,
      "Ġhim": 307,
      "Ġtoo": 308,
      "ec": 309,
      "Ġgo": 310,
      "Ġupon": 311,
      "irl": 312,
      "Ġwanted": 313,
      "ill": 314,
      "ard": 315,
      "Ġgirl": 316,
      "Ġare": 317,
      "Ġj": 318,
      "Ġthem": 319,
      "Ġout": 320,
      "ind": 321,
      "Ġat": 322,
      "way": 323,
      "Ġtheir": 324,
      "ur": 325,
      "Ġdid": 326,
      "ĠA": 327,
      "Ġsp": 328,
      "Ġcould": 329,
      "hen": 330,
      "ul": 331,
      "Ġsmil": 332,
      "ain": 333,
      "Ġhave": 334,
      "Ġwent": 335,
      "Ġnam": 336,
      "se": 337,
      "art": 338,
      "hed": 339,
      "rom": 340,
      "Ġex": 341,
      "lp": 342,
      "ic": 343,
      "round": 344,
      "ĠBen": 345,
      "Ġfriends": 346,
      "Ġcan": 347,
      "Ġhelp": 348,
      "ful": 349,
      "Ġkn": 350,
      "ood": 351,
      "Ġall": 352,
      "?\"": 353,
      "ĠJ": 354,
      "hing": 355,
      "um": 356,
      "st": 357,
      "ight": 358,
      "ark": 359,
      "one": 360,
      "Ġfun": 361,
      "Ġnamed": 362,
      "Ġback": 363,
      "Ġcl": 364,
      "Ġle": 365,
      "are": 366,
      "You": 367,
      "Ġsay": 368,
      "Ġloved": 369,
      "ĠTom": 370,
      "Ġno": 371,
      "elt": 372,
      "ĠOne": 373,
      "ĠTimmy": 374,
      "op": 375,
      "oug": 376,
      "Ġtoy": 377,
      "Ġsc": 378,
      "Ġfelt": 379,
      "Ġal": 380,
      "side": 381,
      "ick": 382,
      "Ġsmiled": 383,
      "Ġasked": 384,
      "Ġfe": 385,
      "Ġwe": 386,
      "ame": 387,
      "Ġman": 388,
      "Ġlooked": 389,
      "Ġsee": 390,
      "Ġlike": 391,
      "Ġro": 392,
      "Ġbir": 393,
      "get": 394,
      "Ġsome": 395,
      "Ġme": 396,
      "ĠW": 397,
      "Ġaround": 398,
      "Ġboy": 399,
      "Ġbr": 400,
      "ure": 401,
      "omet": 402,
      "Ġwould": 403,
      "ong": 404,
      "Ġbird": 405,
      "ice": 406,
      "Ġstart": 407,
      "ade": 408,
      "Ġag": 409,
      "ings": 410,
      "Ġsomet": 411,
      "Ġwor": 412,
      "Ġtre": 413,
      "gether": 414,
      "dd": 415,
      "own": 416,
      "ag": 417,
      "Ġmake": 418,
      "Ġwhat": 419,
      "ĠBut": 420,
      "king": 421,
      ",\"": 422,
      "Ġaway": 423,
      "Ġtogether": 424,
      "ĠYou": 425,
      "Ġstarted": 426,
      "Ġran": 427,
      "Ġmade": 428,
      "oud": 429,
      "ared": 430,
      "Ġpark": 431,
      "if": 432,
      "ie": 433,
      "Ġsad": 434,
      "Ġco": 435,
      "Ġsays": 436,
      "Ã¢": 437,
      "âĤ": 438,
      "âĤ¬": 439,
      "Ġsomething": 440,
      "Ġput": 441,
      "ther": 442,
      "Ġcar": 443,
      "Ġnew": 444,
      "ited": 445,
      "est": 446,
      "Ġother": 447,
      "Ġagain": 448,
      "Ġfrom": 449,
      "ble": 450,
      "Ġpr": 451,
      "ell": 452,
      "Ġhome": 453,
      "Ġhug": 454,
      "Ġexc": 455,
      "Ġwhen": 456,
      "Ġgood": 457,
      "Ġfound": 458,
      "ried": 459,
      "ook": 460,
      "Ġfl": 461,
      "ĠL": 462,
      "ep": 463,
      "Ġwho": 464,
      "Ġch": 465,
      "Ġthen": 466,
      "ach": 467,
      "ast": 468,
      "aug": 469,
      "ought": 470,
      "Ġplaying": 471,
      "Ġdec": 472,
      "pped": 473,
      "ue": 474,
      "Ġget": 475,
      "Ġwal": 476,
      "uch": 477,
      "hat": 478,
      "Ġsw": 479,
      "ally": 480,
      "Ġgot": 481,
      "Ġthings": 482,
      "uck": 483,
      "ust": 484,
      "pl": 485,
      "Ġliked": 486,
      "ous": 487,
      "ĠE": 488,
      "nn": 489,
      "ave": 490,
      "Ġevery": 491,
      "Ġdog": 492,
      "Ġbl": 493,
      "Ġcame": 494,
      "ax": 495,
      "use": 496,
      "Ġexcited": 497,
      "ro": 498,
      "Ġbec": 499,
      "Ġdecid": 500,
      "Ġdecided": 501,
      "Ġdown": 502,
      "Ġv": 503,
      "Ġyour": 504,
      "Ġfind": 505,
      "ny": 506,
      "ouse": 507,
      "Ġscared": 508,
      "Ġcare": 509,
      "Ġdad": 510,
      "Ġfeel": 511,
      "Ġone": 512,
      "arn": 513,
      "Ġthan": 514,
      "udd": 515,
      "ĠD": 516,
      "Ġab": 517,
      "ace": 518,
      "ara": 519,
      "ap": 520,
      "Ġtree": 521,
      "Ġdidn": 522,
      "ways": 523,
      "Ġmy": 524,
      "Ġtoys": 525,
      "qu": 526,
      "Ġball": 527,
      "nna": 528,
      "They": 529,
      "ers": 530,
      "Ġtook": 531,
      "ĠF": 532,
      "Ġalways": 533,
      "Ġmommy": 534,
      "ĠMom": 535,
      "ess": 536,
      "Ġwill": 537,
      "and": 538,
      "Ġabout": 539,
      "Ġpo": 540,
      "Ġkne": 541,
      "nder": 542,
      "Ġke": 543,
      "Ġlot": 544,
      "Ġthought": 545,
      "Ġoutside": 546,
      "our": 547,
      "Ġlook": 548,
      "Ġlearn": 549,
      "ened": 550,
      "Ġmore": 551,
      "bb": 552,
      "ret": 553,
      "ched": 554,
      "Ġtr": 555,
      "ise": 556,
      "ged": 557,
      "eci": 558,
      "Ġcat": 559,
      "Ġknow": 560,
      "ĠMax": 561,
      "ss": 562,
      "ĠSam": 563,
      "Ġho": 564,
      "Ġold": 565,
      "Ġlaug": 566,
      "fter": 567,
      "Ġknew": 568,
      "Ġtake": 569,
      "ull": 570,
      "to": 571,
      "ecial": 572,
      "Ġspecial": 573,
      "Ġpe": 574,
      "Ġany": 575,
      "Ġgr": 576,
      "ak": 577,
      "ive": 578,
      "ang": 579,
      "Ġhow": 580,
      "orry": 581,
      "udden": 582,
      "Ġshow": 583,
      "Ġmuch": 584,
      "Ġhouse": 585,
      "ma": 586,
      "Ġsl": 587,
      "uddenly": 588,
      "But": 589,
      "ven": 590,
      "ish": 591,
      "Ġrun": 592,
      "Ġsorry": 593,
      "ia": 594,
      "Ġtold": 595,
      "Ġsun": 596,
      "Ġplayed": 597,
      "Ġop": 598,
      "Ġor": 599,
      "ank": 600,
      "Ġhand": 601,
      "ink": 602,
      "Ġgave": 603,
      "Ġmo": 604,
      "Ġtried": 605,
      "Ġwater": 606,
      "Ġsk": 607,
      "Ġtw": 608,
      "Ġinto": 609,
      "ause": 610,
      "Ġclo": 611,
      "Ġproud": 612,
      "ty": 613,
      "Ġinside": 614,
      "Ġroom": 615,
      "ump": 616,
      "Ġif": 617,
      "Ġcouldn": 618,
      "ate": 619,
      "Ġover": 620,
      "Ġnever": 621,
      "Ġgra": 622,
      "Ġeat": 623,
      "av": 624,
      "Ġen": 625,
      "other": 626,
      "etter": 627,
      "Ġbecause": 628,
      "Ġheard": 629,
      "Ġpick": 630,
      "Ġpret": 631,
      "ĠWe": 632,
      "ion": 633,
      "Ġexpl": 634,
      "Ġgre": 635,
      "Ġbox": 636,
      "dy": 637,
      "Ġeach": 638,
      "Ġstr": 639,
      "ĠEvery": 640,
      "Ġhugged": 641,
      "here": 642,
      "ĠAnna": 643,
      "Ġwat": 644,
      "Ġthis": 645,
      "Ġsmall": 646,
      "Ġcom": 647,
      "Tom": 648,
      "by": 649,
      "ile": 650,
      "Ġneed": 651,
      "Ġjust": 652,
      "oth": 653,
      "ĠSara": 654,
      "Ġmany": 655,
      "Mom": 656,
      "Ġnice": 657,
      "Ġlong": 658,
      "Ġqu": 659,
      "fe": 660,
      "Ġfo": 661,
      "uc": 662,
      "Ġjo": 663,
      "Ġlearned": 664,
      "Ġsn": 665,
      "iz": 666,
      "ough": 667,
      "'m": 668,
      "Ġoff": 669,
      "imal": 670,
      "Ġanimal": 671,
      "Ġbear": 672,
      "gry": 673,
      "Ġtry": 674,
      "ine": 675,
      "em": 676,
      "ild": 677,
      "sel": 678,
      "Ġbetter": 679,
      "Ġcle": 680,
      "ft": 681,
      "Ġunt": 682,
      "urt": 683,
      "ĠJack": 684,
      "Ġlove": 685,
      "Ġuntil": 686,
      "ving": 687,
      "Ġbu": 688,
      "Ġdre": 689,
      "Ġbest": 690,
      "Ġcall": 691,
      "Ġend": 692,
      "Ġkind": 693,
      "Ġflow": 694,
      "ac": 695,
      "ĠAnd": 696,
      "Ġim": 697,
      "ĠC": 698,
      "ĠHer": 699,
      "urn": 700,
      "ĠSo": 701,
      "Yes": 702,
      "aut": 703,
      "ber": 704,
      "Ġus": 705,
      "ars": 706,
      "Ġfi": 707,
      "Ġeven": 708,
      "Ġcareful": 709,
      "ady": 710,
      "Th": 711,
      "ĠMia": 712,
      "Ġad": 713,
      "Ġbeaut": 714,
      "Ġbra": 715,
      "ĠJo": 716,
      "Ġdon": 717,
      "Ġthanked": 718,
      "able": 719,
      "Ġsky": 720,
      "vent": 721,
      "Ġche": 722,
      "iny": 723,
      "Ġgard": 724,
      "Ġgarden": 725,
      "Ġby": 726,
      "Ġlaughed": 727,
      "self": 728,
      "urp": 729,
      "pt": 730,
      "Ġjump": 731,
      "Ġte": 732,
      "Ġlist": 733,
      "lew": 734,
      "Ġgl": 735,
      "He": 736,
      "Ġlots": 737,
      "Ġfam": 738,
      "Ġstill": 739,
      "iful": 740,
      "Ġbeautiful": 741,
      "ase": 742,
      "ĠFrom": 743,
      "Ġloud": 744,
      "Ġhurt": 745,
      "wn": 746,
      "Ġlived": 747,
      "ies": 748,
      "Ġhard": 749,
      "Ġway": 750,
      "Ġanimals": 751,
      "rm": 752,
      "Ġcome": 753,
      "ect": 754,
      "It": 755,
      "ĠHis": 756,
      "Ġwo": 757,
      "Ġunder": 758,
      "Tim": 759,
      "Ġcol": 760,
      "hes": 761,
      "Ġsafe": 762,
      "ning": 763,
      "Ġclos": 764,
      "be": 765,
      "ool": 766,
      "Ġlet": 767,
      "Ġboth": 768,
      "Ġrem": 769,
      "Ġits": 770,
      "Ġred": 771,
      "ĠThen": 772,
      "Ġstay": 773,
      "Åĵ": 774,
      "Ġcu": 775,
      "ucy": 776,
      "ople": 777,
      "ob": 778,
      "Ġbrave": 779,
      "ock": 780,
      "kay": 781,
      "Ġclean": 782,
      "Ġfamily": 783,
      "Ġimp": 784,
      "Ġbad": 785,
      "ane": 786,
      "Ġdoll": 787,
      "When": 788,
      "ished": 789,
      "Ġflew": 790,
      "igh": 791,
      "Ġshould": 792,
      "Ġwalked": 793,
      "Ġfly": 794,
      "Ġcalled": 795,
      "Ġbook": 796,
      "Ġfin": 797,
      "Ġpeople": 798,
      "Ġpic": 799,
      "ree": 800,
      "Ġangry": 801,
      "Ġtwo": 802,
      "air": 803,
      "led": 804,
      "xt": 805,
      "ĠÃ¢": 806,
      "ĠWhen": 807,
      "Ġra": 808,
      "Ġshare": 809,
      "Ġpretty": 810,
      "urpr": 811,
      "Ġdra": 812,
      "Ġrock": 813,
      "age": 814,
      "Let": 815,
      "Ġfore": 816,
      "ummy": 817,
      "Ġsoon": 818,
      "Ġsurpr": 819,
      "ip": 820,
      "illy": 821,
      "fore": 822,
      "dded": 823,
      "Ġkept": 824,
      "Ġshiny": 825,
      "Ġcon": 826,
      "Ġwind": 827,
      "Ġdoor": 828,
      "No": 829,
      "Ġground": 830,
      "Ġfast": 831,
      "ĠP": 832,
      "Ġac": 833,
      "ised": 834,
      "Ben": 835,
      "Ġfar": 836,
      "Ġgoing": 837,
      "Ġopened": 838,
      "ary": 839,
      "Ġnow": 840,
      "Ġkeep": 841,
      "Ġide": 842,
      "Ġcry": 843,
      "aking": 844,
      "Ġfr": 845,
      "Ġsto": 846,
      "Ġreal": 847,
      "ture": 848,
      "Ġturn": 849,
      "ons": 850,
      "Ġadvent": 851,
      "hn": 852,
      "Ġbefore": 853,
      "Ġnoise": 854,
      "Ġpicked": 855,
      "Ġey": 856,
      "iff": 857,
      "Ġcolor": 858,
      "Ġexplore": 859,
      "Ġwhile": 860,
      "Ġfeeling": 861,
      "ied": 862,
      "ĠLucy": 863,
      "Ġidea": 864,
      "Ġcre": 865,
      "What": 866,
      "les": 867,
      "eet": 868,
      "Ġtruck": 869,
      "imb": 870,
      "thing": 871,
      "Ġthr": 872,
      "Ġclimb": 873,
      "Ġnext": 874,
      "iss": 875,
      "Ġnodded": 876,
      "Ġun": 877,
      "Ġbed": 878,
      "so": 879,
      "Ġpicture": 880,
      "oy": 881,
      "Ġalso": 882,
      "ff": 883,
      "aybe": 884,
      "hy": 885,
      "That": 886,
      "ge": 887,
      "Ġhas": 888,
      "Thank": 889,
      "Ġsmile": 890,
      "Ġwalking": 891,
      "ail": 892,
      "iced": 893,
      "ves": 894,
      "ĠG": 895,
      "ting": 896,
      "Ġfood": 897,
      "ted": 898,
      "ember": 899,
      "Ġbeing": 900,
      "ious": 901,
      "Ġafter": 902,
      "Ġadventure": 903,
      "Ġwait": 904,
      "Ġlisten": 905,
      "So": 906,
      "joy": 907,
      "Ġstopped": 908,
      "Ġblue": 909,
      "Ġslide": 910,
      "TM": 911,
      "akes": 912,
      "Ġtow": 913,
      "Ġgive": 914,
      "aught": 915,
      "Ġwatch": 916,
      "Ġhands": 917,
      "Ġeyes": 918,
      "Ġdiff": 919,
      "Ġbre": 920,
      "Ġremember": 921,
      "Ġwalk": 922,
      "Ġgreat": 923,
      "ĠSp": 924,
      "ĠSuddenly": 925,
      "Ġlooking": 926,
      "Ġbro": 927,
      "Ġdel": 928,
      "Ġdis": 929,
      "maz": 930,
      "Ġstrong": 931,
      "Ġrain": 932,
      "Ġever": 933,
      "ized": 934,
      "co": 935,
      "Ġamaz": 936,
      "Ġfish": 937,
      "Ġthink": 938,
      "Ġflowers": 939,
      "Ġrepl": 940,
      "Ġenjoy": 941,
      "Ġnoticed": 942,
      "She": 943,
      "Ġvo": 944,
      "Ġshowed": 945,
      "Ġstick": 946,
      "Ġforest": 947,
      "llow": 948,
      "ĠSue": 949,
      "irst": 950,
      "Ġown": 951,
      "bbit": 952,
      "Ġquick": 953,
      "Ġtal": 954,
      "Ġnear": 955,
      "ĠDad": 956,
      "Suddenly": 957,
      "Ġwork": 958,
      "Ġwonder": 959,
      "Ġcr": 960,
      "Ġask": 961,
      "Ġokay": 962,
      "Ġmean": 963,
      "Ġapp": 964,
      "Ġimport": 965,
      "Ġboat": 966,
      "anc": 967,
      "Ġeveryone": 968,
      "Ġshout": 969,
      "Ġbecame": 970,
      "Ġyell": 971,
      "Ġplace": 972,
      "Ġright": 973,
      "Ġwhere": 974,
      "Ġsound": 975,
      "gan": 976,
      "ĠN": 977,
      "Ġrabbit": 978,
      "Ġhead": 979,
      "ct": 980,
      "Ġimportant": 981,
      "Ġfollow": 982,
      "bye": 983,
      "Ġreplied": 984,
      "lease": 985,
      "ĠBob": 986,
      "bbed": 987,
      "Ġuse": 988,
      "Ġdress": 989,
      "Ġmor": 990,
      "day": 991,
      "Ġstore": 992,
      "We": 993,
      "ĠR": 994,
      "Ġhigh": 995,
      "ange": 996,
      "Ġdiffer": 997,
      "Ġwr": 998,
      "Ġwatched": 999,
      "Ġar": 1000,
      "Ġmag": 1001,
      "Ġour": 1002,
      "Ġquickly": 1003,
      "ance": 1004,
      "ĠSpot": 1005,
      "Ġam": 1006,
      "Ġsure": 1007,
      "Ġcuri": 1008,
      "Ġbright": 1009,
      "Look": 1010,
      "ndma": 1011,
      "Ġde": 1012,
      "more": 1013,
      "Ġanymore": 1014,
      "Ġwarm": 1015,
      "ath": 1016,
      "Ġforg": 1017,
      "ered": 1018,
      "Ġpu": 1019,
      "Ġface": 1020,
      "Ġcloser": 1021,
      "Ġchild": 1022,
      "Ġbeen": 1023,
      "Ġvoice": 1024,
      "Ġdifferent": 1025,
      "Ġgoodbye": 1026,
      "lly": 1027,
      "Ġcake": 1028,
      "leep": 1029,
      "Ġdoes": 1030,
      "Ġcurious": 1031,
      "itc": 1032,
      "Ġhop": 1033,
      "Ġopen": 1034,
      "Anna": 1035,
      "Ġcook": 1036,
      "Ġpain": 1037,
      "Ġbutter": 1038,
      "Her": 1039,
      "Ġye": 1040,
      "Ġbel": 1041,
      "Ġhelped": 1042,
      "Ġtell": 1043,
      "Ġblock": 1044,
      "imes": 1045,
      "Ġfav": 1046,
      "Ġtra": 1047,
      "Ġcou": 1048,
      "Ġnight": 1049,
      "ached": 1050,
      "ired": 1051,
      "ush": 1052,
      "ĠTh": 1053,
      "Sara": 1054,
      "Ġfell": 1055,
      "uff": 1056,
      "Ġcont": 1057,
      "Ġfirst": 1058,
      "ila": 1059,
      "Can": 1060,
      "After": 1061,
      "Ġsweet": 1062,
      "Ġfire": 1063,
      "Ġz": 1064,
      "ĠMommy": 1065,
      "ppy": 1066,
      "Ġhappened": 1067,
      "Ġkitc": 1068,
      "Ġkitchen": 1069,
      "Ġpull": 1070,
      "orn": 1071,
      "Ġper": 1072,
      "unny": 1073,
      "Ġsees": 1074,
      "Ġthree": 1075,
      "Ġhere": 1076,
      "Ġmess": 1077,
      "Ġbirds": 1078,
      "Ġbit": 1079,
      "Ġsand": 1080,
      "Ġflo": 1081,
      "Ġjumped": 1082,
      "Ġbeh": 1083,
      "Ġonly": 1084,
      "Ġbrother": 1085,
      "Ġstop": 1086,
      "ater": 1087,
      "Ġdraw": 1088,
      "Ġkid": 1089,
      "Ġglad": 1090,
      "Ġgrabbed": 1091,
      "Ġdr": 1092,
      "Ġsing": 1093,
      "Ġsoft": 1094,
      "ĠJane": 1095,
      "kes": 1096,
      "Ġgame": 1097,
      "Ġhaving": 1098,
      "isy": 1099,
      "Jo": 1100,
      "Ġgrass": 1101,
      "Ġru": 1102,
      "ĠDo": 1103,
      "'re": 1104,
      "ĠAs": 1105,
      "Ġreached": 1106,
      "Ġrealized": 1107,
      "Ġate": 1108,
      "Ġworld": 1109,
      "Ġyummy": 1110,
      "Ġrest": 1111,
      "Ġthrough": 1112,
      "ĠEveryone": 1113,
      "ins": 1114,
      "zy": 1115,
      "oon": 1116,
      "nts": 1117,
      "Ġhat": 1118,
      "Ġpap": 1119,
      "Ġfavor": 1120,
      "ĠLet": 1121,
      "Ġtri": 1122,
      "where": 1123,
      "Ġless": 1124,
      "Ġcut": 1125,
      "Ġfavorite": 1126,
      "Ġready": 1127,
      "Ġbutterf": 1128,
      "ully": 1129,
      "Ġtired": 1130,
      "Ġshouted": 1131,
      "Ġfunny": 1132,
      "As": 1133,
      "Ġprin": 1134,
      "ĠCan": 1135,
      "Ġtast": 1136,
      "Ġlady": 1137,
      "Ġdone": 1138,
      "Ġcatch": 1139,
      "Ġfix": 1140,
      "Ġworry": 1141,
      "Ġreally": 1142,
      "Ġmagic": 1143,
      "Ġname": 1144,
      "Wow": 1145,
      "Ġsqu": 1146,
      "Ġcried": 1147,
      "Ġunderst": 1148,
      "ient": 1149,
      "Ġpretend": 1150,
      "Ġbegan": 1151,
      "Ġpart": 1152,
      "Ġpond": 1153,
      "Ġpare": 1154,
      "Timmy": 1155,
      "Ġhimself": 1156,
      "illed": 1157,
      "fully": 1158,
      "olly": 1159,
      "Ġthing": 1160,
      "Ġhair": 1161,
      "Ġcoming": 1162,
      "Ġmum": 1163,
      "Ġused": 1164,
      "ather": 1165,
      "Ġkids": 1166,
      "Ġfro": 1167,
      "ĠSarah": 1168,
      "Ġwaved": 1169,
      "ash": 1170,
      "Ġseen": 1171,
      "Ġmaking": 1172,
      "Ġgreen": 1173,
      "Ġflower": 1174,
      "Ġlooks": 1175,
      "Ġanother": 1176,
      "eddy": 1177,
      "Ġdin": 1178,
      "Ġdri": 1179,
      "ign": 1180,
      "ards": 1181,
      "Mommy": 1182,
      "Ġbunny": 1183,
      "Ġfarm": 1184,
      "Ġduck": 1185,
      "ren": 1186,
      "Ġbag": 1187,
      "Don": 1188,
      "Ġcool": 1189,
      "Ġyellow": 1190,
      "Ġblocks": 1191,
      "Ġhole": 1192,
      "Ġperf": 1193,
      "bo": 1194,
      "Ġprom": 1195,
      "ĠThat": 1196,
      "Ġtouch": 1197,
      "Ġdelic": 1198,
      "Ġworked": 1199,
      "Ġwished": 1200,
      "ued": 1201,
      "andy": 1202,
      "Ġbehind": 1203,
      "Ġwhy": 1204,
      "Ġba": 1205,
      "Ġhappily": 1206,
      "Ġpaper": 1207,
      "Ġlost": 1208,
      "ation": 1209,
      "Ġrunning": 1210,
      "Ġdro": 1211,
      "Ġremembered": 1212,
      "Ġleav": 1213,
      "ĠJoe": 1214,
      "Ġsho": 1215,
      "Ġcars": 1216,
      "Ġfull": 1217,
      "Ġtrees": 1218,
      "Ġlight": 1219,
      "Ġparents": 1220,
      "Ġgi": 1221,
      "Ġste": 1222,
      "aisy": 1223,
      "Ġtop": 1224,
      "Ġset": 1225,
      "Ġfloor": 1226,
      "Ġswim": 1227,
      "Ġsleep": 1228,
      "ĠJohn": 1229,
      "Ġbutterfly": 1230,
      "Ġsurprise": 1231,
      "oney": 1232,
      "Ġswing": 1233,
      "Ġhold": 1234,
      "Ġread": 1235,
      "Ġsmell": 1236,
      "Ġsat": 1237,
      "Ġlesson": 1238,
      "ike": 1239,
      "Ġhopped": 1240,
      "Ġthank": 1241,
      "Ġdream": 1242,
      "Ġneeded": 1243,
      "Ġwindow": 1244,
      "ely": 1245,
      "Ġbuy": 1246,
      "Ġslow": 1247,
      "Ġbow": 1248,
      "Ġdark": 1249,
      "Ġleft": 1250,
      "Ġfrog": 1251,
      "Ġwear": 1252,
      "Ġlaugh": 1253,
      "ens": 1254,
      "Ġspot": 1255,
      "Ġcold": 1256,
      "Ġmouse": 1257,
      "Ġcarefully": 1258,
      "ĠBenny": 1259,
      "Hell": 1260,
      "Ġmove": 1261,
      "Hello": 1262,
      "Ġtall": 1263,
      "Ġwood": 1264,
      "Ġhear": 1265,
      "Ġdoing": 1266,
      "Ġsnow": 1267,
      "iver": 1268,
      "Ġwrong": 1269,
      "rel": 1270,
      "ĠAfter": 1271,
      "Sam": 1272,
      "Ġherself": 1273,
      "Ġenjoyed": 1274,
      "Ġdir": 1275,
      "Ġyears": 1276,
      "Ġpre": 1277,
      "Ġice": 1278,
      "Ġhill": 1279,
      "Ġcontin": 1280,
      "Ġheld": 1281,
      "ĠSally": 1282,
      "Ġlikes": 1283,
      "Ġ-": 1284,
      "Ġbug": 1285,
      "Ġhun": 1286,
      "ined": 1287,
      "Ġair": 1288,
      "Ġhid": 1289,
      "Ġfollowed": 1290,
      "ĠIn": 1291,
      "anger": 1292,
      "Ġarri": 1293,
      "Ġfinished": 1294,
      "inally": 1295,
      "Ġbuild": 1296,
      "Ġtable": 1297,
      "\".": 1298,
      "Ġanything": 1299,
      "reed": 1300,
      "Ġchildren": 1301,
      "Ġfriendly": 1302,
      "Ġsurprised": 1303,
      "Ġbus": 1304,
      "Ġcast": 1305,
      "ream": 1306,
      "Ġmight": 1307,
      "cess": 1308,
      "Ġfair": 1309,
      "Ġplease": 1310,
      "Ġforgot": 1311,
      "Ġclose": 1312,
      "uit": 1313,
      "Ġdelicious": 1314,
      "ner": 1315,
      "Ġarrived": 1316,
      "Ġrel": 1317,
      "th": 1318,
      "Ġwonderful": 1319,
      "Ġcontinued": 1320,
      "ds": 1321,
      "Ġgrandma": 1322,
      "asure": 1323,
      "ĠNow": 1324,
      "ken": 1325,
      "Ġtight": 1326,
      "Ġhot": 1327,
      "Ġunderstand": 1328,
      "Ġcolors": 1329,
      "Ġarm": 1330,
      "TMs": 1331,
      "Ġgone": 1332,
      "Ġsong": 1333,
      "Ġel": 1334,
      "Ġleaves": 1335,
      "Ġgent": 1336,
      "John": 1337,
      "Ġmus": 1338,
      "ask": 1339,
      "sp": 1340,
      "ich": 1341,
      "ross": 1342,
      "Ġbooks": 1343,
      "Ġfilled": 1344,
      "Ġvis": 1345,
      "ield": 1346,
      "ĠK": 1347,
      "From": 1348,
      "ger": 1349,
      "Ġsomeone": 1350,
      "Ġlion": 1351,
      "ĠThere": 1352,
      "Ġwants": 1353,
      "Ġbroken": 1354,
      "uffy": 1355,
      "Then": 1356,
      "ĠDaisy": 1357,
      "OK": 1358,
      "lf": 1359,
      "Ġmet": 1360,
      "Ġable": 1361,
      "Ġyes": 1362,
      "Ġcount": 1363,
      "Ġmat": 1364,
      "ey": 1365,
      "Ġdanc": 1366,
      "Ġscary": 1367,
      "room": 1368,
      "'ll": 1369,
      "Ġtail": 1370,
      "Jack": 1371,
      "Ġpat": 1372,
      "ud": 1373,
      "Ġwall": 1374,
      "Ġgetting": 1375,
      "Ġagreed": 1376,
      "ated": 1377,
      "Ġpoin": 1378,
      "Ġcra": 1379,
      "Ġdinner": 1380,
      "man": 1381,
      "Ġelse": 1382,
      "ĠLila": 1383,
      "row": 1384,
      "Ġpictures": 1385,
      "Ġenough": 1386,
      "Ġwhite": 1387,
      "os": 1388,
      "Ġmakes": 1389,
      "Ġmoment": 1390,
      "Ġbreak": 1391,
      "Ġcookies": 1392,
      "Ġcastle": 1393,
      "Ġpuppy": 1394,
      "Ġamazing": 1395,
      "icy": 1396,
      "Ġothers": 1397,
      "Ġmorning": 1398,
      "Ġsail": 1399,
      "Ġtrying": 1400,
      "ĠThis": 1401,
      "ĠEm": 1402,
      "Ġfall": 1403,
      "aces": 1404,
      "Ġhungry": 1405,
      "Ġmother": 1406,
      "red": 1407,
      "ĠBilly": 1408,
      "Ġlistened": 1409,
      "app": 1410,
      "Ġfinally": 1411,
      "Ġtalk": 1412,
      "At": 1413,
      "Ġbaby": 1414,
      "Ġclimbed": 1415,
      "Ġfur": 1416,
      "ence": 1417,
      "Ġdaddy": 1418,
      "Ġwet": 1419,
      "Ġpink": 1420,
      "gon": 1421,
      "Ġpi": 1422,
      "Ġsometimes": 1423,
      "Ġmar": 1424,
      "ĠMaybe": 1425,
      "Ġperfect": 1426,
      "wl": 1427,
      "ries": 1428,
      "Ġcomp": 1429,
      "irrel": 1430,
      "This": 1431,
      "Ġclot": 1432,
      "Ġfew": 1433,
      "Ġmusic": 1434,
      "Ġturned": 1435,
      "Ġstayed": 1436,
      "Ġroll": 1437,
      "apped": 1438,
      "Ġbrought": 1439,
      "Ġclothes": 1440,
      "zz": 1441,
      "Ġfight": 1442,
      "Ġsmiles": 1443,
      "Ġeverything": 1444,
      "Ġpus": 1445,
      "rot": 1446,
      "Ġsquirrel": 1447,
      "ower": 1448,
      "oup": 1449,
      "ĠWhat": 1450,
      "oom": 1451,
      "Ġla": 1452,
      "key": 1453,
      "Ġspl": 1454,
      "oring": 1455,
      "gg": 1456,
      "Ġalone": 1457,
      "Ġthre": 1458,
      "Ġcream": 1459,
      "His": 1460,
      "Ġsear": 1461,
      "Ġpol": 1462,
      "Ġwasn": 1463,
      "Ġride": 1464,
      "Ġgrow": 1465,
      "Ġpet": 1466,
      "amp": 1467,
      "Ġmiss": 1468,
      "ucky": 1469,
      "Ġvisit": 1470,
      "Ġsilly": 1471,
      "Ġhide": 1472,
      "Ġbeach": 1473,
      "Ġcreat": 1474,
      "Ġsit": 1475,
      "Ġdeep": 1476,
      "der": 1477,
      "Ġamazed": 1478,
      "Ġwaited": 1479,
      "ĠJen": 1480,
      "Ġstrange": 1481,
      "ama": 1482,
      "que": 1483,
      "Ġcloud": 1484,
      "Ġdanger": 1485,
      "ever": 1486,
      "ister": 1487,
      "sh": 1488,
      "Ġspark": 1489,
      "Ġteddy": 1490,
      "Oh": 1491,
      "ĠGra": 1492,
      "elc": 1493,
      "aster": 1494,
      "ugg": 1495,
      "Maybe": 1496,
      "ĠTo": 1497,
      "Ġcandy": 1498,
      "Ġasks": 1499,
      "Ġjoy": 1500,
      "ames": 1501,
      "ope": 1502,
      "Ġpulled": 1503,
      "Ġwoods": 1504,
      "Ġparty": 1505,
      "Ġlake": 1506,
      "Ġleave": 1507,
      "Ġtowards": 1508,
      "Ġflying": 1509,
      "Max": 1510,
      "Ġem": 1511,
      "eter": 1512,
      "ott": 1513,
      "med": 1514,
      "ĠFl": 1515,
      "Ġmoral": 1516,
      "Ġbigger": 1517,
      "Ġfox": 1518,
      "Ġpromised": 1519,
      "Ġdance": 1520,
      "avy": 1521,
      "thy": 1522,
      "cket": 1523,
      "ix": 1524,
      "ises": 1525,
      "up": 1526,
      "ained": 1527,
      "Ġpa": 1528,
      "Ġliving": 1529,
      "Ġdolls": 1530,
      "Ġjob": 1531,
      "igg": 1532,
      "ĠAmy": 1533,
      "ctor": 1534,
      "outh": 1535,
      "Ġside": 1536,
      "Ġblank": 1537,
      "Ġshared": 1538,
      "Ġshar": 1539,
      "Ġland": 1540,
      "Ġmouth": 1541,
      "ph": 1542,
      "Ġblanket": 1543,
      "Ġgif": 1544,
      "Ġgrate": 1545,
      "Ġcup": 1546,
      "Ġeverywhere": 1547,
      "Ġpen": 1548,
      "Ġpie": 1549,
      "eces": 1550,
      "Ġbike": 1551,
      "ĠAll": 1552,
      "Ġworried": 1553,
      "fort": 1554,
      "Ġgu": 1555,
      "Ġtreat": 1556,
      "Ġgrateful": 1557,
      "Ġthinks": 1558,
      "Ġpieces": 1559,
      "Ġfarmer": 1560,
      "Ġsister": 1561,
      "Ġwon": 1562,
      "ze": 1563,
      "ĠTommy": 1564,
      "Okay": 1565,
      "Ġhelping": 1566,
      "Ġtreasure": 1567,
      "Ġfield": 1568,
      "Ġmoney": 1569,
      "Ġjoin": 1570,
      "Ġowner": 1571,
      "set": 1572,
      "Ġruns": 1573,
      "cle": 1574,
      "orm": 1575,
      "Ġpaint": 1576,
      "Ġwelc": 1577,
      "Ġplan": 1578,
      "unch": 1579,
      "Ġju": 1580,
      "Ġplant": 1581,
      "Ġbott": 1582,
      "Ġele": 1583,
      "Ġblack": 1584,
      "Ġcho": 1585,
      "Ġcrying": 1586,
      "Ġkiss": 1587,
      "Ġmagical": 1588,
      "Ġslowly": 1589,
      "Ġsnack": 1590,
      "bble": 1591,
      "ol": 1592,
      "Ġacc": 1593,
      "ident": 1594,
      "Ġrace": 1595,
      "Ġprincess": 1596,
      "ually": 1597,
      "Ġheavy": 1598,
      "sw": 1599,
      "Ġbelie": 1600,
      "ling": 1601,
      "Ġmon": 1602,
      "Ġdoctor": 1603,
      "ape": 1604,
      "Ġsuch": 1605,
      "Ġfaster": 1606,
      "Ġreach": 1607,
      "Ġbroke": 1608,
      "Ġdangerous": 1609,
      "used": 1610,
      "Ġansw": 1611,
      "ased": 1612,
      "Ġbowl": 1613,
      "me": 1614,
      "Ġatt": 1615,
      "Ġdirty": 1616,
      "Ġsmart": 1617,
      "ire": 1618,
      "ipp": 1619,
      "Ġmost": 1620,
      "Ġcolorful": 1621,
      "Ġtrain": 1622,
      "ĠJim": 1623,
      "iet": 1624,
      "Ġbar": 1625,
      "ĠJill": 1626,
      "Hi": 1627,
      "Sure": 1628,
      "Why": 1629,
      "Ġve": 1630,
      "Ġpass": 1631,
      "Ġsign": 1632,
      "Ġnap": 1633,
      "Ġdragon": 1634,
      "onster": 1635,
      "Ġthrew": 1636,
      "ipped": 1637,
      "Ġmonster": 1638,
      "Ġpro": 1639,
      "Ġballoon": 1640,
      "less": 1641,
      "Ġtown": 1642,
      "Ġstepped": 1643,
      "Ġmonkey": 1644,
      "Ġclosed": 1645,
      "Ġmix": 1646,
      "Ġcray": 1647,
      "ng": 1648,
      "umb": 1649,
      "Ġyard": 1650,
      "Ġquiet": 1651,
      "Ġcarrot": 1652,
      "Ġbuck": 1653,
      "Ġwords": 1654,
      "Ġsame": 1655,
      "ored": 1656,
      "ming": 1657,
      "Ġsec": 1658,
      "Ġscream": 1659,
      "Ġdisapp": 1660,
      "Ġpot": 1661,
      "ĠMolly": 1662,
      "Ġtower": 1663,
      "ear": 1664,
      "ee": 1665,
      "Ġeating": 1666,
      "Ġacross": 1667,
      "Ġstuck": 1668,
      "Ġheart": 1669,
      "Ġriver": 1670,
      "Ġtwins": 1671,
      "Ġfruit": 1672,
      "chool": 1673,
      "Ġaccident": 1674,
      "Ġcour": 1675,
      "Ġbutt": 1676,
      "Ġbath": 1677,
      "Ġwin": 1678,
      "Ġheal": 1679,
      "Ġje": 1680,
      "Ġhit": 1681,
      "asket": 1682,
      "ĠMr": 1683,
      "Ġhoped": 1684,
      "Ġteac": 1685,
      "Ġwouldn": 1686,
      "Ġcourse": 1687,
      "Ġmust": 1688,
      "Ġbrown": 1689,
      "Ġschool": 1690,
      "af": 1691,
      "ek": 1692,
      "Ġhig": 1693,
      "Ġbasket": 1694,
      "Ġbite": 1695,
      "Ġswings": 1696,
      "Ġgames": 1697,
      "Ġwithout": 1698,
      "Ġspr": 1699,
      "orrow": 1700,
      "Ġclapped": 1701,
      "iting": 1702,
      "Ġstand": 1703,
      "br": 1704,
      "Ġbring": 1705,
      "Ġpushed": 1706,
      "Ġsecret": 1707,
      "Ġowl": 1708,
      "eared": 1709,
      "Ġcoll": 1710,
      "ĠFluffy": 1711,
      "bow": 1712,
      "Ġlon": 1713,
      "ract": 1714,
      "cked": 1715,
      "Ġthrow": 1716,
      "Ġpack": 1717,
      "Ġcorn": 1718,
      "Ġnoises": 1719,
      "Ġbelieve": 1720,
      "ney": 1721,
      "Ġlonely": 1722,
      "ster": 1723,
      "Ġshoes": 1724,
      "Ġtoday": 1725,
      "Ġgentle": 1726,
      "Ġgift": 1727,
      "Ġpers": 1728,
      "Ġsmo": 1729,
      "Ġleg": 1730,
      "Ġfeels": 1731,
      "Ġcheered": 1732,
      "Ġupset": 1733,
      "ier": 1734,
      "Mia": 1735,
      "Ġpocket": 1736,
      "Ġteacher": 1737,
      "ead": 1738,
      "ress": 1739,
      "ord": 1740,
      "ors": 1741,
      "Ġexplained": 1742,
      "Ġshop": 1743,
      "Ġsea": 1744,
      "vel": 1745,
      "ventually": 1746,
      "Ġjour": 1747,
      "ible": 1748,
      "weet": 1749,
      "Ġben": 1750,
      "Ġhappen": 1751,
      "Ġneigh": 1752,
      "Ġrainbow": 1753,
      "Ġdrove": 1754,
      "Ġwelcome": 1755,
      "Finally": 1756,
      "stead": 1757,
      "Ġhigher": 1758,
      "TMt": 1759,
      "phant": 1760,
      "Ġbee": 1761,
      "Ġadventures": 1762,
      "Ġchair": 1763,
      "Ġfairy": 1764,
      "Ġneighb": 1765,
      "Ġmin": 1766,
      "Ġdropped": 1767,
      "Ġlonger": 1768,
      "ung": 1769,
      "Ġneck": 1770,
      "Ġorange": 1771,
      "Ġturns": 1772,
      "Ġsang": 1773,
      "Ġhugs": 1774,
      "Ġsuddenly": 1775,
      "Ġforget": 1776,
      "Ġrocks": 1777,
      "Ġlunch": 1778,
      "Ġwings": 1779,
      "Ġdry": 1780,
      "Ġswam": 1781,
      "Ġelephant": 1782,
      "Ġwell": 1783,
      "ĠEmma": 1784,
      "Ġpast": 1785,
      "Ġfence": 1786,
      "Ġwhe": 1787,
      "Ġnaught": 1788,
      "Ġmoved": 1789,
      "Ġtrou": 1790,
      "Ġcaught": 1791,
      "yard": 1792,
      "Ġnaughty": 1793,
      "Ġfree": 1794,
      "ount": 1795,
      "ĠDaddy": 1796,
      "Ġapple": 1797,
      "ho": 1798,
      "Ġyoung": 1799,
      "itting": 1800,
      "Ġsoup": 1801,
      "Ġpig": 1802,
      "Ġstar": 1803,
      "Ġwise": 1804,
      "let": 1805,
      "Ġbackyard": 1806,
      "Ġbelong": 1807,
      "Lila": 1808,
      "Ġseemed": 1809,
      "Ġthough": 1810,
      "Ġbucket": 1811,
      "fused": 1812,
      "Ġresp": 1813,
      "Ġtaking": 1814,
      "Ġlate": 1815,
      "Ġob": 1816,
      "Ġexploring": 1817,
      "Ġmine": 1818,
      "Ġalong": 1819,
      "Ġband": 1820,
      "Ġspo": 1821,
      "Ġexp": 1822,
      "Ġwoke": 1823,
      "ocked": 1824,
      "Ġdrink": 1825,
      "de": 1826,
      "Ġsu": 1827,
      "Ġwish": 1828,
      "Ġtiny": 1829,
      "Ġdriver": 1830,
      "idge": 1831,
      "Ġtom": 1832,
      "ittens": 1833,
      "Ġaf": 1834,
      "Ġes": 1835,
      "Ġph": 1836,
      "col": 1837,
      "ment": 1838,
      "Ġjar": 1839,
      "Ġnose": 1840,
      "Ġpiece": 1841,
      "Ġstars": 1842,
      "Do": 1843,
      "Ġshook": 1844,
      "Ġsinging": 1845,
      "anch": 1846,
      "Ġbranch": 1847,
      "Ġwar": 1848,
      "Ġkey": 1849,
      "ĠThank": 1850,
      "vered": 1851,
      "Ġstories": 1852,
      "Ġnearby": 1853,
      "oun": 1854,
      "Ġsick": 1855,
      "ese": 1856,
      "bby": 1857,
      "Ġbat": 1858,
      "Ġbench": 1859,
      "itty": 1860,
      "ĠMary": 1861,
      "Ġrelie": 1862,
      "Ġdes": 1863,
      "llo": 1864,
      "raid": 1865,
      "ball": 1866,
      "Ġinv": 1867,
      "Ġwhist": 1868,
      "Ġjuice": 1869,
      "Ġafraid": 1870,
      "Ġmail": 1871,
      "Ġbusy": 1872,
      "ions": 1873,
      "Later": 1874,
      "Ġca": 1875,
      "Ġnest": 1876,
      "Ġarms": 1877,
      "sy": 1878,
      "Ġegg": 1879,
      "Ġtakes": 1880,
      "Ġround": 1881,
      "Ġkite": 1882,
      "ountain": 1883,
      "Ġwondered": 1884,
      "ose": 1885,
      "thday": 1886,
      "gged": 1887,
      "Of": 1888,
      "apes": 1889,
      "Ġlaughing": 1890,
      "Ġpurp": 1891,
      "Ġmark": 1892,
      "reet": 1893,
      "Ġcarry": 1894,
      "Ġcomes": 1895,
      "ĠGrandma": 1896,
      "la": 1897,
      "ining": 1898,
      "Ġsunny": 1899,
      "ĠCome": 1900,
      "Ġpatient": 1901,
      "Ġlift": 1902,
      "Ġpres": 1903,
      "Ġaccidentally": 1904,
      "Ġstreet": 1905,
      "Ġsounds": 1906,
      "Ġcute": 1907,
      "ped": 1908,
      "Ġsitting": 1909,
      "ĠTweet": 1910,
      "Ġinter": 1911,
      "ĠFinally": 1912,
      "Ġwra": 1913,
      "Ġcir": 1914,
      "ndp": 1915,
      "Ġdays": 1916,
      "Ġnothing": 1917,
      "Ġking": 1918,
      "ĠInside": 1919,
      "ours": 1920,
      "ward": 1921,
      "Ġmil": 1922,
      "aughter": 1923,
      "Ġcomfort": 1924,
      "Ġcave": 1925,
      "Ġshapes": 1926,
      "Ġdisco": 1927,
      "Ġbirthday": 1928,
      "Ġsnowman": 1929,
      "Ġholding": 1930,
      "Ġpurple": 1931,
      "Ġletter": 1932,
      "Ġhello": 1933,
      "uched": 1934,
      "Ġtouched": 1935,
      "Ġgigg": 1936,
      "Ġlife": 1937,
      "Ġrelieved": 1938,
      "Ġ3": 1939,
      "Ġmad": 1940,
      "ĠSoon": 1941,
      "Ġpudd": 1942,
      "Ġeas": 1943,
      "Ġcozy": 1944,
      "Ġforever": 1945,
      "Ġcheese": 1946,
      "Ġmist": 1947,
      "Ġinstead": 1948,
      "Ġpuzz": 1949,
      "Ġyear": 1950,
      "Ġinterest": 1951,
      "Ġhuge": 1952,
      "ize": 1953,
      "Ġdanced": 1954,
      "epend": 1955,
      "Ġfit": 1956,
      "Ġpower": 1957,
      "adow": 1958,
      "Ġexciting": 1959,
      "shine": 1960,
      "And": 1961,
      "Ġanyone": 1962,
      "irt": 1963,
      "cks": 1964,
      "Ġsunshine": 1965,
      "Ġsandw": 1966,
      "board": 1967,
      "pping": 1968,
      "alm": 1969,
      "Ġsearched": 1970,
      "Ġret": 1971,
      "Ġimag": 1972,
      "Ġbought": 1973,
      "Ġbread": 1974,
      "Ġjourney": 1975,
      "itten": 1976,
      "unt": 1977,
      "Ġpresent": 1978,
      "Ġdaughter": 1979,
      "Ġfing": 1980,
      "Ġinc": 1981,
      "ove": 1982,
      "Ġear": 1983,
      "Ġplane": 1984,
      "Ġcard": 1985,
      "Ġsmiling": 1986,
      "Ġcrayons": 1987,
      "Ġboun": 1988,
      "Ġvill": 1989,
      "ndpa": 1990,
      "Ġmilk": 1991,
      "Ġlucky": 1992,
      "aur": 1993,
      "Hey": 1994,
      "Ġwatching": 1995,
      "Ġreturn": 1996,
      "ity": 1997,
      "Ġce": 1998,
      "Bob": 1999,
      "Ġswimming": 2000,
      "Ġroad": 2001,
      "Ġtasty": 2002,
      "Ġcreature": 2003,
      "Ġducks": 2004,
      "Ġkick": 2005,
      "Ġsharp": 2006,
      "fish": 2007,
      "itch": 2008,
      "Ġlater": 2009,
      "ten": 2010,
      "Ġstorm": 2011,
      "og": 2012,
      "Ġpeace": 2013,
      "Ġcow": 2014,
      "Ġcoat": 2015,
      "Ġbottle": 2016,
      "Ġbush": 2017,
      "eth": 2018,
      "Ġpointed": 2019,
      "Ġgrab": 2020,
      "Ġgives": 2021,
      "act": 2022,
      "Ġonto": 2023,
      "ĠMama": 2024,
      "Ġtun": 2025,
      "Ġhope": 2026,
      "Ġclouds": 2027,
      "ness": 2028,
      "Ġdi": 2029,
      "Ġrolled": 2030,
      "Ġwrite": 2031,
      "ĠSammy": 2032,
      "oose": 2033,
      "blem": 2034,
      "ĠO": 2035,
      "ont": 2036,
      "Ġsuc": 2037,
      "Ġsmelled": 2038,
      "ub": 2039,
      "Ġtalked": 2040,
      "Ġproblem": 2041,
      "Ġpath": 2042,
      "Ġres": 2043,
      "Ġlovely": 2044,
      "Ġinteresting": 2045,
      "Ġpract": 2046,
      "Ġsack": 2047,
      "Ġap": 2048,
      "Ġsur": 2049,
      "Ġperson": 2050,
      "Ġorgan": 2051,
      "Ġfront": 2052,
      "Ġspoon": 2053,
      "ometimes": 2054,
      "Ġcollect": 2055,
      "Ġrespect": 2056,
      "Ġzoom": 2057,
      "Good": 2058,
      "Ġfeather": 2059,
      "Ġmeet": 2060,
      "Ġbutton": 2061,
      "Ġhealthy": 2062,
      "Ġsaf": 2063,
      "ĠMittens": 2064,
      "Ġpromise": 2065,
      "Lucy": 2066,
      "Ġpill": 2067,
      "Ġpar": 2068,
      "Ġtasted": 2069,
      "ĠJimmy": 2070,
      "Ġwild": 2071,
      "Ġstu": 2072,
      "Ġent": 2073,
      "Ġloves": 2074,
      "Ġeag": 2075,
      "umber": 2076,
      "Ġcoin": 2077,
      "Ġtrouble": 2078,
      "Ġwide": 2079,
      "Ġknee": 2080,
      "Ġteach": 2081,
      "Ġrob": 2082,
      "Ġworm": 2083,
      "Ġshining": 2084,
      "owed": 2085,
      "Ġrope": 2086,
      "cer": 2087,
      "els": 2088,
      "Ġfoot": 2089,
      "Ġquest": 2090,
      "aced": 2091,
      "lla": 2092,
      "Ġdirt": 2093,
      "Ġsnake": 2094,
      "Ġadm": 2095,
      "Ġcheer": 2096,
      "Ġlay": 2097,
      "Ġrobot": 2098,
      "Ġputs": 2099,
      "Ġwearing": 2100,
      "Ġrocket": 2101,
      "Ġhon": 2102,
      "isa": 2103,
      "Ġpile": 2104,
      "Ġpretended": 2105,
      "Ġhelpful": 2106,
      "Ġwave": 2107,
      "amed": 2108,
      "Ġasleep": 2109,
      "Ġclever": 2110,
      "Ġapples": 2111,
      "Ġcouch": 2112,
      "Ġhoney": 2113,
      "Ġgather": 2114,
      "Ġgiant": 2115,
      "Ġwhole": 2116,
      "Ġmyster": 2117,
      "Ġplaces": 2118,
      "Ġwhich": 2119,
      "Ġspid": 2120,
      "Ġgently": 2121,
      "Ġfaces": 2122,
      "Ġgoes": 2123,
      "Ġimpress": 2124,
      "Ġbuilding": 2125,
      "In": 2126,
      "hile": 2127,
      "mer": 2128,
      "Ġbark": 2129,
      "Ġthin": 2130,
      "cean": 2131,
      "Every": 2132,
      "Ġocean": 2133,
      "Ġact": 2134,
      "Ġzoo": 2135,
      "Ġslid": 2136,
      "ching": 2137,
      "Ġrec": 2138,
      "Ġspin": 2139,
      "Come": 2140,
      "Ġspent": 2141,
      "Ġdrive": 2142,
      "Ġwom": 2143,
      "Ġdist": 2144,
      "Ġprot": 2145,
      "Tommy": 2146,
      "Ġcorner": 2147,
      "Ġwoman": 2148,
      "Ġsort": 2149,
      "Ġhor": 2150,
      "Ġspotted": 2151,
      "Ġmatter": 2152,
      "Ġcart": 2153,
      "Ġpop": 2154,
      "Ġspicy": 2155,
      "Ġring": 2156,
      "Ġscreamed": 2157,
      "Ġtalking": 2158,
      "Ġchocol": 2159,
      "Ġser": 2160,
      "Ġconfused": 2161,
      "Ġprotect": 2162,
      "ale": 2163,
      "Ġscar": 2164,
      "Ġtrip": 2165,
      "Ġphone": 2166,
      "Molly": 2167,
      "Ġshell": 2168,
      "Ġemb": 2169,
      "Ġwaiting": 2170,
      "Ġfurry": 2171,
      "Ġvillage": 2172,
      "nic": 2173,
      "Ġign": 2174,
      "Ġpush": 2175,
      "ular": 2176,
      "Ġpicnic": 2177,
      "Ġlad": 2178,
      "ĠGo": 2179,
      "ĠRe": 2180,
      "St": 2181,
      "ife": 2182,
      "Ġant": 2183,
      "Ġblew": 2184,
      "Ġtaste": 2185,
      "ult": 2186,
      "izz": 2187,
      "Ġforgive": 2188,
      "Ġmind": 2189,
      "bbles": 2190,
      "Ġminut": 2191,
      "arr": 2192,
      "Ġoven": 2193,
      "Ġsupp": 2194,
      "ert": 2195,
      "Ġwhenever": 2196,
      "Ġash": 2197,
      "Ġseat": 2198,
      "erly": 2199,
      "Ġmach": 2200,
      "Ġcloth": 2201,
      "Ġfinish": 2202,
      "Ġsplas": 2203,
      "Just": 2204,
      "arge": 2205,
      "Ġshr": 2206,
      "Ġchick": 2207,
      "Ġneighbor": 2208,
      "Ġchocolate": 2209,
      "arrass": 2210,
      "Ġmud": 2211,
      "nny": 2212,
      "Ġembarrass": 2213,
      "ĠSometimes": 2214,
      "Ġcookie": 2215,
      "ĠWith": 2216,
      "Ġsongs": 2217,
      "Ġlast": 2218,
      "Ġshy": 2219,
      "ĠAl": 2220,
      "Ġfixed": 2221,
      "Ġtomorrow": 2222,
      "Ġcalm": 2223,
      "Ġshirt": 2224,
      "Ġladder": 2225,
      "ĠJenny": 2226,
      "Ġwash": 2227,
      "lex": 2228,
      "Ġbell": 2229,
      "Ġfeet": 2230,
      "Ġnet": 2231,
      "mo": 2232,
      "ÅĵI": 2233,
      "Ġappeared": 2234,
      "Ġpuddle": 2235,
      "hnny": 2236,
      "Ġstir": 2237,
      "Ġcolour": 2238,
      "Ġstep": 2239,
      "ird": 2240,
      "Ġpuzzle": 2241,
      "ĠHow": 2242,
      "aser": 2243,
      "Ġeventually": 2244,
      "Ġhiding": 2245,
      "lower": 2246,
      "Ġmed": 2247,
      "Ġfighting": 2248,
      "old": 2249,
      "Ġtool": 2250,
      "Ġspider": 2251,
      "Ġtid": 2252,
      "Ġval": 2253,
      "Ġdelight": 2254,
      "Ġbal": 2255,
      "ĠSome": 2256,
      "lebr": 2257,
      "ĠCh": 2258,
      "Ġpool": 2259,
      "Ġfold": 2260,
      "Ġcelebr": 2261,
      "Now": 2262,
      "Ġlarge": 2263,
      "Ġteeth": 2264,
      "Ġhorse": 2265,
      "pper": 2266,
      "getable": 2267,
      "Ġanswer": 2268,
      "Ġcoo": 2269,
      "oph": 2270,
      "Soon": 2271,
      "ĠKitty": 2272,
      "Ġvegetable": 2273,
      "Ġsmooth": 2274,
      "ungle": 2275,
      "Ġwhistle": 2276,
      "Ġremind": 2277,
      "My": 2278,
      "gly": 2279,
      "Ġjungle": 2280,
      "Ġpour": 2281,
      "Ġstret": 2282,
      "ancy": 2283,
      "Jim": 2284,
      "Ġugly": 2285,
      "Ġneckl": 2286,
      "Ġwip": 2287,
      "Ġtries": 2288,
      "Mum": 2289,
      "Ġban": 2290,
      "Ġmaybe": 2291,
      "Ġgun": 2292,
      "Ġsave": 2293,
      "Ġspe": 2294,
      "Ġtea": 2295,
      "Ġsticks": 2296,
      "Ġtrust": 2297,
      "Ġgrew": 2298,
      "Ġbarked": 2299,
      "ground": 2300,
      "ory": 2301,
      "arm": 2302,
      "ĠTheir": 2303,
      "Ġsol": 2304,
      "urse": 2305,
      "Ġwore": 2306,
      "Ġrep": 2307,
      "Ġmot": 2308,
      "den": 2309,
      "Ġlive": 2310,
      "Ġkitten": 2311,
      "als": 2312,
      "Ġmeant": 2313,
      "Ġflut": 2314,
      "Ġmoon": 2315,
      "Ġspray": 2316,
      "Ġsal": 2317,
      "Ġcann": 2318,
      "Ġseek": 2319,
      "Ġsparkly": 2320,
      "Ġsplash": 2321,
      "Ġcannot": 2322,
      "ones": 2323,
      "Ġ'": 2324,
      "read": 2325,
      "Ġbugs": 2326,
      "umpy": 2327,
      "Ġembarrassed": 2328,
      "Ġple": 2329,
      "Ġint": 2330,
      "unk": 2331,
      "Ġtightly": 2332,
      "Ġnut": 2333,
      "Ġspread": 2334,
      "Ġknocked": 2335,
      "Ġclear": 2336,
      "Ġtreats": 2337,
      "Ġhum": 2338,
      "ĠTV": 2339,
      "Ġgold": 2340,
      "Ġtidy": 2341,
      "ian": 2342,
      "Ġfort": 2343,
      "ighed": 2344,
      "Ġpolite": 2345,
      "Ġpaw": 2346,
      "oin": 2347,
      "Ġtest": 2348,
      "dle": 2349,
      "Ġsour": 2350,
      "Ġfancy": 2351,
      "Ġgray": 2352,
      "Ġhidden": 2353,
      "Ġcreative": 2354,
      "Ġhears": 2355,
      "Ġgar": 2356,
      "Ġsel": 2357,
      "ĠPlease": 2358,
      "Ġnecklace": 2359,
      "ĠJust": 2360,
      "Ġchased": 2361,
      "ustr": 2362,
      "Ġmissed": 2363,
      "eb": 2364,
      "hin": 2365,
      "ned": 2366,
      "Ġthese": 2367,
      "Ġpin": 2368,
      "Ġjumping": 2369,
      "Ġav": 2370,
      "Ġburn": 2371,
      "Ġstood": 2372,
      "Ġstring": 2373,
      "Ġrude": 2374,
      "cy": 2375,
      "ato": 2376,
      "ĠSt": 2377,
      "Ġstone": 2378,
      "Ġshelf": 2379,
      "Ġlem": 2380,
      "box": 2381,
      "Ġemp": 2382,
      "Ġdisappoin": 2383,
      "Ġcirc": 2384,
      "erry": 2385,
      "Ġcarrots": 2386,
      "Ġempty": 2387,
      "vous": 2388,
      "Ġmountain": 2389,
      "Ġleaf": 2390,
      "Ġcarried": 2391,
      "Ġtells": 2392,
      "Ġbanan": 2393,
      "Ġfrustr": 2394,
      "ĠEmily": 2395,
      "ĠOn": 2396,
      "Ġgas": 2397,
      "Ġroar": 2398,
      "Ġblow": 2399,
      "ĠBr": 2400,
      "Ġlanded": 2401,
      "ond": 2402,
      "era": 2403,
      "Ġpir": 2404,
      "Ġgen": 2405,
      "Ġfeed": 2406,
      "ony": 2407,
      "ĠWhy": 2408,
      "ĠEverywhere": 2409,
      "Ġdrew": 2410,
      "airs": 2411,
      "Ġyelled": 2412,
      "Ġline": 2413,
      "Ġcross": 2414,
      "Ġforward": 2415,
      "Ġsnacks": 2416,
      "Ġpillow": 2417,
      "Ġgroup": 2418,
      "Ġsharing": 2419,
      "Ġsandwich": 2420,
      "Ġselfish": 2421,
      "ator": 2422,
      "Ġner": 2423,
      "Ġpri": 2424,
      "Ġbreath": 2425,
      "Ġsleepy": 2426,
      "Ġmysterious": 2427,
      "Ġscarf": 2428,
      "Ġfrustrated": 2429,
      "ital": 2430,
      "Ġmachine": 2431,
      "ying": 2432,
      "Ġmeadow": 2433,
      "Ġdecor": 2434,
      "ches": 2435,
      "Ġmessy": 2436,
      "Ġnervous": 2437,
      "To": 2438,
      "Ġseed": 2439,
      "eterm": 2440,
      "Ġdisappointed": 2441,
      "Ġfil": 2442,
      "Ġstra": 2443,
      "Ġpolice": 2444,
      "Ġstanding": 2445,
      "Ġgarage": 2446,
      "Ġdeterm": 2447,
      "Ġmotor": 2448,
      "ym": 2449,
      "uce": 2450,
      "ĠJake": 2451,
      "Ġhosp": 2452,
      "Please": 2453,
      "Ġcries": 2454,
      "Ġnumber": 2455,
      "issors": 2456,
      "osaur": 2457,
      "Stop": 2458,
      "most": 2459,
      "Ġpizz": 2460,
      "Ġflag": 2461,
      "ĠEven": 2462,
      "Ġlegs": 2463,
      "Ġhospital": 2464,
      "Ġclown": 2465,
      "Ġspoil": 2466,
      "Ġfig": 2467,
      "Ġscissors": 2468,
      "Ġknowing": 2469,
      "Ġpeaceful": 2470,
      "Ġhonest": 2471,
      "ano": 2472,
      "ĠTogether": 2473,
      "ery": 2474,
      "Ġcand": 2475,
      "Ġwhis": 2476,
      "Ġreg": 2477,
      "Ġalmost": 2478,
      "ĠLe": 2479,
      "ĠLisa": 2480,
      "Ġwagged": 2481,
      "Ġfear": 2482,
      "Ġballs": 2483,
      "Ġcrab": 2484,
      "Ġhur": 2485,
      "Ġhours": 2486,
      "Ġcri": 2487,
      "ĠMum": 2488,
      "Ġscre": 2489,
      "kin": 2490,
      "Ġknight": 2491,
      "Ġashamed": 2492,
      "There": 2493,
      "Ġnods": 2494,
      "elly": 2495,
      "Ġplants": 2496,
      "oof": 2497,
      "Ġunderstood": 2498,
      "izzy": 2499,
      "Ġpassed": 2500,
      "Ġeasy": 2501,
      "Ġvan": 2502,
      "Ġjew": 2503,
      "Ġcomfortable": 2504,
      "Ġpowerful": 2505,
      "Ġtaught": 2506,
      "Ġchest": 2507,
      "Ġvegetables": 2508,
      "ets": 2509,
      "Ġdancing": 2510,
      "obby": 2511,
      "ĠBe": 2512,
      "pack": 2513,
      "Ġfill": 2514,
      "Ġhel": 2515,
      "Ġdinosaur": 2516,
      "Be": 2517,
      "Ġbored": 2518,
      "ĠTeddy": 2519,
      "usie": 2520,
      "ĠJohnny": 2521,
      "oons": 2522,
      "Ġfinger": 2523,
      "Ġscr": 2524,
      "Jane": 2525,
      "Ġtears": 2526,
      "Ġminutes": 2527,
      "ti": 2528,
      "Ġmummy": 2529,
      "itter": 2530,
      "Ġruined": 2531,
      "Ġsuccess": 2532,
      "Ġwhisp": 2533,
      "ĠOK": 2534,
      "Ġsque": 2535,
      "ĠBl": 2536,
      "Ġexam": 2537,
      "Ġlead": 2538,
      "Ġglass": 2539,
      "Ġgener": 2540,
      "Ġpizza": 2541,
      "Ġpray": 2542,
      "ĠDon": 2543,
      "Ġchew": 2544,
      "Ġgiggled": 2545,
      "Ġplate": 2546,
      "ecially": 2547,
      "ensive": 2548,
      "Ġwaves": 2549,
      "ella": 2550,
      "Ġexpensive": 2551,
      "Ġreturned": 2552,
      "Where": 2553,
      "pecially": 2554,
      "Ġpan": 2555,
      "Ġexcite": 2556,
      "Ġespecially": 2557,
      "Dad": 2558,
      "Ġoften": 2559,
      "Ġplayground": 2560,
      "ĠAnn": 2561,
      "Ġbecome": 2562,
      "Ġkissed": 2563,
      "Mama": 2564,
      "iddle": 2565,
      "Ġsaved": 2566,
      "Ġbrush": 2567,
      "Ġfruits": 2568,
      "Ġasking": 2569,
      "Ġweek": 2570,
      "Ġyourself": 2571,
      "aken": 2572,
      "Ġdrum": 2573,
      "Ġcage": 2574,
      "ĠBrown": 2575,
      "Ġcloset": 2576,
      "Ġpacked": 2577,
      "Ġhang": 2578,
      "Ġtwirl": 2579,
      "Ġsweetie": 2580,
      "Ġque": 2581,
      "Ġtick": 2582,
      "Ġpay": 2583,
      "Ġshore": 2584,
      "Ġvase": 2585,
      "Ġanswered": 2586,
      "Ġbathroom": 2587,
      "Ġexcitement": 2588,
      "Ġtaken": 2589,
      "Ġlit": 2590,
      "Ġgate": 2591,
      "ote": 2592,
      "Ġfridge": 2593,
      "Ġtrue": 2594,
      "Ġpleased": 2595,
      "Ġlemon": 2596,
      "Ġdetermined": 2597,
      "ual": 2598,
      "Ġtag": 2599,
      "cept": 2600,
      "ĠPeter": 2601,
      "Ġeggs": 2602,
      "Ġweak": 2603,
      "Ġfluffy": 2604,
      "Ġhopping": 2605,
      "Ġgrumpy": 2606,
      "Ġdrawing": 2607,
      "ina": 2608,
      "Ġfake": 2609,
      "ates": 2610,
      "Ġboard": 2611,
      "Ġgets": 2612,
      "Ġmatch": 2613,
      "Ġwis": 2614,
      "Ġbridge": 2615,
      "Ġworking": 2616,
      "Ġgenerous": 2617,
      "Ġdish": 2618,
      "Ġmiddle": 2619,
      "Ġclap": 2620,
      "Ġsailed": 2621,
      "Ġship": 2622,
      "Ġpoor": 2623,
      "'d": 2624,
      "Ġind": 2625,
      "Ġbone": 2626,
      "Ġlock": 2627,
      "uddy": 2628,
      "Ġprince": 2629,
      "Ġsheep": 2630,
      "Ġsoap": 2631,
      "Ġcleaned": 2632,
      "ots": 2633,
      "light": 2634,
      "Ġones": 2635,
      "ĠZ": 2636,
      "Ġwander": 2637,
      "Ġdest": 2638,
      "Ġbedroom": 2639,
      "Ġesc": 2640,
      "Ġsighed": 2641,
      "Ġstuff": 2642,
      "Ġeye": 2643,
      "Ġmistake": 2644,
      "iness": 2645,
      "iger": 2646,
      "Ġdogs": 2647,
      "mb": 2648,
      "Ġboring": 2649,
      "illi": 2650,
      "Ġspend": 2651,
      "Ġord": 2652,
      "Sarah": 2653,
      "Ġmighty": 2654,
      "Ġtunn": 2655,
      "Ġcovered": 2656,
      "Ġglow": 2657,
      "Ġrough": 2658,
      "ĠAt": 2659,
      "aged": 2660,
      "pill": 2661,
      "ete": 2662,
      "oop": 2663,
      "Ġcheck": 2664,
      "Ġqueen": 2665,
      "ushed": 2666,
      "Ġsold": 2667,
      "Ġclass": 2668,
      "Ġpicks": 2669,
      "Ġcontent": 2670,
      "Ġgrandpa": 2671,
      "selves": 2672,
      "Are": 2673,
      "erpill": 2674,
      "arl": 2675,
      "Ġchange": 2676,
      "astic": 2677,
      "Ġcaterpill": 2678,
      "Ġthankful": 2679,
      "Ġrelax": 2680,
      "Who": 2681,
      "elp": 2682,
      "arth": 2683,
      "Ġwrote": 2684,
      "Ġstones": 2685,
      "Ġincred": 2686,
      "Sue": 2687,
      "Ġcap": 2688,
      "Ġpil": 2689,
      "Ġdrop": 2690,
      "Ġgathered": 2691,
      "Ġtie": 2692,
      "Ġmic": 2693,
      "ĠIf": 2694,
      "Ġlose": 2695,
      "Ġboss": 2696,
      "ĠEnd": 2697,
      "Ġdiscovered": 2698,
      "Jill": 2699,
      "Ġtent": 2700,
      "Their": 2701,
      "Ġdisappeared": 2702,
      "Ġwheel": 2703,
      "ĠBlue": 2704,
      "Ġadd": 2705,
      "Ġdepend": 2706,
      "Ġang": 2707,
      "Ġdrank": 2708,
      "Ġrid": 2709,
      "Ġglue": 2710,
      "Ġhurts": 2711,
      "Ġnod": 2712,
      "Ġshows": 2713,
      "Ġskipped": 2714,
      "Ġsplashed": 2715,
      "Ġcaterpillar": 2716,
      "land": 2717,
      "Ġsil": 2718,
      "asing": 2719,
      "Ġboys": 2720,
      "Ġcrack": 2721,
      "ĠRex": 2722,
      "Me": 2723,
      "Ġborrow": 2724,
      "Ġlying": 2725,
      "Ġpant": 2726,
      "Ġrare": 2727,
      "Ġcover": 2728,
      "Ġmoving": 2729,
      "Ġshoot": 2730,
      "Ġmedic": 2731,
      "Ġbalance": 2732,
      "Sally": 2733,
      "Ġsug": 2734,
      "Ġhorn": 2735,
      "Ġjelly": 2736,
      "Ġcalling": 2737,
      "Ġtowel": 2738,
      "Ġmagn": 2739,
      "Jimmy": 2740,
      "Ġmeasure": 2741,
      "Ġfeathers": 2742,
      "Ġed": 2743,
      "amond": 2744,
      "Ġgrace": 2745,
      "Ġpress": 2746,
      "umbled": 2747,
      "Ġquestions": 2748,
      "Ġmedicine": 2749,
      "Ġears": 2750,
      "Ġknife": 2751,
      "Ġsunf": 2752,
      "Ġincredible": 2753,
      "Help": 2754,
      "Sorry": 2755,
      "ination": 2756,
      "imed": 2757,
      "Ġdecide": 2758,
      "Ġsmelly": 2759,
      "Ġsugar": 2760,
      "ts": 2761,
      "Ġfamous": 2762,
      "Ġeager": 2763,
      "Ġbake": 2764,
      "Ġrich": 2765,
      "Ġbubbles": 2766,
      "Ġwalks": 2767,
      "Ġcraw": 2768,
      "Ġdistance": 2769,
      "ĠLeo": 2770,
      "Mummy": 2771,
      "edient": 2772,
      "Ġdig": 2773,
      "ating": 2774,
      "adi": 2775,
      "Ġbranc": 2776,
      "Ġtrucks": 2777,
      "Ġcrawl": 2778,
      "Ġlazy": 2779,
      "Ġcrawled": 2780,
      "Ġbranches": 2781,
      "appy": 2782,
      "Ġsight": 2783,
      "Ġadventur": 2784,
      "ique": 2785,
      "Ġthick": 2786,
      "Ġyarn": 2787,
      "Ġlog": 2788,
      "Ġjam": 2789,
      "Ġchoose": 2790,
      "Ġgrown": 2791,
      "Ġdiamond": 2792,
      "Ġfool": 2793,
      "Ġmap": 2794,
      "Ġhappening": 2795,
      "gy": 2796,
      "ork": 2797,
      "enny": 2798,
      "Ġnoisy": 2799,
      "Ġcoins": 2800,
      "Ġmole": 2801,
      "Ġunique": 2802,
      "body": 2803,
      "Ġcolourful": 2804,
      "Ġdependable": 2805,
      "Ġorganized": 2806,
      "yal": 2807,
      "Ġfis": 2808,
      "Ġfather": 2809,
      "Ġmov": 2810,
      "Ġsafely": 2811,
      "Ġflute": 2812,
      "Ġtunnel": 2813,
      "port": 2814,
      "usual": 2815,
      "Ġbrilli": 2816,
      "Ġteam": 2817,
      "Ġaccept": 2818,
      "Ġunusual": 2819,
      "uggled": 2820,
      "rag": 2821,
      "Ġdeer": 2822,
      "Ġfigure": 2823,
      "ilt": 2824,
      "Ġsell": 2825,
      "Ġchase": 2826,
      "Ġpointing": 2827,
      "ĠTweety": 2828,
      "Gra": 2829,
      "Ġfine": 2830,
      "Ġwrapped": 2831,
      "Ġbrilliant": 2832,
      "Ġtape": 2833,
      "Ġmir": 2834,
      "Ġfrown": 2835,
      "Ġcrown": 2836,
      "olog": 2837,
      "Ġimpressed": 2838,
      "Ġfoolish": 2839,
      "alous": 2840,
      "Ġmanaged": 2841,
      "Ġjealous": 2842,
      "Ġapolog": 2843,
      "Billy": 2844,
      "Sp": 2845,
      "Ġlamp": 2846,
      "Ġdizzy": 2847,
      "Ġoffered": 2848,
      "Ġobedient": 2849,
      "fast": 2850,
      "hip": 2851,
      "Ġham": 2852,
      "Ġword": 2853,
      "Ġcost": 2854,
      "Ġjoke": 2855,
      "Ġsmoke": 2856,
      "Ġmarket": 2857,
      "Ġbounc": 2858,
      "Ġadventurous": 2859,
      "Ġcam": 2860,
      "Ġweal": 2861,
      "ĠLittle": 2862,
      "Ġrecord": 2863,
      "Ġjewel": 2864,
      "Ġer": 2865,
      "Ġlicked": 2866,
      "Ġloyal": 2867,
      "Ġbody": 2868,
      "?\".": 2869,
      "Ġlean": 2870,
      "Ġmixed": 2871,
      "Ġcact": 2872,
      "ĠSusie": 2873,
      "Ġroof": 2874,
      "Ġneeds": 2875,
      "Ġkindness": 2876,
      "apping": 2877,
      "Ġtools": 2878,
      "Ġturt": 2879,
      "Ġeld": 2880,
      "keep": 2881,
      "Ġbreakfast": 2882,
      "Ġbuttons": 2883,
      "Ġpants": 2884,
      "Amy": 2885,
      "we": 2886,
      "work": 2887,
      "ĠNo": 2888,
      "anut": 2889,
      "Ġmoms": 2890,
      "Ġsunflower": 2891,
      "imp": 2892,
      "emo": 2893,
      "Ġgiving": 2894,
      "How": 2895,
      "ror": 2896,
      "het": 2897,
      "Ġsugg": 2898,
      "llie": 2899,
      "Ġonce": 2900,
      "Ġdolp": 2901,
      "Ġisland": 2902,
      "Ġtrack": 2903,
      "Ġcrayon": 2904,
      "Ġsuggest": 2905,
      "Al": 2906,
      "bin": 2907,
      "ext": 2908,
      "Ġbitter": 2909,
      "Ġcher": 2910,
      "ature": 2911,
      "Ġstri": 2912,
      "Ġperform": 2913,
      "Ġguess": 2914,
      "Ġcabin": 2915,
      "Ġindepend": 2916,
      "Ġhunt": 2917,
      "ured": 2918,
      "aghet": 2919,
      "Ġbottom": 2920,
      "aghetti": 2921,
      "Ġadded": 2922,
      "Ġswan": 2923,
      "Ġcleaning": 2924,
      "Ġwalls": 2925,
      "Ġbelonged": 2926,
      "Ġspaghetti": 2927,
      "ĠFred": 2928,
      "Ġdreamed": 2929,
      "head": 2930,
      "Ġmelt": 2931,
      "Ġok": 2932,
      "Ġhero": 2933,
      "Ġtwist": 2934,
      "Ġpicking": 2935,
      "Ġstronger": 2936,
      "Ġwrap": 2937,
      "Ġcheerful": 2938,
      "Ġcactus": 2939,
      "Ġtoug": 2940,
      "Ġyours": 2941,
      "Ġturtle": 2942,
      "Here": 2943,
      "Well": 2944,
      "ĠMy": 2945,
      "ume": 2946,
      "Ġwolf": 2947,
      "Ġins": 2948,
      "ĠBella": 2949,
      "Ġswe": 2950,
      "Ġballoons": 2951,
      "ippo": 2952,
      "Ġcircles": 2953,
      "aul": 2954,
      "Ġter": 2955,
      "Ġwagon": 2956,
      "anged": 2957,
      "Ġtwig": 2958,
      "Ġlouder": 2959,
      "Ġunl": 2960,
      "laimed": 2961,
      "cient": 2962,
      "zed": 2963,
      "Ġcone": 2964,
      "ately": 2965,
      "Ġshake": 2966,
      "Ġhappiness": 2967,
      "ĠMark": 2968,
      "ĠElla": 2969,
      "Ġhats": 2970,
      "Ġfalls": 2971,
      "ĠMrs": 2972,
      "Ġwealthy": 2973,
      "Ġindependent": 2974,
      "Ġharm": 2975,
      "Ġfour": 2976,
      "ready": 2977,
      "Ġext": 2978,
      "Ġsaying": 2979,
      "Ġexclaimed": 2980,
      "Ġpee": 2981,
      "Ġsearch": 2982,
      "lies": 2983,
      "Ġalready": 2984,
      "Ġweird": 2985,
      "Ġagainst": 2986,
      "Ġdreams": 2987,
      "Ġbanana": 2988,
      "Ġwand": 2989,
      "Ġgoat": 2990,
      "ages": 2991,
      "Ġslipped": 2992,
      "Ġjog": 2993,
      "Ġoffice": 2994,
      "Ġrealised": 2995,
      "Ġdiffic": 2996,
      "Ġuseful": 2997,
      "Ġchicken": 2998,
      "Ġtough": 2999,
      "Ġstream": 3000,
      "ĠBu": 3001,
      "Ġfork": 3002,
      "Ġancient": 3003,
      "Ġscare": 3004,
      "Ġpeanut": 3005,
      "Ġenvel": 3006,
      "Ġpainting": 3007,
      "Ġedge": 3008,
      "Ġmirror": 3009,
      "Ġelderly": 3010,
      "keeper": 3011,
      "aw": 3012,
      "Ġber": 3013,
      "ĠMummy": 3014,
      "Ġflash": 3015,
      "Ġskin": 3016,
      "Ġcomb": 3017,
      "Ġstubb": 3018,
      "Ġberries": 3019,
      "dge": 3020,
      "gu": 3021,
      "Ġfre": 3022,
      "Ġpump": 3023,
      "Ġrat": 3024,
      "Ġref": 3025,
      "Ġrode": 3026,
      "Ġsmaller": 3027,
      "ĠBobo": 3028,
      "Ġlifted": 3029,
      "Ġstudy": 3030,
      "cil": 3031,
      "iv": 3032,
      "ject": 3033,
      "inary": 3034,
      "Ġmod": 3035,
      "ement": 3036,
      "Ġtele": 3037,
      "Ġpencil": 3038,
      "Ġsquee": 3039,
      "Ġterri": 3040,
      "Ġdifficult": 3041,
      "Ġbarn": 3042,
      "irp": 3043,
      "ines": 3044,
      "ention": 3045,
      "ĠDucky": 3046,
      "ĠRed": 3047,
      "omed": 3048,
      "atter": 3049,
      "Ġtrump": 3050,
      "Ġusing": 3051,
      "Ġsounded": 3052,
      "Ġangel": 3053,
      "Ġextra": 3054,
      "Ġstubborn": 3055,
      "aid": 3056,
      "Ġboxes": 3057,
      "Ġpirate": 3058,
      "Ġtank": 3059,
      "Ġsnee": 3060,
      "ĠRose": 3061,
      "Ġpainted": 3062,
      "Joe": 3063,
      "Ġspoiled": 3064,
      "ye": 3065,
      "Ġtummy": 3066,
      "Ġaunt": 3067,
      "Ġcro": 3068,
      "Ġdove": 3069,
      "Ġspilled": 3070,
      "Ġbags": 3071,
      "Ġinvited": 3072,
      "ourite": 3073,
      "Ġlow": 3074,
      "Ġstumbled": 3075,
      "Ġthoughtful": 3076,
      "Ġtrunk": 3077,
      "Ġfavourite": 3078,
      "Ġenvelope": 3079,
      "Ġcop": 3080,
      "Ġdull": 3081,
      "Ġnotice": 3082,
      "Re": 3083,
      "Ġhippo": 3084,
      "isk": 3085,
      "Ġstamp": 3086,
      "Ġsword": 3087,
      "Ġenjoying": 3088,
      "Ġzip": 3089,
      "Ġcounted": 3090,
      "upid": 3091,
      "Ġjuicy": 3092,
      "umbers": 3093,
      "Ġpractice": 3094,
      "Ġtrumpet": 3095,
      "Ġbuilt": 3096,
      "Ġarrow": 3097,
      "Ġbushes": 3098,
      "Ġtimes": 3099,
      "Ġhelps": 3100,
      "Ġlearning": 3101,
      "ĠWhenever": 3102,
      "Ġprep": 3103,
      "Ġbossy": 3104,
      "Spot": 3105,
      "Ġbull": 3106,
      "inal": 3107,
      "Ġcudd": 3108,
      "ado": 3109,
      "Ġbloom": 3110,
      "Ġcamera": 3111,
      "oppy": 3112,
      "ĠBobby": 3113,
      "Ġlibr": 3114,
      "Ġorig": 3115,
      "Ġloudly": 3116,
      "Ġcompass": 3117,
      "sc": 3118,
      "Ġfa": 3119,
      "ĠSn": 3120,
      "Ġmeans": 3121,
      "Ġbatter": 3122,
      "Ġtiger": 3123,
      "Ġfountain": 3124,
      "Ġnumbers": 3125,
      "Ġow": 3126,
      "Ġearth": 3127,
      "ouses": 3128,
      "Ġparrot": 3129,
      "Ġsuccessful": 3130,
      "Ġfresh": 3131,
      "und": 3132,
      "orge": 3133,
      "Ġsoar": 3134,
      "Ġchar": 3135,
      "Ġkinds": 3136,
      "Ġlaughs": 3137,
      "na": 3138,
      "Ġstupid": 3139,
      "Ġpepper": 3140,
      "Ġharder": 3141,
      "ĠPete": 3142,
      "Ġlights": 3143,
      "ĠToday": 3144,
      "Ġescape": 3145,
      "Ġgem": 3146,
      "Ġsauce": 3147,
      "illa": 3148,
      "Ġknock": 3149,
      "Ġseem": 3150,
      "Ġknows": 3151,
      "iable": 3152,
      "ache": 3153,
      "ĠNemo": 3154,
      "Ġscrat": 3155,
      "Ġoriginal": 3156,
      "Ġhouses": 3157,
      "Ġwhale": 3158,
      "Ġshowing": 3159,
      "Ġfier": 3160,
      "Ġleaving": 3161,
      "Ġgraceful": 3162,
      "time": 3163,
      "Ġcards": 3164,
      "Ġthose": 3165,
      "Ġbean": 3166,
      "umsy": 3167,
      "Ġabove": 3168,
      "Ġreliable": 3169,
      "ĠAlice": 3170,
      "wards": 3171,
      "ither": 3172,
      "alk": 3173,
      "Ġnosy": 3174,
      "Ġexcitedly": 3175,
      "Ġgrand": 3176,
      "Ġbrace": 3177,
      "Ġpale": 3178,
      "Ġvalu": 3179,
      "Ġicy": 3180,
      "Ġnurse": 3181,
      "Ġspun": 3182,
      "Ġexplored": 3183,
      "Ġjoined": 3184,
      "Ġdreaming": 3185,
      "Ġdesk": 3186,
      "Ġbracelet": 3187,
      "Ġtask": 3188,
      "Ġnorm": 3189,
      "Ġshape": 3190,
      "Ġrug": 3191,
      "Ġbeak": 3192,
      "rage": 3193,
      "Ġjack": 3194,
      "ĠWh": 3195,
      "Ġbees": 3196,
      "Ġplayful": 3197,
      "Ġfright": 3198,
      "Ġcompet": 3199,
      "ola": 3200,
      "Ġresc": 3201,
      "Ġstraw": 3202,
      "Ġmovie": 3203,
      "Ġterrible": 3204,
      "Ġwake": 3205,
      "Ġwashed": 3206,
      "illie": 3207,
      "Ġrubbed": 3208,
      "Ġfierce": 3209,
      "aze": 3210,
      "pes": 3211,
      "Ġgir": 3212,
      "Ġyet": 3213,
      "Ġenorm": 3214,
      "Ġlaw": 3215,
      "Ġseeds": 3216,
      "Ġenormous": 3217,
      "vice": 3218,
      "Ġfrag": 3219,
      "Ġrub": 3220,
      "Ġpatch": 3221,
      "Ġpoured": 3222,
      "Ġnormal": 3223,
      "corn": 3224,
      "Ġgoose": 3225,
      "ÅĵLet": 3226,
      "Ġregular": 3227,
      "Ġcompassion": 3228,
      "Ġcompetit": 3229,
      "While": 3230,
      "com": 3231,
      "Ġraced": 3232,
      "Ġclumsy": 3233,
      "Ġbirdie": 3234,
      "Ġpost": 3235,
      "Ġmarble": 3236,
      "Ġsolve": 3237,
      "Ġcandle": 3238,
      "Ġsuggested": 3239,
      "Ġbump": 3240,
      "Ġflex": 3241,
      "Ġstairs": 3242,
      "Ġshone": 3243,
      "Ġrushed": 3244,
      "uring": 3245,
      "ĠWhile": 3246,
      "ĠYour": 3247,
      "Ġcounting": 3248,
      "Ġmarch": 3249,
      "Ġchose": 3250,
      "Ġpige": 3251,
      "Ġcooking": 3252,
      "Ġvaluable": 3253,
      "eorge": 3254,
      "oe": 3255,
      "Ġrice": 3256,
      "Ġhose": 3257,
      "Ġhandle": 3258,
      "Ġways": 3259,
      "Ġunk": 3260,
      "Ġstickers": 3261,
      "Ġdead": 3262,
      "Ġsett": 3263,
      "Ġwiped": 3264,
      "Ġavo": 3265,
      "Ġbeet": 3266,
      "Ġsquare": 3267,
      "Ġkicked": 3268,
      "Ġadmired": 3269,
      "Ġdelighted": 3270,
      "Ġreminded": 3271,
      "rn": 3272,
      "Ġcere": 3273,
      "Ġyog": 3274,
      "Ġlocked": 3275,
      "Ġdelicate": 3276,
      "Ġearly": 3277,
      "Ġforth": 3278,
      "Ġgasped": 3279,
      "Ġfat": 3280,
      "Ġcush": 3281,
      "ilty": 3282,
      "Ġspace": 3283,
      "Ġscale": 3284,
      "Ġsne": 3285,
      "Ġsearching": 3286,
      "Ġpenny": 3287,
      "Ġguilty": 3288,
      "Ġwarned": 3289,
      "Ġfragile": 3290,
      "Ow": 3291,
      "nown": 3292,
      "Ġcity": 3293,
      "Ġliz": 3294,
      "Ġleop": 3295,
      "Ġmem": 3296,
      "Ġchanged": 3297,
      "ĠCl": 3298,
      "arsh": 3299,
      "Ġbrightly": 3300,
      "Ġbarber": 3301,
      "Ġbounce": 3302,
      "Em": 3303,
      "Ġgolf": 3304,
      "ĠFin": 3305,
      "Ġsniff": 3306,
      "Ġstove": 3307,
      "Ġpopcorn": 3308,
      "Ġeraser": 3309,
      "Ġflexible": 3310,
      "Ġcoco": 3311,
      "Ġenc": 3312,
      "Ġguard": 3313,
      "Ġtomato": 3314,
      "Ġcricket": 3315,
      "fa": 3316,
      "âĢ": 3317,
      "anny": 3318,
      "Ġthirst": 3319,
      "âĤ¬âĢ": 3320,
      "Ġcarp": 3321,
      "Ġfinding": 3322,
      "Ġboats": 3323,
      "Ġdesign": 3324,
      "awn": 3325,
      "aroo": 3326,
      "Ġsofa": 3327,
      "ellig": 3328,
      "angaroo": 3329,
      "ipe": 3330,
      "Ġbrothers": 3331,
      "Ġprint": 3332,
      "Ġimagined": 3333,
      "Ġfingers": 3334,
      "Ġintellig": 3335,
      "Ġdestro": 3336,
      "Ġcharming": 3337,
      "Ġfrightened": 3338,
      "Ġstage": 3339,
      "Ġkangaroo": 3340,
      "Ġmeal": 3341,
      "Ġstops": 3342,
      "Ġcomplet": 3343,
      "Ġwheat": 3344,
      "Ġserious": 3345,
      "Ġcelebrate": 3346,
      "Ġhumble": 3347,
      "Ġpilot": 3348,
      "Ġsuit": 3349,
      "Ġmis": 3350,
      "Ġmask": 3351,
      "Ġhalf": 3352,
      "ĠBuddy": 3353,
      "Ġthemselves": 3354,
      "Ġstranger": 3355,
      "Ġending": 3356,
      "berries": 3357,
      "Ġcheap": 3358,
      "Ġgrowing": 3359,
      "Ġattic": 3360,
      "Ġscreen": 3361,
      "Ġtooth": 3362,
      "Ġpow": 3363,
      "Ġmoder": 3364,
      "Ġtelling": 3365,
      "Ġcircle": 3366,
      "Ġpeeked": 3367,
      "Ġing": 3368,
      "ĠSm": 3369,
      "Ġenv": 3370,
      "cod": 3371,
      "Ġattract": 3372,
      "Ġdiscover": 3373,
      "Ġprize": 3374,
      "Ġordinary": 3375,
      "Ġmagnet": 3376,
      "aby": 3377,
      "Ġnature": 3378,
      "Ġshark": 3379,
      "!\".": 3380,
      "Ġadvice": 3381,
      "Ġtrap": 3382,
      "Ġbald": 3383,
      "ations": 3384,
      "redient": 3385,
      "Ġthirsty": 3386,
      "Ġingredient": 3387,
      "dom": 3388,
      "Ġhay": 3389,
      "Ġhoop": 3390,
      "Ġled": 3391,
      "Ġdeliver": 3392,
      "Ġopens": 3393,
      "Ġzipp": 3394,
      "cycle": 3395,
      "Ġunknown": 3396,
      "See": 3397,
      "bled": 3398,
      "Ġlaser": 3399,
      "uth": 3400,
      "Ġhairy": 3401,
      "Ġthinking": 3402,
      "Ġsorts": 3403,
      "Ġflashlight": 3404,
      "Ġintelligent": 3405,
      "Ġmodern": 3406,
      "Ġtied": 3407,
      "Ġson": 3408,
      "Ġbri": 3409,
      "Ġgum": 3410,
      "Ġproudly": 3411,
      "Ġuncle": 3412,
      "Ġmissing": 3413,
      "Ġdolphin": 3414,
      "Ġcereal": 3415,
      "orilla": 3416,
      "arian": 3417,
      "Ġtravel": 3418,
      "gging": 3419,
      "Ġsparkled": 3420,
      "Ġhelm": 3421,
      "Ġwhispered": 3422,
      "Ġcrocod": 3423,
      "Ġbeetle": 3424,
      "Ġingredients": 3425,
      "tter": 3426,
      "under": 3427,
      "Ġtem": 3428,
      "ision": 3429,
      "Ġguit": 3430,
      "Ġarg": 3431,
      "Ġmetal": 3432,
      "Ġresist": 3433,
      "Ġwaff": 3434,
      "Ġscatter": 3435,
      "robe": 3436,
      "Ġskip": 3437,
      "Ġraven": 3438,
      "oomy": 3439,
      "Ġslides": 3440,
      "Ġsudden": 3441,
      "ĠSandy": 3442,
      "Ġnote": 3443,
      "Ġnames": 3444,
      "Ġdoesn": 3445,
      "Ġrules": 3446,
      "Ġdriving": 3447,
      "Ġwindows": 3448,
      "Ġcollar": 3449,
      "Ġpersist": 3450,
      "Ġnuts": 3451,
      "Ġtwirled": 3452,
      "comfort": 3453,
      "Ġlizard": 3454,
      "cream": 3455,
      "Ġsend": 3456,
      "Ġshel": 3457,
      "Ġfriendship": 3458,
      "Ġcareless": 3459,
      "Ġtrop": 3460,
      "Ġtrash": 3461,
      "Ġjolly": 3462,
      "Ġhung": 3463,
      "Go": 3464,
      "ience": 3465,
      "oot": 3466,
      "Ġbent": 3467,
      "Ġdough": 3468,
      "orant": 3469,
      "Ġgorilla": 3470,
      "iches": 3471,
      "ĠLook": 3472,
      "Ġuncomfort": 3473,
      "uper": 3474,
      "iskers": 3475,
      "Ġuncomfortable": 3476,
      "ray": 3477,
      "Ġwing": 3478,
      "Ġthunder": 3479,
      "llip": 3480,
      "Ġyawn": 3481,
      "iew": 3482,
      "Ġcrazy": 3483,
      "Ġspring": 3484,
      "Ġsurf": 3485,
      "Ġquestion": 3486,
      "Ġshells": 3487,
      "Ġleopard": 3488,
      "Ġencou": 3489,
      "Ġtrophy": 3490,
      "llipop": 3491,
      "ef": 3492,
      "eer": 3493,
      "gest": 3494,
      "Ġlollipop": 3495,
      "ief": 3496,
      "Ġchasing": 3497,
      "Ġview": 3498,
      "Ġclock": 3499,
      "ĠGrandpa": 3500,
      "host": 3501,
      "Ġcompassionate": 3502,
      "Ġpigeon": 3503,
      "Ġdestroy": 3504,
      "gust": 3505,
      "Ġstat": 3506,
      "Ġbiggest": 3507,
      "Ġreco": 3508,
      "ĠFr": 3509,
      "Ġimpat": 3510,
      "Ġacorn": 3511,
      "Ġtowers": 3512,
      "Ġbelt": 3513,
      "Ġsleeping": 3514,
      "Ġsalad": 3515,
      "Ġcarpet": 3516,
      "Ġattractive": 3517,
      "Ġsym": 3518,
      "Ġwitch": 3519,
      "Ġotter": 3520,
      "Ġanx": 3521,
      "ugged": 3522,
      "Ġdisgust": 3523,
      "Ġperm": 3524,
      "Ġsteal": 3525,
      "Ġpengu": 3526,
      "ĠBrownie": 3527,
      "Ġhammer": 3528,
      "Ġpumpkin": 3529,
      "Ġcocoa": 3530,
      "ĠU": 3531,
      "Ġhive": 3532,
      "Ġrefused": 3533,
      "Ġsnuggled": 3534,
      "ĠPolly": 3535,
      "Ġsticker": 3536,
      "Ġpainter": 3537,
      "Ġbutterflies": 3538,
      "Ġobject": 3539,
      "Ġimpatient": 3540,
      "Ġfan": 3541,
      "Ġpony": 3542,
      "Ġrece": 3543,
      "Ġreind": 3544,
      "Ġseal": 3545,
      "opus": 3546,
      "ĠDave": 3547,
      "Ġnicely": 3548,
      "berry": 3549,
      "ĠPaul": 3550,
      "ctopus": 3551,
      "Ġfireman": 3552,
      "bol": 3553,
      "Ġshoe": 3554,
      "Ġsandwiches": 3555,
      "Ġimpressive": 3556,
      "Ġhurry": 3557,
      "ĠSmith": 3558,
      "Ġguitar": 3559,
      "Ġcamp": 3560,
      "Ġghost": 3561,
      "Ġoctopus": 3562,
      "Ġshocked": 3563,
      "Ġclay": 3564,
      "Ġflour": 3565,
      "Ġorder": 3566,
      "Ġpretending": 3567,
      "Ġspoke": 3568,
      "Ġignorant": 3569,
      "Ġsweater": 3570,
      "Ġcrocodile": 3571,
      "Ġsymbol": 3572,
      "Ġreindeer": 3573,
      "Ġumb": 3574,
      "ceed": 3575,
      "ict": 3576,
      "Ġmotorcycle": 3577,
      "Ġjacket": 3578,
      "Ġumbre": 3579,
      "gn": 3580,
      "loo": 3581,
      "Ġoat": 3582,
      "Ġneat": 3583,
      "ĠMar": 3584,
      "Ġallowed": 3585,
      "Ġtrick": 3586,
      "Ġholds": 3587,
      "Ġspeed": 3588,
      "Ġanxious": 3589,
      "ser": 3590,
      "Ġax": 3591,
      "Ġahead": 3592,
      "Ġtorn": 3593,
      "Ġdistant": 3594,
      "Ġplaced": 3595,
      "Ġglove": 3596,
      "Ġfilm": 3597,
      "Yay": 3598,
      "Ġdug": 3599,
      "ĠMike": 3600,
      "Ġalert": 3601,
      "Ġtray": 3602,
      "Ġtruth": 3603,
      "Ġolder": 3604,
      "Ġimpro": 3605,
      "ĠJoey": 3606,
      "Ġharmless": 3607,
      "Ġaw": 3608,
      "Ġcur": 3609,
      "Ġmay": 3610,
      "Ġshiver": 3611,
      "Ġload": 3612,
      "Ġunpack": 3613,
      "ĠKim": 3614,
      "ĠWhiskers": 3615,
      "Ġpersistent": 3616,
      "Ġhook": 3617,
      "iron": 3618,
      "Ġjug": 3619,
      "Ġeng": 3620,
      "ĠPe": 3621,
      "Ġrubb": 3622,
      "ĠTweetie": 3623,
      "ophone": 3624,
      "ophie": 3625,
      "Little": 3626,
      "ibb": 3627,
      "yster": 3628,
      "Ġcreate": 3629,
      "Ġcooler": 3630,
      "ĠToby": 3631,
      "Ġgifted": 3632,
      "affe": 3633,
      "Ġsucceed": 3634,
      "Ġparade": 3635,
      "Ġfootball": 3636,
      "ÅĵLetÃ¢": 3637,
      "ikes": 3638,
      "Ġoyster": 3639,
      "ric": 3640,
      "Ġmessage": 3641,
      "Ġrestaur": 3642,
      "Ġtricks": 3643,
      "Ġdancer": 3644,
      "Ġenth": 3645,
      "Ġstretched": 3646,
      "Ġrestaurant": 3647,
      "Ġsink": 3648,
      "Ġur": 3649,
      "ices": 3650,
      "Ġstarts": 3651,
      "Ġanywhere": 3652,
      "Ġdrawer": 3653,
      "Ġpiano": 3654,
      "Ġpackage": 3655,
      "Ġtroubled": 3656,
      "Ġdisgusting": 3657,
      "Ġaxe": 3658,
      "ocer": 3659,
      "Ġthief": 3660,
      "ÅĵIt": 3661,
      "Ġpasta": 3662,
      "Ġrepe": 3663,
      "hinocer": 3664,
      "Ġhunter": 3665,
      "Ġgiraffe": 3666,
      "hinoceros": 3667,
      "ffe": 3668,
      "Ġhedge": 3669,
      "Ġmop": 3670,
      "Ġmaze": 3671,
      "usi": 3672,
      "Ġreef": 3673,
      "Ġrose": 3674,
      "Ġvi": 3675,
      "Ġpebble": 3676,
      "Ġaftern": 3677,
      "Ġbrighter": 3678,
      "Ġdeaf": 3679,
      "Ġforgave": 3680,
      "Ġcarrying": 3681,
      "Ġcushion": 3682,
      "Ġenvious": 3683,
      "Ġstatue": 3684,
      "Ġrecogn": 3685,
      "Ġenthusi": 3686,
      "ffee": 3687,
      "Ġtap": 3688,
      "Ġfu": 3689,
      "Ġstation": 3690,
      "Ġbadly": 3691,
      "Ġvol": 3692,
      "Ġmailbox": 3693,
      "Ġafternoon": 3694,
      "cano": 3695,
      "Ġtire": 3696,
      "Ġwire": 3697,
      "erable": 3698,
      "Ġol": 3699,
      "htub": 3700,
      "ĠAre": 3701,
      "ushroom": 3702,
      "Ġlab": 3703,
      "Ġobser": 3704,
      "Ġpopular": 3705,
      "Ġten": 3706,
      "Ġrhinoceros": 3707,
      "Ġsock": 3708,
      "Ġsadly": 3709,
      "ÅĵYes": 3710,
      "ÅĵWhat": 3711,
      "ips": 3712,
      "Ġbathtub": 3713,
      "Ġrespectful": 3714,
      "Ġlibrary": 3715,
      "Ġmiserable": 3716,
      "Ġbicy": 3717,
      "arry": 3718,
      "Ġshadow": 3719,
      "ĠJerry": 3720,
      "Ġcompl": 3721,
      "Ġneedle": 3722,
      "Ġlistening": 3723,
      "Ġreading": 3724,
      "Ġphot": 3725,
      "Ġspinning": 3726,
      "Ġrepair": 3727,
      "Ġsilver": 3728,
      "Ġsuper": 3729,
      "Ġcurt": 3730,
      "Ġanyway": 3731,
      "Ġpup": 3732,
      "Ġpatter": 3733,
      "Ġsailor": 3734,
      "Ġwheels": 3735,
      "Ġgiggle": 3736,
      "Ġfearful": 3737,
      "Alice": 3738,
      "Ġumbrella": 3739,
      "Ġcurtain": 3740,
      "Ġtoast": 3741,
      "Ġbase": 3742,
      "Ġspell": 3743,
      "Ġhelpless": 3744,
      "ĠWill": 3745,
      "ĠWhere": 3746,
      "Ġbehave": 3747,
      "Ġorganize": 3748,
      "Ġstirred": 3749,
      "Ġped": 3750,
      "Ġitself": 3751,
      "Ġchain": 3752,
      "Ġpracticed": 3753,
      "Ġdecorate": 3754,
      "Ġpattern": 3755,
      "Ġtur": 3756,
      "Ġants": 3757,
      "Ġhut": 3758,
      "imney": 3759,
      "Ġshine": 3760,
      "ĠAlex": 3761,
      "Ġputting": 3762,
      "Ġchimney": 3763,
      "apa": 3764,
      "Ġcats": 3765,
      "Ġholes": 3766,
      "Ġpeek": 3767,
      "Ġbreat": 3768,
      "Ġshopkeeper": 3769,
      "Ġpad": 3770,
      "ĠTr": 3771,
      "ĠHere": 3772,
      "Ġclub": 3773,
      "Ġcoffee": 3774,
      "ÅĵThat": 3775,
      "ĠGive": 3776,
      "Ġdishes": 3777,
      "ĠRo": 3778,
      "Ġpulls": 3779,
      "Ġpapers": 3780,
      "Ġsplit": 3781,
      "Ġwishes": 3782,
      "Mary": 3783,
      "render": 3784,
      "Ġmill": 3785,
      "Ġmuff": 3786,
      "Ġmushroom": 3787,
      "Ġpor": 3788,
      "Ġlip": 3789,
      "Ġjumps": 3790,
      "Ġvisited": 3791,
      "osie": 3792,
      "Ġfrowned": 3793,
      "Ġbin": 3794,
      "Ġshut": 3795,
      "Ġshaking": 3796,
      "Ġchance": 3797,
      "ĠEventually": 3798,
      "Ġswinging": 3799,
      "Ġveil": 3800,
      "Ġvolcano": 3801,
      "Ġturkey": 3802,
      "Ġdust": 3803,
      "Ġmel": 3804,
      "anic": 3805,
      "ecause": 3806,
      "Benny": 3807,
      "ailable": 3808,
      "Ġcourage": 3809,
      "Ġfurther": 3810,
      "Ġcreatures": 3811,
      "Ġfilthy": 3812,
      "Ġavoc": 3813,
      "Ġengine": 3814,
      "cus": 3815,
      "Ġtoil": 3816,
      "ince": 3817,
      "Ġshade": 3818,
      "chanic": 3819,
      "Ġgoal": 3820,
      "Ġmechanic": 3821,
      "ĠEllie": 3822,
      "Ġsquash": 3823,
      "Ġbandage": 3824,
      "zzy": 3825,
      "Ġpurse": 3826,
      "Ġstared": 3827,
      "kelet": 3828,
      "Ġnoteb": 3829,
      "Ġcane": 3830,
      "Ġhanded": 3831,
      "Ġbeauty": 3832,
      "Ġtear": 3833,
      "Ġcryst": 3834,
      "Ġletters": 3835,
      "Ġavailable": 3836,
      "Ġzipper": 3837,
      "Ġnotebook": 3838,
      "ccol": 3839,
      "Ġbet": 3840,
      "Ġharsh": 3841,
      "erc": 3842,
      "ĠSh": 3843,
      "Ġjet": 3844,
      "ulb": 3845,
      "Ġscold": 3846,
      "ĠLola": 3847,
      "Ġvine": 3848,
      "anda": 3849,
      "ĠcouldnÃ¢": 3850,
      "Ġclimbing": 3851,
      "Ġsurrender": 3852,
      "Ġmicr": 3853,
      "Ġbicycle": 3854,
      "ccoli": 3855,
      "Give": 3856,
      "Jenny": 3857,
      "Ġshield": 3858,
      "Ġreward": 3859,
      "Ġpoint": 3860,
      "Ġcupboard": 3861,
      "Ġhelmet": 3862,
      "ron": 3863,
      "Ġsize": 3864,
      "edy": 3865,
      "Ġpair": 3866,
      "Ġlions": 3867,
      "aled": 3868,
      "Ġpeach": 3869,
      "Ġquite": 3870,
      "uct": 3871,
      "Ġtripped": 3872,
      "Ġpotato": 3873,
      "Ġsteps": 3874,
      "keleton": 3875,
      "Ġmicrophone": 3876,
      "If": 3877,
      "cut": 3878,
      "iest": 3879,
      "ube": 3880,
      "Ġiron": 3881,
      "Ġsle": 3882,
      "Ġbeep": 3883,
      "Ġkay": 3884,
      "stri": 3885,
      "Ġroared": 3886,
      "Ġstrugg": 3887,
      "ected": 3888,
      "Ġshouts": 3889,
      "Ġsoftly": 3890,
      "Ġcomput": 3891,
      "Ġthread": 3892,
      "Ġpressed": 3893,
      "ĠSnow": 3894,
      "Ġcompetitive": 3895,
      "..": 3896,
      "gs": 3897,
      "ooped": 3898,
      "urb": 3899,
      "Ġbackpack": 3900,
      "Ġchecked": 3901,
      "Ġnowhere": 3902,
      "Ġrestless": 3903,
      "olin": 3904,
      "Ġdisturb": 3905,
      "Ġsupport": 3906,
      "Ġstuffed": 3907,
      "Ġtoilet": 3908,
      "Ġsent": 3909,
      "Ġtheater": 3910,
      "Ġrac": 3911,
      "Ġknot": 3912,
      "Ġbubble": 3913,
      "aches": 3914,
      "Ġmarched": 3915,
      "Ġpolish": 3916,
      "Ġtreasures": 3917,
      "Ġbarks": 3918,
      "Ġunlock": 3919,
      "Ġgym": 3920,
      "Ġeither": 3921,
      "Ġexerc": 3922,
      "Ġbroccoli": 3923,
      "ĠGrace": 3924,
      "Ġriding": 3925,
      "Ġrescue": 3926,
      "ubby": 3927,
      "year": 3928,
      "Ġfact": 3929,
      "Ġluck": 3930,
      "Ġrag": 3931,
      "Ġclapping": 3932,
      "Ġprun": 3933,
      "ucked": 3934,
      "Ġsunset": 3935,
      "sely": 3936,
      "Ġgloomy": 3937,
      "ĠGeorge": 3938,
      "Ġmonkeys": 3939,
      "Ġporch": 3940,
      "strich": 3941,
      "cast": 3942,
      "Ġbulb": 3943,
      "Ġmild": 3944,
      "Ġnail": 3945,
      "Ġstack": 3946,
      "Ġseco": 3947,
      "Ġjud": 3948,
      "Ġchubby": 3949,
      "useum": 3950,
      "Ġpole": 3951,
      "ĠEverything": 3952,
      "Ġpushing": 3953,
      "Ġchickens": 3954,
      "Ġcomplete": 3955,
      "Ġsecond": 3956,
      "Ġskeleton": 3957,
      "Ġfive": 3958,
      "Ġribb": 3959,
      "Ġhadn": 3960,
      "Ġnobody": 3961,
      "Ġweep": 3962,
      "Ġclosely": 3963,
      "Ġener": 3964,
      "Ġunh": 3965,
      "Ġdisag": 3966,
      "Ġcrane": 3967,
      "Ġtriang": 3968,
      "Ġcardboard": 3969,
      "Ġvalue": 3970,
      "Ġstretch": 3971,
      "Ġbounced": 3972,
      "Ġdess": 3973,
      "Ġmuseum": 3974,
      "imi": 3975,
      "Ġstom": 3976,
      "ĠBill": 3977,
      "Ġsomewhere": 3978,
      "Ġstarting": 3979,
      "ggy": 3980,
      "Ġcups": 3981,
      "Ġjourn": 3982,
      "Ġdessert": 3983,
      "night": 3984,
      "Ġlang": 3985,
      "Ġhappier": 3986,
      "Ġslipp": 3987,
      "ĠPapa": 3988,
      "Ġsandcast": 3989,
      "Ġrolling": 3990,
      "Ġblowing": 3991,
      "Ġviolin": 3992,
      "Ġbaseball": 3993,
      "Ġlangu": 3994,
      "ses": 3995,
      "Ġwife": 3996,
      "Ġdive": 3997,
      "Ġcolours": 3998,
      "Ġraft": 3999,
      "Ġtrail": 4000,
      "Ġtrains": 4001,
      "Ġpushes": 4002,
      "Ġlaund": 4003,
      "Ġtemp": 4004,
      "Ġshelter": 4005,
      "Bye": 4006,
      "ci": 4007,
      "lud": 4008,
      "vator": 4009,
      "Ġleash": 4010,
      "Ġfinds": 4011,
      "Ġjokes": 4012,
      "ĠRosie": 4013,
      "Ġart": 4014,
      "Ġhopes": 4015,
      "Ġsandbox": 4016,
      "Ġcounter": 4017,
      "Ġneighbour": 4018,
      "Ġexper": 4019,
      "Ġspeak": 4020,
      "Ġleaned": 4021,
      "Ġsneak": 4022,
      "Ġjournal": 4023,
      "aked": 4024,
      "hood": 4025,
      "Ġtube": 4026,
      "any": 4027,
      "arnt": 4028,
      "Ġboots": 4029,
      "Ġlearnt": 4030,
      "Ġelevator": 4031,
      "Ġgrabs": 4032,
      "Ġdiary": 4033,
      "Ġinsist": 4034,
      "Ġlaundry": 4035,
      "gen": 4036,
      "te": 4037,
      "Ġbikes": 4038,
      "inking": 4039,
      "Ġlid": 4040,
      "orable": 4041,
      "ison": 4042,
      "Ġmu": 4043,
      "Ġsoil": 4044,
      "Ġfrogs": 4045,
      "Ġmarry": 4046,
      "Ġbasketball": 4047,
      "Ġinclud": 4048,
      "Ġhuman": 4049,
      "Ġcrystal": 4050,
      "Ġkayak": 4051,
      "Ġpine": 4052,
      "ckey": 4053,
      "Ġonion": 4054,
      "ulif": 4055,
      "Ġscoot": 4056,
      "Ġhockey": 4057,
      "Ġcrow": 4058,
      "Ġlightning": 4059,
      "Ġcountry": 4060,
      "Ġcaulif": 4061,
      "Ġpaws": 4062,
      "Ġmodest": 4063,
      "heart": 4064,
      "reci": 4065,
      "Ġpun": 4066,
      "Ġsaus": 4067,
      "ills": 4068,
      "Ġmeat": 4069,
      "Ġmeas": 4070,
      "Ġvest": 4071,
      "Ġended": 4072,
      "Ġcheek": 4073,
      "Ġframe": 4074,
      "Ġgiven": 4075,
      "Everyone": 4076,
      "Grandma": 4077,
      "Ġunhappy": 4078,
      "ites": 4079,
      "Ġcell": 4080,
      "Ġmen": 4081,
      "Ġmug": 4082,
      "Ġink": 4083,
      "ĠBunny": 4084,
      "stairs": 4085,
      "Ġswung": 4086,
      "Ġvide": 4087,
      "Ġadorable": 4088,
      "Ġappreci": 4089,
      "Ġairport": 4090,
      "ĠKate": 4091,
      "Ġbreaks": 4092,
      "âĤ¬âĢľ": 4093,
      "Ġenthusiastic": 4094,
      "Ġcomputer": 4095,
      "Ġspir": 4096,
      "ummer": 4097,
      "Ġquar": 4098,
      "Ġjeep": 4099,
      "Ġadmire": 4100,
      "Ġbarking": 4101,
      "Ġcauliflower": 4102,
      "Ġtub": 4103,
      "Ġbur": 4104,
      "amb": 4105,
      "Ġhoping": 4106,
      "par": 4107,
      "Ġcase": 4108,
      "Ġstadi": 4109,
      "Ġsepar": 4110,
      "Ġvend": 4111,
      "Ġnapkin": 4112,
      "Ġcooked": 4113,
      "Ġsalt": 4114,
      "Ġmule": 4115,
      "Ġstadium": 4116,
      "Because": 4117,
      "az": 4118,
      "azz": 4119,
      "Ġoak": 4120,
      "Ġostrich": 4121,
      "icop": 4122,
      "Ġswitch": 4123,
      "play": 4124,
      "Ġgrapes": 4125,
      "Ġexplain": 4126,
      "Ġdrawings": 4127,
      "Ġhaircut": 4128,
      "Ġzoomed": 4129,
      "Ġhelicop": 4130,
      "Ġpowder": 4131,
      "Ġhelicopter": 4132,
      "ges": 4133,
      "Ġthumb": 4134,
      "ĠMillie": 4135,
      "Ġalarm": 4136,
      "Ġdiscus": 4137,
      "Ġraining": 4138,
      "Ġfalling": 4139,
      "Ġcrib": 4140,
      "Ġglowing": 4141,
      "Ġapologized": 4142,
      "Ġmelon": 4143,
      "Ġdiscuss": 4144,
      "Ġsir": 4145,
      "inarian": 4146,
      "Ġyach": 4147,
      "una": 4148,
      "Ġkitty": 4149,
      "Ġreve": 4150,
      "Ġgrill": 4151,
      "Ġthanks": 4152,
      "eterinarian": 4153,
      "Ġpaid": 4154,
      "Ġtriangle": 4155,
      "Ġradi": 4156,
      "ĠWould": 4157,
      "Ġchirp": 4158,
      "Ġfeelings": 4159,
      "Ġpoem": 4160,
      "ĠAndy": 4161,
      "ĠdonÃ¢": 4162,
      "Ġwelcomed": 4163,
      "Ġspirit": 4164,
      "Ġwool": 4165,
      "Ġherb": 4166,
      "orth": 4167,
      "icer": 4168,
      "Ġveterinarian": 4169,
      "Ġmixer": 4170,
      "Ġsoldier": 4171,
      "Ġvendor": 4172,
      "eath": 4173,
      "iling": 4174,
      "Ġhall": 4175,
      "ĠMimi": 4176,
      "Ġevening": 4177,
      "Ġshouldn": 4178,
      "Ġuniver": 4179,
      "Ġsweetheart": 4180,
      "arlie": 4181,
      "Ġcabinet": 4182,
      "Ġslept": 4183,
      "Ġyacht": 4184,
      "ccer": 4185,
      "Ġsummer": 4186,
      "Ġmama": 4187,
      "igator": 4188,
      "Ġrad": 4189,
      "Ġsoccer": 4190,
      "Ġdisplay": 4191,
      "Ġsmells": 4192,
      "Ġthrows": 4193,
      "Ġimagine": 4194,
      "Ġimagination": 4195,
      "Ġtuna": 4196,
      "Ġdrops": 4197,
      "ĠSnowy": 4198,
      "Next": 4199,
      "ĠSophie": 4200,
      "ĠHelp": 4201,
      "Ġnews": 4202,
      "Ġbuzz": 4203,
      "Ġmarried": 4204,
      "Ġcows": 4205,
      "Ġscrew": 4206,
      "Ġcostume": 4207,
      "Ġslippery": 4208,
      "Ġradio": 4209,
      "aff": 4210,
      "Ġshakes": 4211,
      "ĠBear": 4212,
      "Ġmistakes": 4213,
      "ween": 4214,
      "Ġbetween": 4215,
      "drobe": 4216,
      "Ġlime": 4217,
      "Ġitch": 4218,
      "ashed": 4219,
      "Ġrot": 4220,
      "Ġplastic": 4221,
      "icle": 4222,
      "Ġweather": 4223,
      "Ġmakeup": 4224,
      "Ġshovel": 4225,
      "Ġthrowing": 4226,
      "Ġwardrobe": 4227,
      "Ġshrimp": 4228,
      "Ġfishing": 4229,
      "Ġenergy": 4230,
      "gth": 4231,
      "Ġhar": 4232,
      "Ġmath": 4233,
      "ĠTed": 4234,
      "Ġgro": 4235,
      "Ġplayer": 4236,
      "Ġrever": 4237,
      "rod": 4238,
      "Ġvac": 4239,
      "Ġintrod": 4240,
      "Ġworth": 4241,
      "Ġfle": 4242,
      "aring": 4243,
      "Ġinst": 4244,
      "unately": 4245,
      "ents": 4246,
      "Ġalligator": 4247,
      "Ġstruc": 4248,
      "Ġattach": 4249,
      "Ġprov": 4250,
      "Ġbelongs": 4251,
      "Ġgolden": 4252,
      "Ġburned": 4253,
      "Ġaccepted": 4254,
      "Ġstructure": 4255,
      "was": 4256,
      "Ġcomet": 4257,
      "Ġopera": 4258,
      "inky": 4259,
      "Ġgreedy": 4260,
      "Ġconf": 4261,
      "laud": 4262,
      "Ġpresents": 4263,
      "Inside": 4264,
      "Ġpirates": 4265,
      "Together": 4266,
      "Ġdishwas": 4267,
      "Ġjudge": 4268,
      "Ġquarrel": 4269,
      "Ġdishwasher": 4270,
      "low": 4271,
      "Ġpage": 4272,
      "Ġpanda": 4273,
      "ense": 4274,
      "Ġlotion": 4275,
      "Ġcube": 4276,
      "Ġfields": 4277,
      "Ġpuddles": 4278,
      "Ġsurround": 4279,
      "Ġserve": 4280,
      "nam": 4281,
      "Ġwags": 4282,
      "ores": 4283,
      "Ġspear": 4284,
      "Ġflies": 4285,
      "Ġshouting": 4286,
      "Ġignored": 4287,
      "ĠRemy": 4288,
      "Ġbananas": 4289,
      "Emma": 4290,
      "Ġphoto": 4291,
      "lier": 4292,
      "Ġwaste": 4293,
      "chair": 4294,
      "anges": 4295,
      "rength": 4296,
      "ups": 4297,
      "Ġexamine": 4298,
      "Ġprepare": 4299,
      "Ġwaffle": 4300,
      "Ġfactory": 4301,
      "Ġlanguage": 4302,
      "Ġscooter": 4303,
      "eve": 4304,
      "Ġstrength": 4305,
      "Ġknown": 4306,
      "Ġswamp": 4307,
      "Ġornam": 4308,
      "TMm": 4309,
      "Ġmagaz": 4310,
      "Ġwallet": 4311,
      "phone": 4312,
      "Ġattention": 4313,
      "Ġbarrel": 4314,
      "Ġwinter": 4315,
      "Ġcelebrated": 4316,
      "Ġlively": 4317,
      "Ġtelephone": 4318,
      "ĠMaria": 4319,
      "Ġavocado": 4320,
      "Ġscolded": 4321,
      "Ġble": 4322,
      "Ġcree": 4323,
      "ories": 4324,
      "Ġpur": 4325,
      "Ġpipe": 4326,
      "ĠTony": 4327,
      "atie": 4328,
      "Ġinf": 4329,
      "Ġlie": 4330,
      "Ġsticky": 4331,
      "Ġapplaud": 4332,
      "Ġfirework": 4333,
      "Ġforgotten": 4334,
      "Ġperfectly": 4335,
      "Ġpassport": 4336,
      "Ġsupply": 4337,
      "Ġbalanc": 4338,
      "Ġcreek": 4339,
      "ab": 4340,
      "pe": 4341,
      "ues": 4342,
      "yer": 4343,
      "herman": 4344,
      "Ġseeing": 4345,
      "ĠNext": 4346,
      "Ġparent": 4347,
      "Ġarmchair": 4348,
      "Ġkisses": 4349,
      "Ġpinch": 4350,
      "Ġcrossed": 4351,
      "Ġhanging": 4352,
      "Ġlemonade": 4353,
      "Ġfisherman": 4354,
      "Ġimprove": 4355,
      "sit": 4356,
      "ĠSee": 4357,
      "Ġlives": 4358,
      "ĠLilly": 4359,
      "Ġchalk": 4360,
      "Ġdoggy": 4361,
      "Ġvet": 4362,
      "ĠdidnÃ¢": 4363,
      "ÅĵYou": 4364,
      "Ġcreated": 4365,
      "ĠInstead": 4366,
      "Ġpetals": 4367,
      "Ġearlier": 4368,
      "Ġapron": 4369,
      "Ġflutter": 4370,
      "Today": 4371,
      "Ġregret": 4372,
      "Ġcherries": 4373,
      "Ġvacation": 4374,
      "ait": 4375,
      "lass": 4376,
      "iture": 4377,
      "Ġfurn": 4378,
      "Ġflapped": 4379,
      "rosc": 4380,
      "Ġchairs": 4381,
      "ĠGod": 4382,
      "Ġstraight": 4383,
      "Ġmicrosc": 4384,
      "achel": 4385,
      "Ġexercise": 4386,
      "Ġgrocer": 4387,
      "Ġfurniture": 4388,
      "vision": 4389,
      "Ġsuff": 4390,
      "Ġlend": 4391,
      "Ġsheet": 4392,
      "ĠBaby": 4393,
      "Ġboot": 4394,
      "place": 4395,
      "Ġquiz": 4396,
      "Ġoffer": 4397,
      "Ġshoulder": 4398,
      "ĠPat": 4399,
      "Ġblackboard": 4400,
      "Ġveh": 4401,
      "Ġmedal": 4402,
      "Ġwipe": 4403,
      "Ġharb": 4404,
      "Ġmicroscope": 4405,
      "Daisy": 4406,
      "tress": 4407,
      "Ġpit": 4408,
      "enry": 4409,
      "hero": 4410,
      "Ġhelper": 4411,
      "Ġsung": 4412,
      "Ġbears": 4413,
      "Ġdear": 4414,
      "Ġmattress": 4415,
      "Ġpoints": 4416,
      "Ġmusician": 4417,
      "Ġceiling": 4418,
      "Ġlawyer": 4419,
      "Ġsuperhero": 4420,
      "men": 4421,
      "ising": 4422,
      "Ġstro": 4423,
      "asis": 4424,
      "urch": 4425,
      "agg": 4426,
      "Ġpoked": 4427,
      "reeze": 4428,
      "Ġtrave": 4429,
      "Ġquietly": 4430,
      "Ġmemories": 4431,
      "Ch": 4432,
      "loe": 4433,
      "Ġlumber": 4434,
      "Ġcord": 4435,
      "ĠitÃ¢": 4436,
      "Ġoil": 4437,
      "Ġrod": 4438,
      "ometer": 4439,
      "Ġrooms": 4440,
      "rmometer": 4441,
      "Ġbelow": 4442,
      "Ġsailing": 4443,
      "Ġfallen": 4444,
      "Ġworms": 4445,
      "Ġtelevision": 4446,
      "Ġharbor": 4447,
      "bul": 4448,
      "res": 4449,
      "Ġcable": 4450,
      "Ġpalm": 4451,
      "Ġoasis": 4452,
      "Ġrequ": 4453,
      "Ġflame": 4454,
      "ssible": 4455,
      "Ġheads": 4456,
      "Ġsquirrels": 4457,
      "ipping": 4458,
      "Ġeasily": 4459,
      "Ġeagerly": 4460,
      "Ġshooting": 4461,
      "Did": 4462,
      "Eventually": 4463,
      "Ġwine": 4464,
      "Ġwigg": 4465,
      "Ġdem": 4466,
      "omes": 4467,
      "Ġyield": 4468,
      "Ġknob": 4469,
      "Ġpear": 4470,
      "Ġrabbits": 4471,
      "Ġfollows": 4472,
      "Ġmeeting": 4473,
      "Ġsprayed": 4474,
      "Ġrelaxed": 4475,
      "ĠClara": 4476,
      "lasses": 4477,
      "Ġsunglasses": 4478,
      "Ġthermometer": 4479,
      "ito": 4480,
      "Ġfought": 4481,
      "Ġcham": 4482,
      "Ġgrin": 4483,
      "izes": 4484,
      "Ġappro": 4485,
      "Ġfiref": 4486,
      "Ġpuzzles": 4487,
      "Ġsniffed": 4488,
      "Ġyawned": 4489,
      "Ġfuel": 4490,
      "ĠTrue": 4491,
      "Ġaut": 4492,
      "Ġberry": 4493,
      "oral": 4494,
      "Ġpra": 4495,
      "Ġplays": 4496,
      "Ġloop": 4497,
      "Ġagre": 4498,
      "Ġchurch": 4499,
      "Ġvroom": 4500,
      "Ġpoke": 4501,
      "Ġtwink": 4502,
      "Ġdoors": 4503,
      "Ġdressed": 4504,
      "Ġambul": 4505,
      "Ġfireplace": 4506,
      "Ġfolder": 4507,
      "Ġyoga": 4508,
      "Ġstud": 4509,
      "Ġsocks": 4510,
      "Ġleak": 4511,
      "estig": 4512,
      "bbie": 4513,
      "Ġfastest": 4514,
      "Ġbuckle": 4515,
      "Ġbathe": 4516,
      "Ġinvestig": 4517,
      "Ġkingdom": 4518,
      "Ġringing": 4519,
      "Ġwhisper": 4520,
      "Daddy": 4521,
      "Ġrequest": 4522,
      "Ġwaving": 4523,
      "Ġmention": 4524,
      "Your": 4525,
      "Ġnovel": 4526,
      "Ġcaring": 4527,
      "Ġpopped": 4528,
      "Ġquack": 4529,
      "ucet": 4530,
      "Ġwriting": 4531,
      "Ġzeb": 4532,
      "Ġblankets": 4533,
      "fortunately": 4534,
      "Ġwandered": 4535,
      "Ġcherry": 4536,
      "Ġbeans": 4537,
      "Ġpenguin": 4538,
      "Ġcomplain": 4539,
      "Ġambulance": 4540,
      "Ġzebra": 4541,
      "Ġbaking": 4542,
      "ero": 4543,
      "Ġcared": 4544,
      "Ġplates": 4545,
      "hter": 4546,
      "Ġjazz": 4547,
      "Ġweigh": 4548,
      "Ġlaughter": 4549,
      "Ġbury": 4550,
      "Ġhurting": 4551,
      "Ġperfume": 4552,
      "Ġprevent": 4553,
      "Ġwhistling": 4554,
      "Ġsqueeze": 4555,
      "Ġbattery": 4556,
      "Ġolive": 4557,
      "mend": 4558,
      "tain": 4559,
      "Ġtip": 4560,
      "Ġtucked": 4561,
      "Ġrake": 4562,
      "elery": 4563,
      "Ġalive": 4564,
      "Ġfog": 4565,
      "Ġletting": 4566,
      "Ġplanet": 4567,
      "Ġsub": 4568,
      "Ġshrink": 4569,
      "Ġcircus": 4570,
      "Ġrefres": 4571,
      "Ġfaucet": 4572,
      "ÅĵItÃ¢": 4573,
      "Ġvideo": 4574,
      "Ġmagazine": 4575,
      "Ġchamber": 4576,
      "Ġbreeze": 4577,
      "omob": 4578,
      "ommend": 4579,
      "ĠAb": 4580,
      "Ġdelay": 4581,
      "Ġsigns": 4582,
      "Ġelephants": 4583,
      "Ġrecommend": 4584,
      "Ġtrusted": 4585,
      "ĠAnnie": 4586,
      "Ġclassroom": 4587,
      "Ġinvestigate": 4588,
      "Is": 4589,
      "Mr": 4590,
      "Will": 4591,
      "ring": 4592,
      "Ġig": 4593,
      "inked": 4594,
      "Ġsaving": 4595,
      "ĠIÃ¢": 4596,
      "ĠLee": 4597,
      "Ġsurprises": 4598,
      "Thanks": 4599,
      "Ġfollowing": 4600,
      "Ġairpl": 4601,
      "Ġdisappear": 4602,
      "ĠOr": 4603,
      "Ġminute": 4604,
      "Ġsplashing": 4605,
      "ival": 4606,
      "Ġrubber": 4607,
      "Ġribbon": 4608,
      "Ġflea": 4609,
      "Ġautomob": 4610,
      "Ġigloo": 4611,
      "lid": 4612,
      "Ġfest": 4613,
      "Ġport": 4614,
      "Ġhappens": 4615,
      "chie": 4616,
      "Ġisn": 4617,
      "ĠMandy": 4618,
      "Ġmoves": 4619,
      "Ġskills": 4620,
      "ĠCo": 4621,
      "Ġraise": 4622,
      "Ġfloated": 4623,
      "Ġcastles": 4624,
      "Ġmailman": 4625,
      "Ġapart": 4626,
      "Ġadmir": 4627,
      "Ġjellyfish": 4628,
      "Ġsneeze": 4629,
      "Ġbricks": 4630,
      "Ġscattered": 4631,
      "Ġsandcastle": 4632,
      "Lisa": 4633,
      "case": 4634,
      "Ġsigh": 4635,
      "Ġpal": 4636,
      "Ġspade": 4637,
      "icing": 4638,
      "Ġclaw": 4639,
      "Ġprop": 4640,
      "ĠLuna": 4641,
      "aped": 4642,
      "Ġcrash": 4643,
      "Ġtaller": 4644,
      "Ġhearts": 4645,
      "Ġmint": 4646,
      "Ġshrugged": 4647,
      "Ġsettled": 4648,
      "Ġdestroyed": 4649,
      "Ġseparate": 4650,
      "Ġdemand": 4651,
      "vet": 4652,
      "Ġdaisy": 4653,
      "Ġdire": 4654,
      "Ġstable": 4655,
      "Ġlicks": 4656,
      "Ġreaches": 4657,
      "Ġseas": 4658,
      "quito": 4659,
      "Ġholid": 4660,
      "Ġskull": 4661,
      "Ġglo": 4662,
      "Ġheaded": 4663,
      "Sammy": 4664,
      "Ġcrawling": 4665,
      "Ġstrawberries": 4666,
      "Ġargue": 4667,
      "Ġvehicle": 4668,
      "Ġholiday": 4669,
      "Ann": 4670,
      "ives": 4671,
      "Ġtut": 4672,
      "Ġsimp": 4673,
      "Ġfile": 4674,
      "Ġrise": 4675,
      "Ġmyself": 4676,
      "Ġtrade": 4677,
      "Ġdrain": 4678,
      "elcome": 4679,
      "Ġgifts": 4680,
      "Ġpastry": 4681,
      "Ġspoons": 4682,
      "ĠBuzz": 4683,
      "Ġtornado": 4684,
      "Ġrepeat": 4685,
      "aggie": 4686,
      "'.": 4687,
      "right": 4688,
      "Ġtong": 4689,
      "ĠIs": 4690,
      "indy": 4691,
      "Ġscore": 4692,
      "Ġmeowed": 4693,
      "Ġblinked": 4694,
      "angers": 4695,
      "Ġskirt": 4696,
      "ionary": 4697,
      "Ġunite": 4698,
      "Ġdresses": 4699,
      "Ġsetting": 4700,
      "Ġsparkling": 4701,
      "Ġticket": 4702,
      "Ġspending": 4703,
      "Ġsausage": 4704,
      "Ġreverse": 4705,
      "Ġbleed": 4706,
      "Ġautomobile": 4707,
      "Ġpalace": 4708,
      "ib": 4709,
      "Ġcelery": 4710,
      "ĠSu": 4711,
      "These": 4712,
      "allow": 4713,
      "Ġeaten": 4714,
      "Ġburied": 4715,
      "Ġcalls": 4716,
      "Ġamazement": 4717,
      "Ġwarmth": 4718,
      "Ġunderstanding": 4719,
      "Ġgrowled": 4720,
      "Ġsprink": 4721,
      "Ġignore": 4722,
      "Ġstrip": 4723,
      "ictionary": 4724,
      "squito": 4725,
      "Ġsizes": 4726,
      "Ġtore": 4727,
      "Ġdictionary": 4728,
      "Ġwashing": 4729,
      "enc": 4730,
      "Ġstitch": 4731,
      "Ġlick": 4732,
      "raged": 4733,
      "ĠWho": 4734,
      "Ġoranges": 4735,
      "Ġmosquito": 4736,
      "Ġquit": 4737,
      "Ġraz": 4738,
      "Ġhills": 4739,
      "Ġfreez": 4740,
      "Ġmystery": 4741,
      "Ġmelted": 4742,
      "Ġcuddled": 4743,
      "Ġbumped": 4744,
      "Ġbreathe": 4745,
      "Ġtemple": 4746,
      "Ġinfant": 4747,
      "Ġdirect": 4748,
      "Ġtax": 4749,
      "Ġgust": 4750,
      "Ġequ": 4751,
      "ĠIts": 4752,
      "Ġsport": 4753,
      "Ġscooped": 4754,
      "Ġagree": 4755,
      "Ġshower": 4756,
      "Ġkeeping": 4757,
      "Ġfloat": 4758,
      "Ġlawn": 4759,
      "Ġanswers": 4760,
      "Ġcandles": 4761,
      "Ġsqueezed": 4762,
      "Ġobserve": 4763,
      "Ġinstr": 4764,
      "Ġfestival": 4765,
      "Ġrazor": 4766,
      "Ġtaxi": 4767,
      "Fl": 4768,
      "Peter": 4769,
      "ived": 4770,
      "iately": 4771,
      "rise": 4772,
      "ĊĠ": 4773,
      "asc": 4774,
      "Ġcopper": 4775,
      "Ġkneel": 4776,
      "ĠCat": 4777,
      "Ġideas": 4778,
      "Ġfloating": 4779,
      "mediately": 4780,
      "Ġeasier": 4781,
      "Ġmuffin": 4782,
      "Ġsubway": 4783,
      "Sh": 4784,
      "ah": 4785,
      "Ġsings": 4786,
      "oming": 4787,
      "Ġnation": 4788,
      "ety": 4789,
      "ases": 4790,
      "ĠBet": 4791,
      "ĠBun": 4792,
      "Ġjogging": 4793,
      "Ġchoice": 4794,
      "Ġcollected": 4795,
      "Ġsafety": 4796,
      "Ġentered": 4797,
      "Ġweeks": 4798,
      "Ġjewelry": 4799,
      "Ġscratch": 4800,
      "ĠUn": 4801,
      "Ġpraised": 4802,
      "Ġhomes": 4803,
      "utty": 4804,
      "Ġbeamed": 4805,
      "alley": 4806,
      "uckily": 4807,
      "Ġbookcase": 4808,
      "osed": 4809,
      "uggage": 4810,
      "orses": 4811,
      "Ġbeef": 4812,
      "Ġdestination": 4813,
      "Ġbouncing": 4814,
      "Ġyogurt": 4815,
      "Ouch": 4816,
      "Ġtoes": 4817,
      "Ġluggage": 4818,
      "Ġpages": 4819,
      "ĠTina": 4820,
      "âĤ¬.": 4821,
      "Ġsunrise": 4822,
      "ĠJoy": 4823,
      "Ġcoats": 4824,
      "ĠCharlie": 4825,
      "Ġburning": 4826,
      "Ġcaptain": 4827,
      "Ġurge": 4828,
      "Ġappreciate": 4829,
      "Ġtutor": 4830,
      "Qu": 4831,
      "Wait": 4832,
      "mm": 4833,
      "Ġsince": 4834,
      "Ġbother": 4835,
      "Ġhorses": 4836,
      "Ġdried": 4837,
      "Ġmall": 4838,
      "ari": 4839,
      "ĠJess": 4840,
      "Ġcob": 4841,
      "Ġskipping": 4842,
      "Ġsnapped": 4843,
      "Ġremove": 4844,
      "Ġunif": 4845,
      "Ġblueberries": 4846,
      "Ġbites": 4847,
      "Ġspots": 4848,
      "Ġhotel": 4849,
      "Ġmissile": 4850,
      "Ġsparkle": 4851,
      "Ġguy": 4852,
      "ĠFreddy": 4853,
      "Ġfasc": 4854,
      "seek": 4855,
      "ĠDanny": 4856,
      "Ġjogged": 4857,
      "Ġsnap": 4858,
      "Ġappear": 4859,
      "ĠRachel": 4860,
      "Ġhits": 4861,
      "ĠSteve": 4862,
      "Ġstrawberry": 4863,
      "Ġsettle": 4864,
      "Ġinsisted": 4865,
      "Ġchirping": 4866,
      "Ġapproached": 4867,
      "Ġgloves": 4868,
      "Ġuniform": 4869,
      "Ġtug": 4870,
      "Ġbegged": 4871,
      "Ġcoal": 4872,
      "Ġexplor": 4873,
      "Ġchess": 4874,
      "ission": 4875,
      "Ġdeeper": 4876,
      "Ġinsect": 4877,
      "omeday": 4878,
      "Ġoats": 4879,
      "Ġairplane": 4880,
      "Ġachie": 4881,
      "Ġdare": 4882,
      "ĠHave": 4883,
      "Ġhers": 4884,
      "uture": 4885,
      "ĠMilly": 4886,
      "Ġsew": 4887,
      "ĠJames": 4888,
      "umble": 4889,
      "Ġchores": 4890,
      "Ġwatches": 4891,
      "TMre": 4892,
      "Ġwarning": 4893,
      "Ġenter": 4894,
      "Ġeagle": 4895,
      "Ġsolved": 4896,
      "Ġdecorations": 4897,
      "Ġprayed": 4898,
      "Ġpermission": 4899,
      "Ġstruggling": 4900,
      "lvet": 4901,
      "Ġfuture": 4902,
      "anta": 4903,
      "htray": 4904,
      "Ġashtray": 4905,
      "Ġmanage": 4906,
      "Ġblood": 4907,
      "Ġvalley": 4908,
      "bey": 4909,
      "Ġclimbs": 4910,
      "Ġreplace": 4911,
      "ĠKing": 4912,
      "Ġmatches": 4913,
      "Ġpaused": 4914,
      "Ġplanes": 4915,
      "Ġvelvet": 4916,
      "irpy": 4917,
      "Ġradish": 4918,
      "Ġclaws": 4919,
      "Ġtongue": 4920,
      "Yuck": 4921,
      "dam": 4922,
      "web": 4923,
      "ĠV": 4924,
      "ora": 4925,
      "atch": 4926,
      "lend": 4927,
      "Ġsore": 4928,
      "Ġanch": 4929,
      "Ġspit": 4930,
      "Ġtease": 4931,
      "Ġemer": 4932,
      "Ġpastel": 4933,
      "Ġcollecting": 4934,
      "ĠChloe": 4935,
      "ĠBubbles": 4936,
      "Ġreceive": 4937,
      "Ġrecognized": 4938,
      "Ġstomach": 4939,
      "Ġcobweb": 4940,
      "Ġfascin": 4941,
      "cles": 4942,
      "nies": 4943,
      "ishing": 4944,
      "anna": 4945,
      "igail": 4946,
      "Ġeff": 4947,
      "Ġgirls": 4948,
      "emember": 4949,
      "Ġwrites": 4950,
      "Ġpulling": 4951,
      "Ġdrinking": 4952,
      "Ġrespons": 4953,
      "Ġpatiently": 4954,
      "Ġencouraged": 4955,
      "Ġexperience": 4956,
      "'ve": 4957,
      "All": 4958,
      "Ġsomeday": 4959,
      "Ġwaist": 4960,
      "Ġlect": 4961,
      "Ġhesit": 4962,
      "Ġstaff": 4963,
      "Ġitem": 4964,
      "ĠJul": 4965,
      "ops": 4966,
      "Ġweap": 4967,
      "Ġworse": 4968,
      "Ġpride": 4969,
      "ĠLater": 4970,
      "Ġslip": 4971,
      "Ġbravely": 4972,
      "Ġwherever": 4973,
      "Ġmoments": 4974,
      "Ġsits": 4975,
      "Ġinvit": 4976,
      "Ġinvite": 4977,
      "Ġcalend": 4978,
      "Ġpanic": 4979,
      "Ġpeanuts": 4980,
      "Ġanchor": 4981,
      "Ġlecture": 4982,
      "Ġcalendar": 4983,
      "\",": 4984,
      "Ġhate": 4985,
      "Ġlung": 4986,
      "irped": 4987,
      "Ġyucky": 4988,
      "ĠMay": 4989,
      "Ġchirped": 4990,
      "ĠFro": 4991,
      "Ġpoison": 4992,
      "Ġslice": 4993,
      "Ġremain": 4994,
      "Ġremained": 4995,
      "Ġworks": 4996,
      "Ġparts": 4997,
      "Ġplanted": 4998,
      "Ġbelieved": 4999,
      "Ġminer": 5000,
      "Ġsupposed": 5001,
      "Ġapologize": 5002,
      "Ġtracks": 5003,
      "Tweet": 5004,
      "iers": 5005,
      "Ġrush": 5006,
      "Ġtremb": 5007,
      "Ġranch": 5008,
      "ipment": 5009,
      "Ġrained": 5010,
      "ĠNutty": 5011,
      "Johnny": 5012,
      "Ġbookshe": 5013,
      "ĠKatie": 5014,
      "Ġcompany": 5015,
      "laire": 5016,
      "Ġteaching": 5017,
      "Ġtwisted": 5018,
      "Ġmodel": 5019,
      "Ġreceived": 5020,
      "ging": 5021,
      "mare": 5022,
      "mother": 5023,
      "sing": 5024,
      "Ġtide": 5025,
      "Ġlamb": 5026,
      "ĠTiny": 5027,
      "antly": 5028,
      "ĠDan": 5029,
      "Ġblueberry": 5030,
      "Ġours": 5031,
      "Ġtomatoes": 5032,
      "Ġbrick": 5033,
      "Ġpunish": 5034,
      "Ġrevealed": 5035,
      "Ġsuffer": 5036,
      "ĠCoco": 5037,
      "Ġequipment": 5038,
      "Ġfash": 5039,
      "Ġlily": 5040,
      "Ġrow": 5041,
      "Ġthrilled": 5042,
      "Ġlaid": 5043,
      "Ġpetted": 5044,
      "Ġincre": 5045,
      "Ġdisagreed": 5046,
      "Ġprovide": 5047,
      "Ġrefreshed": 5048,
      "cage": 5049,
      "Ġgear": 5050,
      "Ġnone": 5051,
      "Ġalright": 5052,
      "Ġbirdcage": 5053,
      "ĠEach": 5054,
      "Ġoper": 5055,
      "Ġimmediately": 5056,
      "Ġturning": 5057,
      "TMll": 5058,
      "Ġnightmare": 5059,
      "Ġvillag": 5060,
      "ĠBefore": 5061,
      "Ġexamined": 5062,
      "Ġchewed": 5063,
      "Ġordered": 5064,
      "Ġsoldiers": 5065,
      "Ġsneezed": 5066,
      "Ġgrinned": 5067,
      "Ġfirefight": 5068,
      "Ġsimple": 5069,
      "With": 5070,
      "bers": 5071,
      "Ġfed": 5072,
      "Ġpanc": 5073,
      "Ġgain": 5074,
      "Ġshot": 5075,
      "Ġbeg": 5076,
      "allen": 5077,
      "Ġpoppy": 5078,
      "Ġsunlight": 5079,
      "ĠGood": 5080,
      "ĠRu": 5081,
      "Ġmustache": 5082,
      "Ġzooming": 5083,
      "Ġvanished": 5084,
      "Ġprune": 5085,
      "Ġadmiring": 5086,
      "Ġfreezer": 5087,
      "Ġeffort": 5088,
      "Ġbookshelf": 5089,
      "Mandy": 5090,
      "house": 5091,
      "Ġsip": 5092,
      "Ġsix": 5093,
      "ities": 5094,
      "Ġsoared": 5095,
      "Ġjunk": 5096,
      "umes": 5097,
      "Ġwatered": 5098,
      "Ġrested": 5099,
      "Ġpaints": 5100,
      "Ġpillows": 5101,
      "Ġhurric": 5102,
      "Before": 5103,
      "Ġearthqu": 5104,
      "ĠPeople": 5105,
      "Ġsurrounded": 5106,
      "xc": 5107,
      "xy": 5108,
      "Ġbes": 5109,
      "Ġdigg": 5110,
      "Ġheat": 5111,
      "Ġmass": 5112,
      "Ġnavy": 5113,
      "Ġevent": 5114,
      "Ġflav": 5115,
      "Ġchallen": 5116,
      "Ġglowed": 5117,
      "Ġcrunch": 5118,
      "Ġcontinue": 5119,
      "Ġvisiting": 5120,
      "Ġlands": 5121,
      "Ġwhistled": 5122,
      "Ġcostumes": 5123,
      "ÅĵThatÃ¢": 5124,
      "Welcome": 5125,
      "ls": 5126,
      "oved": 5127,
      "Ġwagging": 5128,
      "embers": 5129,
      "Ġremembers": 5130,
      "ĠPenny": 5131,
      "Ġdifference": 5132,
      "Ġrestore": 5133,
      "Ġsteel": 5134,
      "osity": 5135,
      "Ġcomforted": 5136,
      "Ġresult": 5137,
      "Ġprice": 5138,
      "Ġmenu": 5139,
      "Ġbuzzing": 5140,
      "Ġvillagers": 5141,
      "xygen": 5142,
      "Ġdigging": 5143,
      "sity": 5144,
      "tory": 5145,
      "Ġhanger": 5146,
      "Ġmitten": 5147,
      "Ġshamp": 5148,
      "riage": 5149,
      "Ġhistory": 5150,
      "Ġspaces": 5151,
      "Ġstrangers": 5152,
      "Ġmouths": 5153,
      "Ġattached": 5154,
      "Ġsuitc": 5155,
      "Ġdiscovery": 5156,
      "ĠChirpy": 5157,
      "Ġclearing": 5158,
      "Ġweapon": 5159,
      "Ġinvitation": 5160,
      "Ġhurricane": 5161,
      "Ġshampoo": 5162,
      "Would": 5163,
      "kins": 5164,
      "Ġobey": 5165,
      "Ġrust": 5166,
      "Ġshed": 5167,
      "Ġcliff": 5168,
      "Ġstruggled": 5169,
      "ĠEveryday": 5170,
      "Ġkindly": 5171,
      "Ġlets": 5172,
      "xture": 5173,
      "Ġcrashed": 5174,
      "Ġhated": 5175,
      "Ġcutting": 5176,
      "Ġsteak": 5177,
      "Ġactually": 5178,
      "Ġselling": 5179,
      "Ġprepared": 5180,
      "Ġmarbles": 5181,
      "Ġracing": 5182,
      "Ġgrocery": 5183,
      "Ġbeside": 5184,
      "Not": 5185,
      "Or": 5186,
      "walk": 5187,
      "Ġpist": 5188,
      "ĠSunny": 5189,
      "aded": 5190,
      "enty": 5191,
      "Ġlic": 5192,
      "!\",": 5193,
      "Ġscur": 5194,
      "Ġcontain": 5195,
      "Ġzig": 5196,
      "Ġcomple": 5197,
      "Ġsparkles": 5198,
      "Ġwarn": 5199,
      "Ġcartoons": 5200,
      "Ġfolded": 5201,
      "Ġpinched": 5202,
      "Ġpedal": 5203,
      "Ġuniversity": 5204,
      "ĠAbigail": 5205,
      "Ġpistol": 5206,
      "!'": 5207,
      "Jake": 5208,
      "Mark": 5209,
      "cious": 5210,
      "fy": 5211,
      "Ġtoe": 5212,
      "reen": 5213,
      "Ġoxygen": 5214,
      "Ġwhip": 5215,
      "ĠMiss": 5216,
      "Ġjail": 5217,
      "Ġroot": 5218,
      "Ġblouse": 5219,
      "aper": 5220,
      "bbled": 5221,
      "Ġfamil": 5222,
      "ÅĵNo": 5223,
      "ÅĵLook": 5224,
      "Ġtalent": 5225,
      "Ġperched": 5226,
      "Ġbehav": 5227,
      "Ġaccidents": 5228,
      "Ġbringing": 5229,
      "Ġproblems": 5230,
      "Ġcartoon": 5231,
      "Ġjewels": 5232,
      "Ġpenguins": 5233,
      "Ġfashion": 5234,
      "Ġpancakes": 5235,
      "Ġearthquake": 5236,
      "son": 5237,
      "Ġaer": 5238,
      "Ġawe": 5239,
      "Ġbill": 5240,
      "Ġduring": 5241,
      "Ġsty": 5242,
      "ĠHoppy": 5243,
      "adly": 5244,
      "Ġwanting": 5245,
      "opl": 5246,
      "Ġweighed": 5247,
      "Ġdecision": 5248,
      "Ġpears": 5249,
      "Ġcomfy": 5250,
      "izing": 5251,
      "Ġwond": 5252,
      "Ġraised": 5253,
      "Ġcones": 5254,
      "ĠNot": 5255,
      "Ġmarching": 5256,
      "Ġpracticing": 5257,
      "Ġserved": 5258,
      "Ġhurried": 5259,
      "Ġcuddle": 5260,
      "Ġsucceeded": 5261,
      "Fluffy": 5262,
      "Ġlicense": 5263,
      "Ġaeropl": 5264,
      "Jen": 5265,
      "Ro": 5266,
      "Susie": 5267,
      "sed": 5268,
      "Ġweight": 5269,
      "Ġflap": 5270,
      "Ġdownstairs": 5271,
      "ĠFo": 5272,
      "Ġpossible": 5273,
      "Ġfixing": 5274,
      "ĠFloppy": 5275,
      "ĠOl": 5276,
      "Ġsafari": 5277,
      "Ġsliding": 5278,
      "Ġmachines": 5279,
      "ÅĵIÃ¢": 5280,
      "ĠSomeone": 5281,
      "Really": 5282,
      "looking": 5283,
      "ulu": 5284,
      "Ġrang": 5285,
      "Ġnewsp": 5286,
      "Ġanytime": 5287,
      "Ġbrain": 5288,
      "Ġvoices": 5289,
      "Ġsecrets": 5290,
      "Ġfreeze": 5291,
      "Ġrides": 5292,
      "Ġtwigs": 5293,
      "Ġmemory": 5294,
      "Ġargued": 5295,
      "Ġacorns": 5296,
      "Ġintroduc": 5297,
      "Ġbleeding": 5298,
      "Ġoperation": 5299,
      "Ġtugged": 5300,
      "Ġcakes": 5301,
      "Ġpitch": 5302,
      "ĠSanta": 5303,
      "ĠHarry": 5304,
      "ĠHenry": 5305,
      "Ġeight": 5306,
      "ĠBir": 5307,
      "Ġarea": 5308,
      "ĠAm": 5309,
      "Ġbrings": 5310,
      "omething": 5311,
      "Ġchef": 5312,
      "ĠSpike": 5313,
      "Ġzipped": 5314,
      "Ġsteam": 5315,
      "Ġpets": 5316,
      "Ġsidewalk": 5317,
      "Ġdrinks": 5318,
      "Ġneighborhood": 5319,
      "Ġdisturbed": 5320,
      "Ġmeasured": 5321,
      "Ġaeroplane": 5322,
      "Moral": 5323,
      "Mmm": 5324,
      "Ġgrey": 5325,
      "Ġbeds": 5326,
      "Ġpupp": 5327,
      "Ġbottles": 5328,
      "Ġornament": 5329,
      "Ġagreement": 5330,
      "Ġproperly": 5331,
      "Ġfascinated": 5332,
      "Ġmittens": 5333,
      "Ġmuddy": 5334,
      "Ġsting": 5335,
      "Ġscoop": 5336,
      "Ġbrus": 5337,
      "Ġgotten": 5338,
      "Ġeveryday": 5339,
      "Ġpeel": 5340,
      "ĠCindy": 5341,
      "Ġadult": 5342,
      "Ġhardly": 5343,
      "Ġwaits": 5344,
      "Ġguessed": 5345,
      "Ġcurled": 5346,
      "Ġmentioned": 5347,
      "Kitty": 5348,
      "ha": 5349,
      "neath": 5350,
      "rin": 5351,
      "Ġbun": 5352,
      "Ġbang": 5353,
      "isten": 5354,
      "Ġhappiest": 5355,
      "Ġbrid": 5356,
      "ĠLucky": 5357,
      "Ġoverjoy": 5358,
      "Ġfiremen": 5359,
      "Ġdrift": 5360,
      "Ġbuildings": 5361,
      "Ġmuscles": 5362,
      "Ġseats": 5363,
      "ĠZoe": 5364,
      "Ġescaped": 5365,
      "Ġpermit": 5366,
      "Ġmeasuring": 5367,
      "ences": 5368,
      "Ġmassage": 5369,
      "Ġspaceship": 5370,
      "Ġoverjoyed": 5371,
      "do": 5372,
      "Ġbones": 5373,
      "isf": 5374,
      "ays": 5375,
      "att": 5376,
      "Ġpretti": 5377,
      "Ġcatching": 5378,
      "Ġsnowball": 5379,
      "Ġprecious": 5380,
      "Ġmonsters": 5381,
      "Ġfigured": 5382,
      "Ġwisdom": 5383,
      "Ġwaffles": 5384,
      "Ġneighbourhood": 5385,
      "Ġbillboard": 5386,
      "Ġwonders": 5387,
      "Ġprettiest": 5388,
      "Happy": 5389,
      "ales": 5390,
      "nie": 5391,
      "riger": 5392,
      "zag": 5393,
      "Ġwer": 5394,
      "Ġbare": 5395,
      "Ġcaut": 5396,
      "imy": 5397,
      "amie": 5398,
      "Ġripped": 5399,
      "Ġupstairs": 5400,
      "ĠBeth": 5401,
      "ĠMe": 5402,
      "Ġgrape": 5403,
      "Joey": 5404,
      "Ġshopping": 5405,
      "Ġbowed": 5406,
      "iggy": 5407,
      "Ġaccom": 5408,
      "Ġguns": 5409,
      "Ġdinosaurs": 5410,
      "Ġtickets": 5411,
      "Ġrefriger": 5412,
      "Emily": 5413,
      "Ġrecognize": 5414,
      "Ġpatterns": 5415,
      "Ġpadd": 5416,
      "Ġprunes": 5417,
      "Ġpurred": 5418,
      "Ġresponsible": 5419,
      "Ġcrunchy": 5420,
      "Ġweren": 5421,
      "Ġrefrigerator": 5422,
      "Sometimes": 5423,
      "len": 5424,
      "hest": 5425,
      "Ġwid": 5426,
      "Ġlines": 5427,
      "Ġdied": 5428,
      "Ġmister": 5429,
      "ĠLiz": 5430,
      "Ġbecoming": 5431,
      "Ġdecides": 5432,
      "Ġvowed": 5433,
      "avid": 5434,
      "Ġteasing": 5435,
      "Ġune": 5436,
      "Ġbroom": 5437,
      "Ġcrumb": 5438,
      "Ġsatisf": 5439,
      "Ġwooden": 5440,
      "thank": 5441,
      "Ġparked": 5442,
      "Ġreminder": 5443,
      "Ready": 5444,
      "Ġgrandmother": 5445,
      "Ġlips": 5446,
      "ding": 5447,
      "ĠThese": 5448,
      "isters": 5449,
      "ĠMaggie": 5450,
      "terday": 5451,
      "Ġann": 5452,
      "Ġbrushed": 5453,
      "Ġflood": 5454,
      "Ġofficer": 5455,
      "Ġrealize": 5456,
      "Ġtrapped": 5457,
      "Ġsweets": 5458,
      "ĠLetÃ¢": 5459,
      "Ġfrost": 5460,
      "ĠJenna": 5461,
      "Ġpastels": 5462,
      "Ġactiv": 5463,
      "ĠChr": 5464,
      "Ġdecorated": 5465,
      "Ġunlocked": 5466,
      "Ġstudied": 5467,
      "Ġinstruct": 5468,
      "Ġmineral": 5469,
      "Ġbegin": 5470,
      "Ġcompleted": 5471,
      "Ġnewspaper": 5472,
      "Ġbridges": 5473,
      "Ġaccompl": 5474,
      "Exc": 5475,
      "First": 5476,
      "Ha": 5477,
      "Yum": 5478,
      "ĠOnce": 5479,
      "Ġsisters": 5480,
      "omas": 5481,
      "Ġrhy": 5482,
      "ppers": 5483,
      "Ġonwards": 5484,
      "aker": 5485,
      "ĠCar": 5486,
      "Ġunderground": 5487,
      "Ġcub": 5488,
      "Ġdraws": 5489,
      "Ġladyb": 5490,
      "thm": 5491,
      "Ġbeneath": 5492,
      "Ġneighbors": 5493,
      "Ġpigs": 5494,
      "Ġtune": 5495,
      "Ġcollection": 5496,
      "Ġleader": 5497,
      "Ġpiles": 5498,
      "Rex": 5499,
      "Ġurged": 5500,
      "Ġitems": 5501,
      "Ġbunnies": 5502,
      "bies": 5503,
      "xp": 5504,
      "Ġtonight": 5505,
      "ides": 5506,
      "ĠSomething": 5507,
      "lee": 5508,
      "Ġinch": 5509,
      "ĠBird": 5510,
      "ĠLulu": 5511,
      "Ġpeered": 5512,
      "ffic": 5513,
      "Ġtraffic": 5514,
      "Ġtastes": 5515,
      "Ġplanned": 5516,
      "Ġbouncy": 5517,
      "Ġsorting": 5518,
      "Ġstirring": 5519,
      "Ġmountains": 5520,
      "Ġroaring": 5521,
      "Ġscratched": 5522,
      "Ġtasks": 5523,
      "ĠFrank": 5524,
      "Ġmuffins": 5525,
      "...": 5526,
      "Ġincluded": 5527,
      "Ġsuitcase": 5528,
      "Ġinstructions": 5529,
      "Ġx": 5530,
      "Ġgained": 5531,
      "Ġrul": 5532,
      "Ġbeat": 5533,
      "Ġloose": 5534,
      "Ġmeow": 5535,
      "Ġslimy": 5536,
      "Ġprinted": 5537,
      "Ġbabies": 5538,
      "Ġsitu": 5539,
      "Ġlandsc": 5540,
      "Ġbathrobe": 5541,
      "Ġmagnets": 5542,
      "Ġsoaring": 5543,
      "Ġemergen": 5544,
      "Ġtrembling": 5545,
      "Ġintroduced": 5546,
      "Ġlandscape": 5547,
      "Bella": 5548,
      "Ok": 5549,
      "Paul": 5550,
      "ced": 5551,
      "Ġnicer": 5552,
      "ĠBig": 5553,
      "ĠAdam": 5554,
      "Ġago": 5555,
      "Ġopin": 5556,
      "ĠJosh": 5557,
      "Ġbye": 5558,
      "ÅĵThank": 5559,
      "ĠPip": 5560,
      "Ġcrept": 5561,
      "Ġdoctors": 5562,
      "Ġscreams": 5563,
      "Ġrainbows": 5564,
      "ĠAnne": 5565,
      "Ġbloomed": 5566,
      "Ġrubbing": 5567,
      "Ġfireworks": 5568,
      "Ġtravell": 5569,
      "Ġbarely": 5570,
      "Ġunexp": 5571,
      "Ġunexpected": 5572,
      ".'": 5573,
      "Remember": 5574,
      "zing": 5575,
      "Ġfet": 5576,
      "ishes": 5577,
      "ided": 5578,
      "asp": 5579,
      "Ġbeard": 5580,
      "Ġsoak": 5581,
      "Ġrele": 5582,
      "Ġknelt": 5583,
      "Ġleather": 5584,
      "ĠLike": 5585,
      "Ġneedles": 5586,
      "Ġimage": 5587,
      "Ġunderneath": 5588,
      "Ġdrag": 5589,
      "Ġforgi": 5590,
      "Ġtractor": 5591,
      "Ġzero": 5592,
      "Ġseesaw": 5593,
      "Ġmarriage": 5594,
      "Ġentire": 5595,
      "Ġsolut": 5596,
      "âĤ¬âĢĿ": 5597,
      "lowly": 5598,
      "Ġbalancing": 5599,
      "Ġfrosting": 5600,
      "Le": 5601,
      "hins": 5602,
      "iar": 5603,
      "Ġ1": 5604,
      "Ġcal": 5605,
      "une": 5606,
      "Ġspill": 5607,
      "Ġweb": 5608,
      "Ġvent": 5609,
      "Ġpoking": 5610,
      "ÅĵWe": 5611,
      "Ġourselves": 5612,
      "Ġsinger": 5613,
      "Ġsteep": 5614,
      "Ġswims": 5615,
      "Ġexpected": 5616,
      "Ġroads": 5617,
      "Goodbye": 5618,
      "ĠHowever": 5619,
      "Ġdolphins": 5620,
      "Ġpowers": 5621,
      "Ġolives": 5622,
      "abel": 5623,
      "Ġdemanded": 5624,
      "annah": 5625,
      "Ye": 5626,
      "uzz": 5627,
      "zie": 5628,
      "ĠYes": 5629,
      "Ġbend": 5630,
      "Ġbank": 5631,
      "ĠTues": 5632,
      "ayla": 5633,
      "ica": 5634,
      "Ġranger": 5635,
      "Ġpearl": 5636,
      "Ġstruck": 5637,
      "Ġbudge": 5638,
      "ĠClaire": 5639,
      "Ġbrand": 5640,
      "Ġcontro": 5641,
      "Ġprinter": 5642,
      "Ġmission": 5643,
      "Ġpassing": 5644,
      "Ġmixing": 5645,
      "Ġstaring": 5646,
      "Ġkeys": 5647,
      "Ġprotected": 5648,
      "Ġlemons": 5649,
      "Ġscru": 5650,
      "Ġclaps": 5651,
      "Ġstripes": 5652,
      "Ġshadows": 5653,
      "Ġpupil": 5654,
      "Ġcurtains": 5655,
      "Ġbalanced": 5656,
      "Ġsprinkles": 5657,
      "Ġscurried": 5658,
      "Ġzigzag": 5659,
      "ĠTuesday": 5660,
      "George": 5661,
      "James": 5662,
      "Teddy": 5663,
      "jam": 5664,
      "mble": 5665,
      "ux": 5666,
      "Ġlux": 5667,
      "Ġda": 5668,
      "Ġmaster": 5669,
      "ĠHop": 5670,
      "Ġexact": 5671,
      "Ġclick": 5672,
      "Ġvict": 5673,
      "ĠDid": 5674,
      "ÅĵDon": 5675,
      "Ġwaiter": 5676,
      "Ġbreaking": 5677,
      "Ġowned": 5678,
      "Ġcuriosity": 5679,
      "Ġrolls": 5680,
      "Bobo": 5681,
      "Ġpouring": 5682,
      "Ġstamps": 5683,
      "Ġlabel": 5684,
      "Ġstruggle": 5685,
      "Ġchallenge": 5686,
      "Ġrhythm": 5687,
      "jamas": 5688,
      "Ġluxu": 5689,
      "Dave": 5690,
      "Luckily": 5691,
      "hell": 5692,
      "Ġsi": 5693,
      "Ġwiz": 5694,
      "Ġmice": 5695,
      "Ġge": 5696,
      "ason": 5697,
      "Ġloving": 5698,
      "Ġoutdo": 5699,
      "agull": 5700,
      "Ġwhatever": 5701,
      "Ġsadness": 5702,
      "Ġchases": 5703,
      "Ġkeeper": 5704,
      "Ġmarkers": 5705,
      "Ġkicking": 5706,
      "Ġcrackers": 5707,
      "Ġstudying": 5708,
      "Ġlibrarian": 5709,
      "Ġpotatoes": 5710,
      "Ġdisagree": 5711,
      "Ġuniverse": 5712,
      "Ġdirection": 5713,
      "ĠUnfortunately": 5714,
      "Ġemergency": 5715,
      "Mike": 5716,
      "eed": 5717,
      "fit": 5718,
      "nes": 5719,
      "rance": 5720,
      "Ġwre": 5721,
      "edding": 5722,
      "Ġfart": 5723,
      "Ġcape": 5724,
      "Ġdared": 5725,
      "ĠSund": 5726,
      "endy": 5727,
      "addy": 5728,
      "Ġseagull": 5729,
      "Ġexit": 5730,
      "Ġtremble": 5731,
      "ĠCarl": 5732,
      "Ġstole": 5733,
      "Ġwondering": 5734,
      "ĠRob": 5735,
      "ĠDoggy": 5736,
      "Ġsorted": 5737,
      "Ġpaddle": 5738,
      "Ġintroduce": 5739,
      "Ġregretted": 5740,
      "ĠSuzy": 5741,
      "Ella": 5742,
      "udy": 5743,
      "zen": 5744,
      "ednes": 5745,
      "ĠElly": 5746,
      "ĠDavid": 5747,
      "Ġteasp": 5748,
      "Ġdragged": 5749,
      "Ġcreation": 5750,
      "Ġyelling": 5751,
      "Ġmatching": 5752,
      "Ġpajamas": 5753,
      "Ġwinner": 5754,
      "Ġexpect": 5755,
      "Ġtwirling": 5756,
      "Ġsights": 5757,
      "ĠSharing": 5758,
      "Ġapplauded": 5759,
      "Ġsighs": 5760,
      "Ġachieve": 5761,
      "ĠRuby": 5762,
      "Ġstyle": 5763,
      "ednesday": 5764,
      "Mittens": 5765,
      "ler": 5766,
      "vers": 5767,
      "Ġroots": 5768,
      "ĠWednesday": 5769,
      "Ġhugging": 5770,
      "Ġsnakes": 5771,
      "Ġsnugg": 5772,
      "ÅĵHello": 5773,
      "Ġmatched": 5774,
      "Ġwinning": 5775,
      "Ġgathering": 5776,
      "Ġstretching": 5777,
      "Ġstealing": 5778,
      "uctantly": 5779,
      "Ġweeping": 5780,
      "Ġguys": 5781,
      "ĠJulie": 5782,
      "Ġfirefighters": 5783,
      "Ġruler": 5784,
      "Ġdragons": 5785,
      "Ġexactly": 5786,
      "ĠSunday": 5787,
      "Ah": 5788,
      "Bobby": 5789,
      "Mar": 5790,
      "Pete": 5791,
      "gers": 5792,
      "ik": 5793,
      "uly": 5794,
      "hee": 5795,
      "Ġmater": 5796,
      "Ġstare": 5797,
      "Ġoutfit": 5798,
      "bbing": 5799,
      "Ġeats": 5800,
      "Ġgreet": 5801,
      "Ġrocked": 5802,
      "Afterwards": 5803,
      "Ġpartic": 5804,
      "Ġplanets": 5805,
      "Ġrelief": 5806,
      "Ġdesert": 5807,
      "Ġhonk": 5808,
      "Ġtickle": 5809,
      "Ġdiscovering": 5810,
      "Ġloaded": 5811,
      "Ġfuzzy": 5812,
      "Ġreleased": 5813,
      "Ġsolution": 5814,
      "Ġwizard": 5815,
      "Ġoutdoors": 5816,
      "Ġmateri": 5817,
      "Un": 5818,
      "Ġsides": 5819,
      "Ġwink": 5820,
      "ana": 5821,
      "Ġga": 5822,
      "Ġthro": 5823,
      "ĠItÃ¢": 5824,
      "Ġscra": 5825,
      "Ġchat": 5826,
      "ĠFriend": 5827,
      "ĠFirst": 5828,
      "Ġshoulders": 5829,
      "Ġacted": 5830,
      "Ġbedtime": 5831,
      "Ġcontest": 5832,
      "Ġfrozen": 5833,
      "Ġdreamt": 5834,
      "though": 5835,
      "Ġcupc": 5836,
      "Andy": 5837,
      "Ġorganizing": 5838,
      "Ġentrance": 5839,
      "Ġspiders": 5840,
      "Ġchewing": 5841,
      "Ġsilence": 5842,
      "Ġmovies": 5843,
      "Ġcamping": 5844,
      "Ġcurly": 5845,
      "Ġrepeated": 5846,
      "Ġdusty": 5847,
      "Ġconfident": 5848,
      "Ġornaments": 5849,
      "Quick": 5850,
      "Ġbrushes": 5851,
      "Ġthroat": 5852,
      "Fr": 5853,
      "eep": 5854,
      "ody": 5855,
      "Ġwedding": 5856,
      "ern": 5857,
      "Ġfara": 5858,
      "Ġdam": 5859,
      "ena": 5860,
      "ĠSlowly": 5861,
      "ĠHappy": 5862,
      "Ġlied": 5863,
      "ĠMatt": 5864,
      "Ġtheirs": 5865,
      "opsy": 5866,
      "usted": 5867,
      "Ġtruly": 5868,
      "Ġpeppers": 5869,
      "angled": 5870,
      "Ġhowever": 5871,
      "Ġcomm": 5872,
      "ĠPinky": 5873,
      "Ġkeeps": 5874,
      "Ġruin": 5875,
      "ĠDolly": 5876,
      "Ġtouching": 5877,
      "Ġbaked": 5878,
      "Ġpolishing": 5879,
      "Ġguest": 5880,
      "oline": 5881,
      "Ġhealed": 5882,
      "Ġrubs": 5883,
      "Ġcompetition": 5884,
      "Ġburrow": 5885,
      "Ġitchy": 5886,
      "Ġcrumbs": 5887,
      "Ġsituation": 5888,
      "Ġcontrol": 5889,
      "Ġfaraway": 5890,
      "Lola": 5891,
      "vin": 5892,
      "wo": 5893,
      "Ġwound": 5894,
      "Ġbumpy": 5895,
      "Ġpies": 5896,
      "Ġstair": 5897,
      "igi": 5898,
      "Ġrumble": 5899,
      "Ġsobbed": 5900,
      "ĠBy": 5901,
      "alph": 5902,
      "ĠAn": 5903,
      "Ġspike": 5904,
      "Ġflat": 5905,
      "Ġslapped": 5906,
      "Ġstrings": 5907,
      "Ġsnail": 5908,
      "Ġstolen": 5909,
      "ĠGr": 5910,
      "Ġwritten": 5911,
      "ĠThomas": 5912,
      "Ġdrives": 5913,
      "Ġpockets": 5914,
      "Ġgiggling": 5915,
      "Ġrockets": 5916,
      "Ġprayer": 5917,
      "Grandpa": 5918,
      "Ġcompletely": 5919,
      "Ġencourage": 5920,
      "Ġshivered": 5921,
      "Ġshivering": 5922,
      "Ġexplorers": 5923,
      "Ġcautious": 5924,
      "Ġladybug": 5925,
      "Ġvictory": 5926,
      "Ġparticular": 5927,
      "au": 5928,
      "bric": 5929,
      "Ġhi": 5930,
      "Ġcous": 5931,
      "Ġcash": 5932,
      "Ġheav": 5933,
      "Ġripe": 5934,
      "ĠyouÃ¢": 5935,
      "ĠMany": 5936,
      "urry": 5937,
      "Ġexha": 5938,
      "Ġworries": 5939,
      "Ġgoodnight": 5940,
      "Ġflames": 5941,
      "Ġsnat": 5942,
      "Ġusually": 5943,
      "Ġbravery": 5944,
      "Ġstaying": 5945,
      "ÅĵCan": 5946,
      "ÅĵWhy": 5947,
      "Ġforehead": 5948,
      "ĠRa": 5949,
      "Ġwrist": 5950,
      "Ġsingle": 5951,
      "Ġreluctantly": 5952,
      "Ġscreaming": 5953,
      "Ġinviting": 5954,
      "Ġsafer": 5955,
      "ĠAlways": 5956,
      "ĠStop": 5957,
      "Ġflags": 5958,
      "Ġfabric": 5959,
      "Ġencourag": 5960,
      "ĠRover": 5961,
      "Ġcountryside": 5962,
      "Ġpunished": 5963,
      "Ġreveal": 5964,
      "Ġluxury": 5965,
      "Ġsiren": 5966,
      "Ġteaspoon": 5967,
      "Ġgazed": 5968,
      "Fred": 5969,
      "Polly": 5970,
      "Rose": 5971,
      "ĠÌ": 5972,
      "Ġsway": 5973,
      "Ġdent": 5974,
      "ords": 5975,
      "ĠSadly": 5976,
      "irm": 5977,
      "Ġshock": 5978,
      "Ġblink": 5979,
      "toed": 5980,
      "Ġslap": 5981,
      "Ġproject": 5982,
      "Ġhighest": 5983,
      "Ġknights": 5984,
      "Ġglasses": 5985,
      "Grace": 5986,
      "Ġstrike": 5987,
      "Ġmelting": 5988,
      "Ġbumps": 5989,
      "Ġsurface": 5990,
      "Ġracco": 5991,
      "Ġtwinkling": 5992,
      "ĠBetty": 5993,
      "ĠBetsy": 5994,
      "ÅĵDonÃ¢": 5995,
      "Ġfarther": 5996,
      "Ġexhausted": 5997,
      "njoy": 5998,
      "per": 5999,
      "rops": 6000,
      "Ġwest": 6001,
      "ĠSure": 6002,
      "asm": 6003,
      "igning": 6004,
      "rious": 6005,
      "Ġseven": 6006,
      "Ġallow": 6007,
      "icky": 6008,
      "ĠLizzy": 6009,
      "Ġchips": 6010,
      "Ġcatches": 6011,
      "Ġpeaches": 6012,
      "acob": 6013,
      "ĠletÃ¢": 6014,
      "ÅĵOh": 6015,
      "Ġfoods": 6016,
      "ĠRobby": 6017,
      "Ġrestored": 6018,
      "Ġarrive": 6019,
      "ĠOwl": 6020,
      "Ġtrips": 6021,
      "Ġsupplies": 6022,
      "Ġnetwork": 6023,
      "Ġpoliceman": 6024,
      "Ġcovers": 6025,
      "Ġrecorded": 6026,
      "However": 6027,
      "Ġcrowd": 6028,
      "Ġsatisfied": 6029,
      "ĠChrist": 6030,
      "Ġopinion": 6031,
      "ĠÌĥ": 6032,
      "Ġraccoon": 6033,
      "cope": 6034,
      "mallow": 6035,
      "uke": 6036,
      "Ġtodd": 6037,
      "Ġbas": 6038,
      "Ġboo": 6039,
      "Ġfreed": 6040,
      "Ġcent": 6041,
      "Ġheel": 6042,
      "Ġpiggy": 6043,
      "arter": 6044,
      "Ġplenty": 6045,
      "Ġsoaked": 6046,
      "Ġrelease": 6047,
      "Ġsmarter": 6048,
      "inda": 6049,
      "indrops": 6050,
      "opes": 6051,
      "Ġwept": 6052,
      "Ġchuck": 6053,
      "Ġswooped": 6054,
      "ĠEarth": 6055,
      "essie": 6056,
      "Ġknees": 6057,
      "Ġraindrops": 6058,
      "ĠPoppy": 6059,
      "Ġopening": 6060,
      "Ġsweeties": 6061,
      "ĠwasnÃ¢": 6062,
      "Ġcaused": 6063,
      "ĠZoom": 6064,
      "Ġhorns": 6065,
      "Ġsneaked": 6066,
      "arshmallow": 6067,
      "Ġactivities": 6068,
      "Ġventured": 6069,
      "aura": 6070,
      "Henry": 6071,
      "Millie": 6072,
      "Sophie": 6073,
      "lings": 6074,
      "Ġtim": 6075,
      "erature": 6076,
      "Ġlap": 6077,
      "Ġcough": 6078,
      "ira": 6079,
      "ashing": 6080,
      "Ġliqu": 6081,
      "aren": 6082,
      "ĠWater": 6083,
      "ĠWatch": 6084,
      "Ġchoo": 6085,
      "Ġknowled": 6086,
      "Ġgrant": 6087,
      "Ġconcer": 6088,
      "ĠPipp": 6089,
      "ĠGreen": 6090,
      "Ġdeli": 6091,
      "Ġworker": 6092,
      "Ġworkers": 6093,
      "Ġyells": 6094,
      "Ġprints": 6095,
      "Ġpaintings": 6096,
      "Ġreaching": 6097,
      "Ġteaches": 6098,
      "Ġblows": 6099,
      "Ġsilent": 6100,
      "Ġpencils": 6101,
      "Ġavoid": 6102,
      "Ġmasks": 6103,
      "Ġdelivered": 6104,
      "Ġtempt": 6105,
      "Ġimproved": 6106,
      "Ġunpacked": 6107,
      "Ġtemperature": 6108,
      "Ġquacked": 6109,
      "Mrs": 6110,
      "Ġannoy": 6111,
      "Excuse": 6112,
      "Ġscrubbed": 6113,
      "Ġliquid": 6114,
      "Ġknowledge": 6115,
      "Cl": 6116,
      "Sandy": 6117,
      "aa": 6118,
      "boo": 6119,
      "mas": 6120,
      "Ġbunch": 6121,
      "Ġfirm": 6122,
      "isies": 6123,
      "Ġpout": 6124,
      "using": 6125,
      "ĠBye": 6126,
      "Ġboom": 6127,
      "ĠJamie": 6128,
      "ĠFor": 6129,
      "ÅĵThis": 6130,
      "Ġrail": 6131,
      "Ġsmiley": 6132,
      "ĠGigi": 6133,
      "Ġcreamy": 6134,
      "Ġcreating": 6135,
      "Ġdeser": 6136,
      "Ġcoloured": 6137,
      "Ġcelebration": 6138,
      "Ġspraying": 6139,
      "Ġclowns": 6140,
      "Ġadding": 6141,
      "Ġcopy": 6142,
      "Ġrescued": 6143,
      "Ġobserved": 6144,
      "Ġpedals": 6145,
      "Ġnails": 6146,
      "Ġherbs": 6147,
      "Ġtraveled": 6148,
      "Ġwiggled": 6149,
      "Ġseashell": 6150,
      "Annie": 6151,
      "Ġkneeled": 6152,
      "Ġdrifted": 6153,
      "Yeah": 6154,
      "Ġdaisies": 6155,
      "Ġsnatched": 6156,
      "Days": 6157,
      "cc": 6158,
      "rr": 6159,
      "you": 6160,
      "Ġaff": 6161,
      "ĠTilly": 6162,
      "Ġyouth": 6163,
      "ĠMa": 6164,
      "Ġast": 6165,
      "Ġscales": 6166,
      "Ġswirl": 6167,
      "bbly": 6168,
      "ishy": 6169,
      "Ġremoved": 6170,
      "Ġcoloring": 6171,
      "Ġunited": 6172,
      "Ġlistens": 6173,
      "Ġrainco": 6174,
      "Ġrule": 6175,
      "Ġreads": 6176,
      "Ġbuying": 6177,
      "Ġtails": 6178,
      "Ġpatience": 6179,
      "Ġthreat": 6180,
      "Ġgrowl": 6181,
      "Ġmisses": 6182,
      "ĠOut": 6183,
      "Ġcheering": 6184,
      "Ġscratches": 6185,
      "Ġobjects": 6186,
      "Ġribbons": 6187,
      "Ġinclude": 6188,
      "Ġfluttered": 6189,
      "Ġtiptoed": 6190,
      "ĠFollow": 6191,
      "Ġcashier": 6192,
      "Ġdelivery": 6193,
      "Ġraincoat": 6194,
      "go": 6195,
      "jo": 6196,
      "Ġty": 6197,
      "Ġsense": 6198,
      "Ġfaced": 6199,
      "Ġshined": 6200,
      "Ġspong": 6201,
      "?\",": 6202,
      "ĠJon": 6203,
      "Ġnoses": 6204,
      "Ġhomework": 6205,
      "ÅĵMommy": 6206,
      "Ġcolored": 6207,
      "Ġowners": 6208,
      "Ġargu": 6209,
      "itches": 6210,
      "Ġresting": 6211,
      "Ġdarkness": 6212,
      "Ġinterested": 6213,
      "Ġscarves": 6214,
      "izzie": 6215,
      "Ġwandering": 6216,
      "Ġcracked": 6217,
      "Ġshelves": 6218,
      "Ġsandcastles": 6219,
      "Ġrecommended": 6220,
      "ĠJessie": 6221,
      "ĠFroggy": 6222,
      "Ġincrease": 6223,
      "Ġfetch": 6224,
      "Ġwreck": 6225,
      "ĠFriends": 6226,
      "ĠChristmas": 6227,
      "Ġarguing": 6228,
      "pite": 6229,
      "Ġdipped": 6230,
      "Ġgaze": 6231,
      "Ġstem": 6232,
      "Ġstern": 6233,
      "Ġthird": 6234,
      "Ġrising": 6235,
      "Ġbelly": 6236,
      "elia": 6237,
      "icorn": 6238,
      "ĠWendy": 6239,
      "aky": 6240,
      "Ġsnuck": 6241,
      "Ġunicorn": 6242,
      "ĠJohnson": 6243,
      "Ġmuscle": 6244,
      "Ġgrowling": 6245,
      "Ġstarfish": 6246,
      "Ġbuckets": 6247,
      "Ġmarks": 6248,
      "Ġpleasure": 6249,
      "Ġgracefully": 6250,
      "Ġseems": 6251,
      "Ġphotos": 6252,
      "Ġexperi": 6253,
      "Ġhallway": 6254,
      "lowers": 6255,
      "Ġgroceries": 6256,
      "ĠRabbit": 6257,
      "Ġdentist": 6258,
      "Bun": 6259,
      "een": 6260,
      "ossible": 6261,
      "ĠĠĊ": 6262,
      "Ġaud": 6263,
      "ouch": 6264,
      "esome": 6265,
      "Ġrisk": 6266,
      "ĠBoth": 6267,
      "Ġlosing": 6268,
      "Ġcans": 6269,
      "ĠJune": 6270,
      "Ġsomebody": 6271,
      "Ġlearns": 6272,
      "Ġuses": 6273,
      "Ġglitter": 6274,
      "Ġimpossible": 6275,
      "ĠKayla": 6276,
      "ĠFlopsy": 6277,
      "ĠOllie": 6278,
      "Ġpaths": 6279,
      "Ġwipes": 6280,
      "Ġspeaking": 6281,
      "Ġrecording": 6282,
      "Ġsausages": 6283,
      "Ġburst": 6284,
      "Ġradishes": 6285,
      "Ġagrees": 6286,
      "Ġtwinkle": 6287,
      "Ġlungs": 6288,
      "Ġbehavi": 6289,
      "Ġsnowballs": 6290,
      "Ġforgiven": 6291,
      "Ġcalmed": 6292,
      "Ġchuckled": 6293,
      "Ġsponge": 6294,
      "oh": 6295,
      "ps": 6296,
      "reat": 6297,
      "Ġcoral": 6298,
      "ann": 6299,
      "Ġglee": 6300,
      "ĠSmo": 6301,
      "cho": 6302,
      "Ġgoals": 6303,
      "Ġaren": 6304,
      "ĠLinda": 6305,
      "Ġpebbles": 6306,
      "Ġusual": 6307,
      "Ġtexture": 6308,
      "Ġunf": 6309,
      "Ġsticking": 6310,
      "Ġstorekeeper": 6311,
      "Ġpretends": 6312,
      "Ġpointy": 6313,
      "Ġpots": 6314,
      "ĠwouldnÃ¢": 6315,
      "Ġpacking": 6316,
      "Ġforgetting": 6317,
      "Ġactions": 6318,
      "ĠBeing": 6319,
      "Ġweekend": 6320,
      "Ġtickled": 6321,
      "Ġpeeking": 6322,
      "ĠBuzzy": 6323,
      "Ġarrows": 6324,
      "Ġawake": 6325,
      "Ġawesome": 6326,
      "Ġdiscussed": 6327,
      "Ġpurr": 6328,
      "Tweety": 6329,
      "Ġfamilies": 6330,
      "ĠBirdy": 6331,
      "Ġaccomplish": 6332,
      "Ġcautiously": 6333,
      "Alex": 6334,
      "Boo": 6335,
      "Fin": 6336,
      "lay": 6337,
      "Ġlower": 6338,
      "Ġcott": 6339,
      "Ġmer": 6340,
      "Ġinsp": 6341,
      "Ġecho": 6342,
      "ĠcanÃ¢": 6343,
      "Ġbacked": 6344,
      "Ġmane": 6345,
      "Ġstartled": 6346,
      "ĠLuckily": 6347,
      "Ġchip": 6348,
      "Ġjoking": 6349,
      "ĠJacky": 6350,
      "Ġdrawn": 6351,
      "Ġconn": 6352,
      "ĠPo": 6353,
      "oys": 6354,
      "Ġreplaced": 6355,
      "ĠNina": 6356,
      "Ġarr": 6357,
      "Ġdef": 6358,
      "Ġdeal": 6359,
      "Ġparties": 6360,
      "boat": 6361,
      "Ġpatted": 6362,
      "Ġmarked": 6363,
      "Ġsigned": 6364,
      "Ġpotion": 6365,
      "Ġdiving": 6366,
      "Ġreply": 6367,
      "Ġdetermination": 6368,
      "ĠLeave": 6369,
      "Ġvanish": 6370,
      "Ġpumpkins": 6371,
      "Ġblooming": 6372,
      "Ġstomped": 6373,
      "Ġfluttering": 6374,
      "Ġstroked": 6375,
      "Ġhesitant": 6376,
      "Ġrusty": 6377,
      "Unfortunately": 6378,
      "Ġcousin": 6379,
      "aved": 6380,
      "bird": 6381,
      "tuce": 6382,
      "hello": 6383,
      "Ġtangled": 6384,
      "Ġtour": 6385,
      "Ġlined": 6386,
      "Ġmi": 6387,
      "Ġpause": 6388,
      "Ġwasted": 6389,
      "ĠTess": 6390,
      "iding": 6391,
      "Ġnine": 6392,
      "ados": 6393,
      "Ġnect": 6394,
      "Ġreass": 6395,
      "ĠĊĠ": 6396,
      "ĠJudy": 6397,
      "Ġfever": 6398,
      "ĠLarry": 6399,
      "ĠEnjoy": 6400,
      "Ġgrandp": 6401,
      "ĠChe": 6402,
      "Ġlettuce": 6403,
      "ĠPrin": 6404,
      "Ġafterwards": 6405,
      "Ġtowels": 6406,
      "ĠSpark": 6407,
      "Ġyesterday": 6408,
      "Ġsailboat": 6409,
      "uggles": 6410,
      "Ġpassen": 6411,
      "Ġnaps": 6412,
      "Ġneighbours": 6413,
      "Ġpastries": 6414,
      "Ġprotecting": 6415,
      "Ġsplashes": 6416,
      "Ġvalued": 6417,
      "Ġcrabs": 6418,
      "Ġwraps": 6419,
      "ĠSnuggles": 6420,
      "Ġgiraff": 6421,
      "Ġresisted": 6422,
      "Ġavocados": 6423,
      "Ġstroll": 6424,
      "Charlie": 6425,
      "Ġdirections": 6426,
      "Shh": 6427,
      "Quack": 6428,
      "Ġtalented": 6429,
      "Ġpaddled": 6430,
      "Ġbasement": 6431,
      "Ġnectar": 6432,
      "Ġgrandpare": 6433,
      "Ġgiraffes": 6434,
      "Even": 6435,
      "Kate": 6436,
      "Maggie": 6437,
      "Uh": 6438,
      "band": 6439,
      "die": 6440,
      "ĠY": 6441,
      "Ġsib": 6442,
      "ans": 6443,
      "usband": 6444,
      "Ġplayroom": 6445,
      "itted": 6446,
      "ĠJe": 6447,
      "Ġrobb": 6448,
      "Ġwilling": 6449,
      "Ġtramp": 6450,
      "bert": 6451,
      "ĠPut": 6452,
      "ĠGet": 6453,
      "Ġdrawers": 6454,
      "Ġcuts": 6455,
      "Ġelf": 6456,
      "Ġprincesses": 6457,
      "Ġsecure": 6458,
      "ments": 6459,
      "Ġwarri": 6460,
      "ophia": 6461,
      "Ġleaning": 6462,
      "Ġfault": 6463,
      "Ġsquares": 6464,
      "Ġcomplained": 6465,
      "Ġcheeks": 6466,
      "Ġflavor": 6467,
      "Ġsnuggle": 6468,
      "Ġafford": 6469,
      "Ġaudience": 6470,
      "Ġtrampoline": 6471,
      "For": 6472,
      "Katie": 6473,
      "come": 6474,
      "urious": 6475,
      "Ġbars": 6476,
      "Ġlimes": 6477,
      "Ġcause": 6478,
      "Ġdots": 6479,
      "ĠSus": 6480,
      "Ġropes": 6481,
      "Ġbead": 6482,
      "ĠBinky": 6483,
      "ĠMel": 6484,
      "Ġslam": 6485,
      "Ġskill": 6486,
      "iley": 6487,
      "emma": 6488,
      "Ġimportance": 6489,
      "Ġgrassy": 6490,
      "Ġbowls": 6491,
      "Ġmarker": 6492,
      "Ġmiles": 6493,
      "Ġhonked": 6494,
      "Ġscaring": 6495,
      "Ġfolding": 6496,
      "Ġsource": 6497,
      "Ġleading": 6498,
      "ĠZero": 6499,
      "Meow": 6500,
      "Ġperformance": 6501,
      "ĠRobbie": 6502,
      "Ġseconds": 6503,
      "Ġsneaky": 6504,
      "ĠSuzie": 6505,
      "ĠGoodbye": 6506,
      "iki": 6507,
      "Ġtimer": 6508,
      "Ġmixture": 6509,
      "Ġsiblings": 6510,
      "?'": 6511,
      "Bl": 6512,
      "Fine": 6513,
      "Nina": 6514,
      "Whee": 6515,
      "dies": 6516,
      "fl": 6517,
      "sure": 6518,
      "Ġden": 6519,
      "immer": 6520,
      "Ġthorn": 6521,
      "Ġonions": 6522,
      "Ġhissed": 6523,
      "ĠBoun": 6524,
      "Ġneither": 6525,
      "ĠAbbie": 6526,
      "Ġwears": 6527,
      "ĠLuke": 6528,
      "ept": 6529,
      "Ġswept": 6530,
      "ĠPam": 6531,
      "Ġprinting": 6532,
      "Ġmagician": 6533,
      "Ġtallest": 6534,
      "Ġfairies": 6535,
      "Ġchoices": 6536,
      "umbling": 6537,
      "Ġhealth": 6538,
      "hog": 6539,
      "Ġwrapping": 6540,
      "ĠOw": 6541,
      "Ġzookeeper": 6542,
      "Ġcelebrating": 6543,
      "Ġmotion": 6544,
      "Ġtested": 6545,
      "Ġpaying": 6546,
      "Ġindeed": 6547,
      "ivity": 6548,
      "Ġknocks": 6549,
      "Ġhelmets": 6550,
      "Ġtricky": 6551,
      "Ġhedgehog": 6552,
      "ĠUncle": 6553,
      "Ġfamiliar": 6554,
      "Ġtoddler": 6555,
      "ĠPippin": 6556,
      "Dan": 6557,
      "bell": 6558,
      "uzzy": 6559,
      "Ġsank": 6560,
      "Ġwow": 6561,
      "Ġtoss": 6562,
      "Ġhitting": 6563,
      "Ġhusband": 6564,
      "Ġcust": 6565,
      "inger": 6566,
      "llen": 6567,
      "ĠHannah": 6568,
      "idey": 6569,
      "Ġgobbled": 6570,
      "ĠJacob": 6571,
      "step": 6572,
      "Ġleast": 6573,
      "ĠWell": 6574,
      "plash": 6575,
      "ĠFar": 6576,
      "ĠMomo": 6577,
      "Ġteased": 6578,
      "Ġblocking": 6579,
      "Ġtricked": 6580,
      "Ġsnowmen": 6581,
      "Ġhides": 6582,
      "ths": 6583,
      "ĠKeep": 6584,
      "Ġdancers": 6585,
      "Ġpolished": 6586,
      "Ġcorners": 6587,
      "Ġmints": 6588,
      "Ġseeker": 6589,
      "Ġgenie": 6590,
      "Ġfilling": 6591,
      "Ġsquealed": 6592,
      "Ġwishing": 6593,
      "Ġedges": 6594,
      "Ġcushions": 6595,
      "Ġdelivering": 6596,
      "Ġlollipops": 6597,
      "Ġwires": 6598,
      "Ġscrews": 6599,
      "Ġrequested": 6600,
      "Ġseason": 6601,
      "Ġsports": 6602,
      "ĠJessica": 6603,
      "Ġhesitated": 6604,
      "Ġbehaving": 6605,
      "ĠNothing": 6606,
      "ĠAmelia": 6607,
      "Ġchefs": 6608,
      "Ġpuppies": 6609,
      "Leo": 6610,
      "Ġaccomplishment": 6611,
      "Ġwarrior": 6612,
      "Ġcustom": 6613,
      "Milly": 6614,
      "Nemo": 6615,
      "Pe": 6616,
      "Wh": 6617,
      "ded": 6618,
      "fire": 6619,
      "iel": 6620,
      "ippy": 6621,
      "ple": 6622,
      "zes": 6623,
      "Ġbak": 6624,
      "Ġwadd": 6625,
      "ormed": 6626,
      "Ġmarshmallow": 6627,
      "onies": 6628,
      "arling": 6629,
      "ids": 6630,
      "Ġeast": 6631,
      "ades": 6632,
      "Ġnotes": 6633,
      "sequ": 6634,
      "umm": 6635,
      "Ġfeast": 6636,
      "ĠLaura": 6637,
      "ĠLizzie": 6638,
      "Ġyourselves": 6639,
      "Ġdads": 6640,
      "Ġhandful": 6641,
      "Ġstays": 6642,
      "Ġbadge": 6643,
      "Ġconsequ": 6644,
      "Ġcreations": 6645,
      "Ġhandsome": 6646,
      "Ġdarker": 6647,
      "Ġhider": 6648,
      "Ġtalks": 6649,
      "Ġcreativity": 6650,
      "Ġwinked": 6651,
      "Ġkicks": 6652,
      "Ġsalty": 6653,
      "ĠBluey": 6654,
      "Ġborrowed": 6655,
      "Ġincluding": 6656,
      "Ġvideos": 6657,
      "Ġsurroundings": 6658,
      "Ġachieved": 6659,
      "Ġadults": 6660,
      "Ġwidened": 6661,
      "Ġtravelled": 6662,
      "Ġdeserve": 6663,
      "ĠPrincess": 6664,
      "Ducky": 6665,
      "During": 6666,
      "rig": 6667,
      "vest": 6668,
      "Ġtuck": 6669,
      "int": 6670,
      "Ġmes": 6671,
      "Ġponies": 6672,
      "ĠTara": 6673,
      "oni": 6674,
      "aty": 6675,
      "cky": 6676,
      "Ġrus": 6677,
      "Ġscient": 6678,
      "Ġflight": 6679,
      "Ġeverybody": 6680,
      "iona": 6681,
      "Ġwobble": 6682,
      "Ġwindy": 6683,
      "Ġremembering": 6684,
      "ĠNick": 6685,
      "ction": 6686,
      "Ġamount": 6687,
      "Ġbeloved": 6688,
      "uggy": 6689,
      "Ġplans": 6690,
      "Ġhopeful": 6691,
      "Toby": 6692,
      "Ġcandies": 6693,
      "ĠZoomy": 6694,
      "Ġforks": 6695,
      "ĠPepper": 6696,
      "ÅĵWhatÃ¢": 6697,
      "Ġbreathed": 6698,
      "ably": 6699,
      "Ġsewed": 6700,
      "Ġresults": 6701,
      "Ġbeginning": 6702,
      "Ġ10": 6703,
      "Ġgeese": 6704,
      "Ġmaterials": 6705,
      "Ġscraped": 6706,
      "Ġconcert": 6707,
      "Ġpouted": 6708,
      "Ġmarshmallows": 6709,
      "Ġmesmer": 6710,
      "Ġscientist": 6711,
      "pit": 6712,
      "wk": 6713,
      "Ġtig": 6714,
      "Ġdarling": 6715,
      "ĠTwo": 6716,
      "Ġhawk": 6717,
      "Ġstitches": 6718,
      "Ġrings": 6719,
      "Ġrip": 6720,
      "adie": 6721,
      "Ġplayers": 6722,
      "Ġplaytime": 6723,
      "Ġkites": 6724,
      "Ġsever": 6725,
      "Ġseals": 6726,
      "ĠJay": 6727,
      "Ġnoon": 6728,
      "ickey": 6729,
      "Ġfears": 6730,
      "Ġbru": 6731,
      "Ġworn": 6732,
      "iece": 6733,
      "ĠLena": 6734,
      "Ġtreehouse": 6735,
      "Ġcloses": 6736,
      "ÅĵMy": 6737,
      "obody": 6738,
      "Ġrocking": 6739,
      "ĠPandy": 6740,
      "Ġache": 6741,
      "Ġunsure": 6742,
      "ĠSpidey": 6743,
      "Ġruining": 6744,
      "Ġsquishy": 6745,
      "Ġsteer": 6746,
      "Ġnapkins": 6747,
      "brush": 6748,
      "Ġrespond": 6749,
      "weed": 6750,
      "Ġswans": 6751,
      "Ġjackets": 6752,
      "Ġrepaired": 6753,
      "Ġmushrooms": 6754,
      "Ġsurrendered": 6755,
      "Ġrewarded": 6756,
      "Ġwiggle": 6757,
      "Ġinstrum": 6758,
      "Ġwarnings": 6759,
      "Roar": 6760,
      "Maria": 6761,
      "ĠGranny": 6762,
      "Ġmerma": 6763,
      "Ġechoed": 6764,
      "Ġbeads": 6765,
      "Ġbakery": 6766,
      "Ġconsequences": 6767,
      "Ġtigers": 6768,
      "Bad": 6769,
      "Danny": 6770,
      "Miss": 6771,
      "ky": 6772,
      "lves": 6773,
      "Ġtiss": 6774,
      "Ġsy": 6775,
      "Ġdie": 6776,
      "arrow": 6777,
      "Ġthud": 6778,
      "Ġocc": 6779,
      "ley": 6780,
      "choo": 6781,
      "ĠMaddy": 6782,
      "rac": 6783,
      "Ġchop": 6784,
      "Ġvines": 6785,
      "retty": 6786,
      "Ġslices": 6787,
      "Ġgrabbing": 6788,
      "ĠEverybody": 6789,
      "ĠCra": 6790,
      "Those": 6791,
      "Ġteles": 6792,
      "ÅĵDo": 6793,
      "ĠAsh": 6794,
      "Ġfroze": 6795,
      "Ġsailors": 6796,
      "Ġattack": 6797,
      "Ġseaweed": 6798,
      "ĠThanks": 6799,
      "Ġmatters": 6800,
      "ĠStay": 6801,
      "Ġpans": 6802,
      "Ġpresses": 6803,
      "Ġlogs": 6804,
      "ÅĵYouÃ¢": 6805,
      "ĠFrog": 6806,
      "Ġtelescope": 6807,
      "An": 6808,
      "By": 6809,
      "Harry": 6810,
      "Run": 6811,
      "Some": 6812,
      "Tr": 6813,
      "eedy": 6814,
      "ners": 6815,
      "tle": 6816,
      "Ġwins": 6817,
      "Ġbully": 6818,
      "Ġhour": 6819,
      "Ġfail": 6820,
      "Ġmerry": 6821,
      "Ġstool": 6822,
      "Ġoh": 6823,
      "ashes": 6824,
      "Ġonward": 6825,
      "rip": 6826,
      "ntil": 6827,
      "ĠMouse": 6828,
      "ongo": 6829,
      "Ġcond": 6830,
      "ĠListen": 6831,
      "Ġblast": 6832,
      "Ġposter": 6833,
      "Ġposit": 6834,
      "Ġtwin": 6835,
      "Ġuntie": 6836,
      "ÅĵMom": 6837,
      "Ġdollars": 6838,
      "ĠRalph": 6839,
      "Ġbehaved": 6840,
      "Ġslower": 6841,
      "Ġtablet": 6842,
      "ĠTodd": 6843,
      "Ġrivers": 6844,
      "Ġbeeh": 6845,
      "Ġintrig": 6846,
      "Ġfeeding": 6847,
      "Ġdrums": 6848,
      "Ġtunnels": 6849,
      "Ġrefle": 6850,
      "years": 6851,
      "Ġzipping": 6852,
      "Ġcampfire": 6853,
      "Ġenthusiasm": 6854,
      "Ġpoems": 6855,
      "Ġcomplaining": 6856,
      "Ġcobwebs": 6857,
      "ĠFox": 6858,
      "Ġguests": 6859,
      "Ġheavier": 6860,
      "Ġarranged": 6861,
      "Ġpassengers": 6862,
      "Fo": 6863,
      "Have": 6864,
      "Jul": 6865,
      "Lilly": 6866,
      "Tina": 6867,
      "aven": 6868,
      "bro": 6869,
      "cl": 6870,
      "eal": 6871,
      "no": 6872,
      "tier": 6873,
      "Ġtil": 6874,
      "eds": 6875,
      "ition": 6876,
      "Ġcor": 6877,
      "atur": 6878,
      "ĠSque": 6879,
      "Ġopp": 6880,
      "Ġshoo": 6881,
      "rie": 6882,
      "ĠBaa": 6883,
      "child": 6884,
      "ĠMabel": 6885,
      "str": 6886,
      "stick": 6887,
      "Ġbackwards": 6888,
      "Ġmeals": 6889,
      "Ġage": 6890,
      "Ġflips": 6891,
      "Ġswords": 6892,
      "ĠFuzzy": 6893,
      "Ġpecked": 6894,
      "Ġtwenty": 6895,
      "Ġprettier": 6896,
      "ĠJojo": 6897,
      "Ġcheers": 6898,
      "Ġunw": 6899,
      "ĠGary": 6900,
      "athan": 6901,
      "Ġcouple": 6902,
      "Ġdropping": 6903,
      "Ġsteady": 6904,
      "Ġbows": 6905,
      "Ġsnowfl": 6906,
      "ĠEmmy": 6907,
      "Ġgrowls": 6908,
      "Ġplanning": 6909,
      "Ġbaskets": 6910,
      "Ġexpress": 6911,
      "Ġshrinking": 6912,
      "Ġwiping": 6913,
      "Ġpolitely": 6914,
      "Ġfills": 6915,
      "Ġsneezing": 6916,
      "Ġbatteries": 6917,
      "Ġgrandchild": 6918,
      "Ġsurfboard": 6919,
      "Ġawo": 6920,
      "ĠRobert": 6921,
      "ronaut": 6922,
      "Ġartist": 6923,
      "Ġprovided": 6924,
      "Ġsuffered": 6925,
      "Ġwhispering": 6926,
      "ĠAbi": 6927,
      "enced": 6928,
      "ĠJulia": 6929,
      "Ġfirefighter": 6930,
      "Ġastronaut": 6931,
      "Ġrushing": 6932,
      "Ġseveral": 6933,
      "Ġmermaid": 6934,
      "Ġbeehive": 6935,
      "Adam": 6936,
      "Bunny": 6937,
      "Ew": 6938,
      "Ellie": 6939,
      "Jerry": 6940,
      "Time": 6941,
      "rup": 6942,
      "yan": 6943,
      "Ġtying": 6944,
      "Ġaimed": 6945,
      "inite": 6946,
      "Ġdaring": 6947,
      "ility": 6948,
      "Ġgross": 6949,
      "ĠSorry": 6950,
      "imon": 6951,
      "ĠBessie": 6952,
      "allowed": 6953,
      "Ġreason": 6954,
      "Ġspices": 6955,
      "Ġhelpers": 6956,
      "ĠJan": 6957,
      "Ġleap": 6958,
      "Ġnodd": 6959,
      "Ġroars": 6960,
      "ĠLou": 6961,
      "Ġswallowed": 6962,
      "ĠEls": 6963,
      "Ġpeck": 6964,
      "Ġhanding": 6965,
      "Ġtwice": 6966,
      "Ġexplo": 6967,
      "Ġglued": 6968,
      "Ġfinal": 6969,
      "Ġstrongest": 6970,
      "ĠRemember": 6971,
      "Ġbelts": 6972,
      "Ġfoxes": 6973,
      "ĠwonÃ¢": 6974,
      "Ġbaths": 6975,
      "Ġlifting": 6976,
      "Ġcowb": 6977,
      "Ġspoonful": 6978,
      "Ġrecipe": 6979,
      "ĠWithout": 6980,
      "Ġspreading": 6981,
      "Ġclearly": 6982,
      "Ġcrossing": 6983,
      "Ġvanilla": 6984,
      "Ġexamining": 6985,
      "Ġpraying": 6986,
      "ĠZip": 6987,
      "Ġperforming": 6988,
      "Ġsymbols": 6989,
      "Ġneatly": 6990,
      "Ġpedaled": 6991,
      "Ġsuperheroes": 6992,
      "Ġyielded": 6993,
      "Ġlicking": 6994,
      "ĠOlive": 6995,
      "Ġtravelling": 6996,
      "Ġcupcakes": 6997,
      "ĠFarmer": 6998,
      "Ġsyrup": 6999,
      "--": 7000,
      "Bet": 7001,
      "Car": 7002,
      "Claire": 7003,
      "Like": 7004,
      "May": 7005,
      "Yummy": 7006,
      "baby": 7007,
      "eel": 7008,
      "ibbit": 7009,
      "mered": 7010,
      "nger": 7011,
      "oss": 7012,
      "yes": 7013,
      "ĠQuick": 7014,
      "Ġtouc": 7015,
      "Ġmunch": 7016,
      "Ġpours": 7017,
      "Ġsale": 7018,
      "ĠSun": 7019,
      "ĠSplash": 7020,
      "utter": 7021,
      "Ġbeam": 7022,
      "Ġplucked": 7023,
      "Ġyounger": 7024,
      "ĠBo": 7025,
      "ĠBuggy": 7026,
      "ĠBongo": 7027,
      "Ġdod": 7028,
      "ĠAbby": 7029,
      "Ġspikes": 7030,
      "Ġexcept": 7031,
      "icia": 7032,
      "aret": 7033,
      "icked": 7034,
      "Ġflapping": 7035,
      "ĠFiona": 7036,
      "Ġslither": 7037,
      "Ġquilt": 7038,
      "Ġwobbly": 7039,
      "ÅĵNow": 7040,
      "Ġacting": 7041,
      "Ġheading": 7042,
      "Ġwarmly": 7043,
      "Ġdances": 7044,
      "ude": 7045,
      "Ġpeacefully": 7046,
      "Ġdived": 7047,
      "Ġaction": 7048,
      "Ġshirts": 7049,
      "Ġnervously": 7050,
      "Ġleads": 7051,
      "Ġaddress": 7052,
      "Ġgems": 7053,
      "Ġdesigned": 7054,
      "Ġoysters": 7055,
      "Ġinsisting": 7056,
      "Ġseparated": 7057,
      "Ġbuzzed": 7058,
      "Ġswimsuit": 7059,
      "Frank": 7060,
      "Ġexperienced": 7061,
      "Ġbehavior": 7062,
      "Ġdefinite": 7063,
      "Ġgrandparents": 7064,
      "Ġintrigued": 7065,
      "broken": 7066,
      "Ġdefinitely": 7067,
      "Great": 7068,
      "Rachel": 7069,
      "Sadly": 7070,
      "Woof": 7071,
      "abby": 7072,
      "cter": 7073,
      "uing": 7074,
      "Ġ2": 7075,
      "Ġties": 7076,
      "itude": 7077,
      "Ġdet": 7078,
      "Ġnood": 7079,
      "Ġnibb": 7080,
      "Ġstain": 7081,
      "Ġstung": 7082,
      "ĠHoot": 7083,
      "Ġshown": 7084,
      "Ġearn": 7085,
      "river": 7086,
      "ĠMon": 7087,
      "ĠMira": 7088,
      "Ġscen": 7089,
      "Ġflown": 7090,
      "Ġposs": 7091,
      "Ġthoughts": 7092,
      "anging": 7093,
      "Ġsnort": 7094,
      "Ġbraver": 7095,
      "ÅĵWow": 7096,
      "ÅĵHi": 7097,
      "Ġfinishing": 7098,
      "ĠPr": 7099,
      "ĠSpeedy": 7100,
      "Ġdresser": 7101,
      "Ġcuriously": 7102,
      "Ġbiting": 7103,
      "Ġcolder": 7104,
      "Ġelbow": 7105,
      "Ġplanting": 7106,
      "Ġprove": 7107,
      "Ġcausing": 7108,
      "Ġlifts": 7109,
      "ĠOur": 7110,
      "Ġhoriz": 7111,
      "Ġpops": 7112,
      "ĠAli": 7113,
      "ĠAlison": 7114,
      "Ġ''": 7115,
      "ĠStan": 7116,
      "Ġdiamonds": 7117,
      "Ġgrandbaby": 7118,
      "Ġpostman": 7119,
      "ĠDavey": 7120,
      "Ġloops": 7121,
      "Ġgreeted": 7122,
      "Ġcommun": 7123,
      "Ġencouraging": 7124,
      "Ġcenter": 7125,
      "Ġgranted": 7126,
      "Ġrisks": 7127,
      "laying": 7128,
      "ĠSparky": 7129,
      "Blue": 7130,
      "Ġtissue": 7131,
      "Ġoccas": 7132,
      "Ġawoke": 7133,
      "Ġtouches": 7134,
      "Baby": 7135,
      "Maddy": 7136,
      "Our": 7137,
      "fall": 7138,
      "hind": 7139,
      "munk": 7140,
      "mates": 7141,
      "yond": 7142,
      "ĊĊ": 7143,
      "Ġtar": 7144,
      "Ġbaker": 7145,
      "Ġfaded": 7146,
      "ori": 7147,
      "ĠTake": 7148,
      "onse": 7149,
      "Ġgest": 7150,
      "ido": 7151,
      "ĠSw": 7152,
      "ooking": 7153,
      "Ġease": 7154,
      "Ġbeyond": 7155,
      "Ġplain": 7156,
      "Ġsofter": 7157,
      "ĠMart": 7158,
      "ĠMickey": 7159,
      "Ġbodies": 7160,
      "Ġspook": 7161,
      "Ġspins": 7162,
      "ĠWally": 7163,
      "Ġcosy": 7164,
      "Ġprob": 7165,
      "Ġchara": 7166,
      "Ġchos": 7167,
      "Ġpose": 7168,
      "inkled": 7169,
      "Ġwatering": 7170,
      "Ġovercome": 7171,
      "Ġglitt": 7172,
      "Ġwobbled": 7173,
      "Ġnearly": 7174,
      "ĠNora": 7175,
      "Ġsweetest": 7176,
      "Ġperformed": 7177,
      "Ġlighter": 7178,
      "Ġtables": 7179,
      "Ġsails": 7180,
      "Ġjoyful": 7181,
      "Ġheartbroken": 7182,
      "Ġforgets": 7183,
      "Ġresponse": 7184,
      "Ġimagining": 7185,
      "action": 7186,
      "Ġantic": 7187,
      "ĠAlthough": 7188,
      "ĠBecky": 7189,
      "ĠZara": 7190,
      "screen": 7191,
      "Ġgrandson": 7192,
      "Ġsniffs": 7193,
      "Ġsuits": 7194,
      "...\"": 7195,
      "Ġappreciated": 7196,
      "Ġdiscussing": 7197,
      "Ġdelayed": 7198,
      "ibly": 7199,
      "Ġsprinkled": 7200,
      "Ġemerged": 7201,
      "Ġsuffering": 7202,
      "Ġincreased": 7203,
      "Ġrustling": 7204,
      "ĠBirthday": 7205,
      "Ġpuppet": 7206,
      "Ġdamage": 7207,
      "Ġfreedom": 7208,
      "Ġforgiveness": 7209,
      "Ġconnected": 7210,
      "ĠSusan": 7211,
      "Ġslammed": 7212,
      "Ġthorns": 7213,
      "Ġwaddled": 7214,
      "ĠCrabby": 7215,
      "Follow": 7216,
      "Ġhorizon": 7217,
      "Ġspooky": 7218,
      "Ġprobably": 7219,
      "Ġcharacter": 7220,
      "Ġchosen": 7221,
      "Br": 7222,
      "Buddy": 7223,
      "Hannah": 7224,
      "Listen": 7225,
      "Rob": 7226,
      "ae": 7227,
      "but": 7228,
      "ces": 7229,
      "cused": 7230,
      "father": 7231,
      "sm": 7232,
      "the": 7233,
      "va": 7234,
      "while": 7235,
      "Ġting": 7236,
      "Ġais": 7237,
      "Ġbamb": 7238,
      "order": 7239,
      "Ġma": 7240,
      "atul": 7241,
      "Ġsadd": 7242,
      "ĠSophia": 7243,
      "oto": 7244,
      "Ġraces": 7245,
      "Ġev": 7246,
      "Ġdoves": 7247,
      "Ġkings": 7248,
      "ĠAny": 7249,
      "Ġknots": 7250,
      "Ġscamp": 7251,
      "Ġscored": 7252,
      "Ġroses": 7253,
      "Ġcoach": 7254,
      "Ġchanges": 7255,
      "aste": 7256,
      "ĠDr": 7257,
      "Ġsunscreen": 7258,
      "Ġfocused": 7259,
      "bee": 7260,
      "ÅĵOkay": 7261,
      "ÅĵOf": 7262,
      "ÅĵWell": 7263,
      "Ġcrew": 7264,
      "Ġthrown": 7265,
      "ĠNana": 7266,
      "ĠNobody": 7267,
      "Ġdressing": 7268,
      "Ġdefe": 7269,
      "ĠJaney": 7270,
      "Ġthroughout": 7271,
      "Ġvisitor": 7272,
      "Ġjobs": 7273,
      "Ġchopped": 7274,
      "Ġstands": 7275,
      "Ġdrivers": 7276,
      "Ġhonking": 7277,
      "Ġignoring": 7278,
      "ĠAlong": 7279,
      "Ġcalmly": 7280,
      "ĠStar": 7281,
      "ĠFreddie": 7282,
      "Ġsweep": 7283,
      "Ġpreparing": 7284,
      "ĠSnap": 7285,
      "ĠUnder": 7286,
      "ĠUntil": 7287,
      "ĠPeep": 7288,
      "Ġlipstick": 7289,
      "Ġlanguages": 7290,
      "Ġconfl": 7291,
      "Ġquarreling": 7292,
      "ĠPatty": 7293,
      "Chloe": 7294,
      "Ġrefreshing": 7295,
      "Ġrepeats": 7296,
      "Ġefforts": 7297,
      "Ġaccomplished": 7298,
      "Ġgears": 7299,
      "Ġcupcake": 7300,
      "Ġannoyed": 7301,
      "Ġmesmerized": 7302,
      "Ġresponded": 7303,
      "Ġsnowflakes": 7304,
      "eeling": 7305,
      "Ġnoodles": 7306,
      "Ġbamboo": 7307,
      "Ġscampered": 7308,
      "Back": 7309,
      "Bill": 7310,
      "Oops": 7311,
      "dress": 7312,
      "ew": 7313,
      "ebr": 7314,
      "gain": 7315,
      "now": 7316,
      "prin": 7317,
      "sie": 7318,
      "wise": 7319,
      "Ġwag": 7320,
      "Ġdot": 7321,
      "Ġheight": 7322,
      "anwhile": 7323,
      "iles": 7324,
      "Ġsav": 7325,
      "espite": 7326,
      "Ġshady": 7327,
      "oosh": 7328,
      "Ġramp": 7329,
      "Ġrott": 7330,
      "unched": 7331,
      "lyn": 7332,
      "ĠMan": 7333,
      "Ġaside": 7334,
      "ĠAunt": 7335,
      "Ġspills": 7336,
      "romise": 7337,
      "Ġscores": 7338,
      "Ġali": 7339,
      "Ġmanag": 7340,
      "ĠWin": 7341,
      "Ġflipped": 7342,
      "Ġchanging": 7343,
      "usty": 7344,
      "quirrel": 7345,
      "ĠFire": 7346,
      "Ġsmallest": 7347,
      "Ġbeautif": 7348,
      "ÅĵCome": 7349,
      "Ġconqu": 7350,
      "Ġconvers": 7351,
      "Ġconvin": 7352,
      "ĠGemma": 7353,
      "ĠGinger": 7354,
      "ĠRyan": 7355,
      "Ġwrigg": 7356,
      "Ġpuff": 7357,
      "Ġcounts": 7358,
      "Ġzebr": 7359,
      "Ġhairdress": 7360,
      "spe": 7361,
      "Ġcompared": 7362,
      "Ġcloudy": 7363,
      "ĠFlora": 7364,
      "ounced": 7365,
      "Ġdesper": 7366,
      "Ġmailed": 7367,
      "Ġrobots": 7368,
      "Ġrecorder": 7369,
      "Ġnecklaces": 7370,
      "Ġbanged": 7371,
      "Ġwhispers": 7372,
      "Ġprayers": 7373,
      "illiam": 7374,
      "Ġangels": 7375,
      "Ġerase": 7376,
      "Ġsuggestion": 7377,
      "Ġtwisty": 7378,
      "Ġstreamers": 7379,
      "Ġcombed": 7380,
      "Ġpigeons": 7381,
      "ĠFinn": 7382,
      "Ġnovels": 7383,
      "Ġburying": 7384,
      "Ġadmiration": 7385,
      "Ġexplorer": 7386,
      "Ġsewing": 7387,
      "Tweetie": 7388,
      "Ġtrembled": 7389,
      "ĠDaniel": 7390,
      "Ġflavors": 7391,
      "Ġwider": 7392,
      "Ġseashells": 7393,
      "Ġreassured": 7394,
      "Ġrobber": 7395,
      "immering": 7396,
      "steps": 7397,
      "Ġrotten": 7398,
      "Ġzebras": 7399,
      "Ġhairdresser": 7400,
      "Ab": 7401,
      "Am": 7402,
      "Jamie": 7403,
      "Out": 7404,
      "Tilly": 7405,
      "Very": 7406,
      "ael": 7407,
      "belt": 7408,
      "driver": 7409,
      "found": 7410,
      "oc": 7411,
      "ollen": 7412,
      "piece": 7413,
      "ratul": 7414,
      "ĠQuack": 7415,
      "Ġtipped": 7416,
      "Ġaim": 7417,
      "itched": 7418,
      "Ġcoug": 7419,
      "Ġdep": 7420,
      "Ġheaven": 7421,
      "Ġpound": 7422,
      "ĠToto": 7423,
      "idence": 7424,
      "atty": 7425,
      "Ġnapping": 7426,
      "ĠSquirrel": 7427,
      "Ġstumble": 7428,
      "ĠHallow": 7429,
      "Ġinj": 7430,
      "Ġwithin": 7431,
      "rier": 7432,
      "Ġsoot": 7433,
      "Ġsoaking": 7434,
      "elie": 7435,
      "ĠMag": 7436,
      "Ġloc": 7437,
      "storm": 7438,
      "Ġclue": 7439,
      "Ġmemb": 7440,
      "ongratul": 7441,
      "Ġtreated": 7442,
      "Ġflip": 7443,
      "ĠLove": 7444,
      "Ġcharge": 7445,
      "Ġswollen": 7446,
      "Ġposes": 7447,
      "Ġtrot": 7448,
      "Ġsled": 7449,
      "Ġfond": 7450,
      "acing": 7451,
      "Ġbravest": 7452,
      "Ġremote": 7453,
      "Ġfins": 7454,
      "ipes": 7455,
      "ipation": 7456,
      "issa": 7457,
      "Ġbluebird": 7458,
      "Ġrainy": 7459,
      "Ġappl": 7460,
      "Ġwrinkled": 7461,
      "Ġamong": 7462,
      "Ġblocked": 7463,
      "Ġfires": 7464,
      "ĠDog": 7465,
      "Ġsmelling": 7466,
      "Ġhearing": 7467,
      "Ġunderstands": 7468,
      "ichael": 7469,
      "Ġjoining": 7470,
      "Ġwelcoming": 7471,
      "Ġvegg": 7472,
      "Ġbelongings": 7473,
      "Ġdesigning": 7474,
      "balls": 7475,
      "Ġfits": 7476,
      "Ġfootsteps": 7477,
      "Steve": 7478,
      "Ġseatbelt": 7479,
      "Ġbells": 7480,
      "Ġsoapy": 7481,
      "Ġdigs": 7482,
      "Ġcrawls": 7483,
      "Ġheroes": 7484,
      "Ġtwisting": 7485,
      "attered": 7486,
      "Ġgrandfather": 7487,
      "Ġsending": 7488,
      "Ġsurfing": 7489,
      "ĠUp": 7490,
      "Ġfilms": 7491,
      "ĠMikey": 7492,
      "ĠRoger": 7493,
      "Ġscrewdriver": 7494,
      "Ġrotting": 7495,
      "Ġwiggly": 7496,
      "ĠVroom": 7497,
      "Ġcubes": 7498,
      "Ġpupils": 7499,
      "Ġdamaged": 7500,
      "Ġtype": 7501,
      "ĠSmokey": 7502,
      "Ġtarget": 7503,
      "Ġevil": 7504,
      "Ġbeautifully": 7505,
      "ĠHalloween": 7506,
      "Ġmembers": 7507,
      "Any": 7508,
      "Beth": 7509,
      "Cindy": 7510,
      "Kim": 7511,
      "bage": 7512,
      "ears": 7513,
      "pen": 7514,
      "uppy": 7515,
      "vas": 7516,
      "ĠQ": 7517,
      "Ġtoaster": 7518,
      "Ġlent": 7519,
      "Ġdarl": 7520,
      "Ġdangers": 7521,
      "ĠSal": 7522,
      "ĠSleep": 7523,
      "Ġstall": 7524,
      "lec": 7525,
      "ighing": 7526,
      "Ġund": 7527,
      "ading": 7528,
      "ĠthatÃ¢": 7529,
      "ĠBee": 7530,
      "Ġshorter": 7531,
      "ugs": 7532,
      "Ġjugg": 7533,
      "ddie": 7534,
      "Ġwhose": 7535,
      "Ġwhoever": 7536,
      "Ġthanking": 7537,
      "uddles": 7538,
      "ĠDin": 7539,
      "andas": 7540,
      "acy": 7541,
      "ĠCurious": 7542,
      "Ġgardener": 7543,
      "Ġdollhouse": 7544,
      "ĠPuppy": 7545,
      "Ġcrashing": 7546,
      "ĠRiley": 7547,
      "Ġwarmer": 7548,
      "ĠThose": 7549,
      "Ġsandpit": 7550,
      "Ġpromises": 7551,
      "ĠThatÃ¢": 7552,
      "Ġpennies": 7553,
      "meal": 7554,
      "Ġpuzzled": 7555,
      "Ġrespected": 7556,
      "Ġdriveway": 7557,
      "Ġpicnics": 7558,
      "ertain": 7559,
      "Ġtidied": 7560,
      "Ġreminding": 7561,
      "Ġgarbage": 7562,
      "Ġsunflowers": 7563,
      "Ġfigures": 7564,
      "Ġfrowning": 7565,
      "Ġcrowns": 7566,
      "Always": 7567,
      "Ġcuddly": 7568,
      "Ġgrandd": 7569,
      "Ġsniffing": 7570,
      "Ġenviron": 7571,
      "ĠPaula": 7572,
      "Ġoatmeal": 7573,
      "Ġtaped": 7574,
      "Ġbreathing": 7575,
      "Ġexercises": 7576,
      "Ġconfidence": 7577,
      "Ġpassports": 7578,
      "Ġfirefly": 7579,
      "Ġminerals": 7580,
      "Ġpunishment": 7581,
      "Ġmeowing": 7582,
      "Ġfirmly": 7583,
      "annon": 7584,
      "Ġinstruments": 7585,
      "Ġanticipation": 7586,
      "Ġveggies": 7587,
      "Ġdarlings": 7588,
      "Ġenvironment": 7589,
      "Buzz": 7590,
      "Mabel": 7591,
      "Ru": 7592,
      "Ralph": 7593,
      "Su": 7594,
      "bec": 7595,
      "io": 7596,
      "upt": 7597,
      "vant": 7598,
      "whe": 7599,
      "Ġtumbled": 7600,
      "Ġwoof": 7601,
      "Ġbou": 7602,
      "Ġbless": 7603,
      "Ġfant": 7604,
      "Ġlas": 7605,
      "Ġpandas": 7606,
      "iment": 7607,
      "ĠHar": 7608,
      "ĠHolly": 7609,
      "Ġrather": 7610,
      "ĠIm": 7611,
      "elve": 7612,
      "ĠBri": 7613,
      "ently": 7614,
      "Ġreun": 7615,
      "ĠMad": 7616,
      "Ġspat": 7617,
      "Ġexch": 7618,
      "Ġcanvas": 7619,
      "ĠJazz": 7620,
      "Ġclues": 7621,
      "Ġweeds": 7622,
      "Ġnewfound": 7623,
      "Ġgoodies": 7624,
      "Ġflick": 7625,
      "Ġblond": 7626,
      "Ġcares": 7627,
      "ĠDory": 7628,
      "ĠFido": 7629,
      "Ġfocus": 7630,
      "acles": 7631,
      "ÅĵHey": 7632,
      "Ġcleaner": 7633,
      "Ġstopping": 7634,
      "Ġtoward": 7635,
      "Ġnights": 7636,
      "Ġworrying": 7637,
      "Ġfloors": 7638,
      "Ġmovements": 7639,
      "ĠKelly": 7640,
      "ĠKaren": 7641,
      "Ġpetting": 7642,
      "Ġtownspe": 7643,
      "earl": 7644,
      "Ġbandages": 7645,
      "Ġcaw": 7646,
      "Ġpurpose": 7647,
      "Ġstreets": 7648,
      "Ġcomforting": 7649,
      "Ġimaginary": 7650,
      "Ġsolving": 7651,
      "ĠBruce": 7652,
      "Ġpizzas": 7653,
      "Ġclassmates": 7654,
      "Ġhamster": 7655,
      "Ġguessing": 7656,
      "ivia": 7657,
      "Ġknocking": 7658,
      "Ġmeatballs": 7659,
      "Ġdisplayed": 7660,
      "Ġstroke": 7661,
      "Ġsnaps": 7662,
      "Ġinsects": 7663,
      "ĠMeg": 7664,
      "ĠRobin": 7665,
      "Ġmaterial": 7666,
      "Ġswayed": 7667,
      "Ġannoying": 7668,
      "Clara": 7669,
      "Ġcotton": 7670,
      "Ġinspired": 7671,
      "Ġchipmunk": 7672,
      "ĠJeff": 7673,
      "Ġtilted": 7674,
      "Ġunwra": 7675,
      "Ġnodding": 7676,
      "Ġconvinced": 7677,
      "Ġbouqu": 7678,
      "Ġfantastic": 7679,
      "Ġtownspeople": 7680,
      "Co": 7681,
      "Dear": 7682,
      "Honey": 7683,
      "Karen": 7684,
      "Mira": 7685,
      "Surpr": 7686,
      "Since": 7687,
      "Too": 7688,
      "form": 7689,
      "rily": 7690,
      "xophone": 7691,
      "ĠX": 7692,
      "Ġsens": 7693,
      "Ġsigning": 7694,
      "Ġtor": 7695,
      "inted": 7696,
      "its": 7697,
      "Ġhoo": 7698,
      "erm": 7699,
      "Ġdump": 7700,
      "Ġpens": 7701,
      "ĠTaking": 7702,
      "anes": 7703,
      "Ġgall": 7704,
      "Ġgerm": 7705,
      "Ġni": 7706,
      "Ġnuzz": 7707,
      "Ġsaxophone": 7708,
      "ĠSc": 7709,
      "ĠSay": 7710,
      "ĠSimon": 7711,
      "ĠHope": 7712,
      "Ġshall": 7713,
      "Ġrout": 7714,
      "ĠBecause": 7715,
      "ĠMila": 7716,
      "Ġanger": 7717,
      "Ġspy": 7718,
      "ulars": 7719,
      "Ġknit": 7720,
      "ĠYouÃ¢": 7721,
      "Ġprank": 7722,
      "Ġchin": 7723,
      "Ġdecl": 7724,
      "ueen": 7725,
      "aps": 7726,
      "bbling": 7727,
      "Ġtrans": 7728,
      "Ġwaters": 7729,
      "Ġtweet": 7730,
      "avi": 7731,
      "Ġstrum": 7732,
      "Ġsnapping": 7733,
      "Ġcleared": 7734,
      "Ġuntied": 7735,
      "Ġends": 7736,
      "Ġgardens": 7737,
      "Ġclosing": 7738,
      "ÅĵSee": 7739,
      "Whenever": 7740,
      "Ġsurprising": 7741,
      "Ġdoorway": 7742,
      "ĠRain": 7743,
      "Ġdrown": 7744,
      "Ġtasting": 7745,
      "Ġcraft": 7746,
      "ĠJennie": 7747,
      "ĠGrand": 7748,
      "ugging": 7749,
      "Ġbelieving": 7750,
      "Ġhealing": 7751,
      "ordinary": 7752,
      "Ġshops": 7753,
      "Ġfootprin": 7754,
      "Ġlaying": 7755,
      "Ġshrunk": 7756,
      "Ġtrusting": 7757,
      "Ġpleaded": 7758,
      "Ġtidying": 7759,
      "ĠStart": 7760,
      "artha": 7761,
      "Ġadds": 7762,
      "Ġcovering": 7763,
      "Ġmagnif": 7764,
      "Ġcamel": 7765,
      "Ġhunting": 7766,
      "Ġrats": 7767,
      "Ġrefuse": 7768,
      "Ġextraordinary": 7769,
      "Ġcroaked": 7770,
      "Remy": 7771,
      "rnie": 7772,
      "Ġpermitted": 7773,
      "Ġspells": 7774,
      "Ġbinoc": 7775,
      "Ġtearing": 7776,
      "Ġstacked": 7777,
      "Ġlending": 7778,
      "Ġtwinkled": 7779,
      "Ġstudents": 7780,
      "Ġproper": 7781,
      "Ġsimply": 7782,
      "Ġspits": 7783,
      "Ġobeyed": 7784,
      "Ġforgiving": 7785,
      "Ġtemptation": 7786,
      "rrr": 7787,
      "Ġsternly": 7788,
      "Ġtextures": 7789,
      "Ġbruises": 7790,
      "Ġconduct": 7791,
      "Ġreflection": 7792,
      "ĠElsa": 7793,
      "Betty": 7794,
      "Ġmunching": 7795,
      "Ġoccasion": 7796,
      "Ġgesture": 7797,
      "Ġtrotted": 7798,
      "Ġbouquet": 7799,
      "Ġbinoculars": 7800,
      "?!\"": 7801,
      "Jess": 7802,
      "Santa": 7803,
      "Take": 7804,
      "Tony": 7805,
      "Watch": 7806,
      "bank": 7807,
      "cent": 7808,
      "cher": 7809,
      "emy": 7810,
      "jack": 7811,
      "ouched": 7812,
      "Ġcertain": 7813,
      "Ġmoo": 7814,
      "ili": 7815,
      "iled": 7816,
      "ider": 7817,
      "ening": 7818,
      "Ġnatur": 7819,
      "ĠSk": 7820,
      "ĠSuper": 7821,
      "Ġshallow": 7822,
      "Ġrowed": 7823,
      "Ġbeating": 7824,
      "anted": 7825,
      "ĠgirlÃ¢": 7826,
      "icles": 7827,
      "Ġlevers": 7828,
      "Ġcarries": 7829,
      "Ġflashing": 7830,
      "ĠLooking": 7831,
      "Ġchilly": 7832,
      "Ġenemy": 7833,
      "acle": 7834,
      "ĠCle": 7835,
      "ĠCla": 7836,
      "ances": 7837,
      "Ġbrightest": 7838,
      "Ġforgives": 7839,
      "Ġlessons": 7840,
      "asha": 7841,
      "Ġbuses": 7842,
      "Ġbusiness": 7843,
      "Ġgrows": 7844,
      "Ġmonths": 7845,
      "Ġsprout": 7846,
      "Ġpackages": 7847,
      "Ġdrying": 7848,
      "Ġafar": 7849,
      "Ġdespite": 7850,
      "Ġpreschool": 7851,
      "Ġimages": 7852,
      "ĠOther": 7853,
      "Goodnight": 7854,
      "Ġtroubles": 7855,
      "Ġcheerfully": 7856,
      "Ġembarrassing": 7857,
      "Ġtoolbox": 7858,
      "Ġpinching": 7859,
      "Ġgasp": 7860,
      "Ġprick": 7861,
      "ĠBehind": 7862,
      "Ġqueens": 7863,
      "Ġunlo": 7864,
      "Ġsqueezing": 7865,
      "Ġstamped": 7866,
      "Ġcuddles": 7867,
      "Ġdesigns": 7868,
      "Ġdiscoveries": 7869,
      "Ġtraps": 7870,
      "Ġspeeding": 7871,
      "Ġawful": 7872,
      "Ġaware": 7873,
      "Ġloading": 7874,
      "Ġrepeating": 7875,
      "Ġtires": 7876,
      "Ġstomp": 7877,
      "Ġartwork": 7878,
      "Ġhumans": 7879,
      "Ġapplauding": 7880,
      "Ġlumberjack": 7881,
      "Ġmosquitoes": 7882,
      "Ġfascinating": 7883,
      "ĠOlivia": 7884,
      "Excited": 7885,
      "Freddy": 7886,
      "Ġcottage": 7887,
      "ĠBouncy": 7888,
      "belle": 7889,
      "ossom": 7890,
      "Ġnibbled": 7891,
      "Ġcommunic": 7892,
      "Ġaisle": 7893,
      "Ġconflict": 7894,
      "Ruby": 7895,
      "Ġreunited": 7896,
      "Ġconductor": 7897,
      "Hop": 7898,
      "Kayla": 7899,
      "Liz": 7900,
      "Lena": 7901,
      "crow": 7902,
      "fied": 7903,
      "flowers": 7904,
      "po": 7905,
      "paste": 7906,
      "what": 7907,
      "water": 7908,
      "Ġtapped": 7909,
      "innie": 7910,
      "Ġfain": 7911,
      "Ġfif": 7912,
      "isdom": 7913,
      "Ġmate": 7914,
      "ĠTry": 7915,
      "onnie": 7916,
      "immered": 7917,
      "lle": 7918,
      "Ġshaped": 7919,
      "ortunately": 7920,
      "Ġform": 7921,
      "Ġreapp": 7922,
      "ĠMichael": 7923,
      "rying": 7924,
      "Ġloses": 7925,
      "Ġboards": 7926,
      "ĠAna": 7927,
      "Ġspare": 7928,
      "ulpt": 7929,
      "ument": 7930,
      "arest": 7931,
      "Ġscent": 7932,
      "Ġsculpt": 7933,
      "Ġweighing": 7934,
      "Ġchili": 7935,
      "ĠEl": 7936,
      "ĠEric": 7937,
      "ĠDora": 7938,
      "Ġslips": 7939,
      "Ġoffic": 7940,
      "empt": 7941,
      "ĠJoanna": 7942,
      "ÅĵThe": 7943,
      "ÅĵSure": 7944,
      "ĠPearl": 7945,
      "Ġforests": 7946,
      "Ġcrouched": 7947,
      "ĠRicky": 7948,
      "Ġbits": 7949,
      "Ġsquished": 7950,
      "Ġdripping": 7951,
      "Ġstew": 7952,
      "Ġstepping": 7953,
      "Ġvisitors": 7954,
      "Ġattempt": 7955,
      "Ġprod": 7956,
      "Ġnests": 7957,
      "Ġsurv": 7958,
      "Ġactive": 7959,
      "Ġmattered": 7960,
      "ĠChuck": 7961,
      "Ġdisappoint": 7962,
      "ĠBeep": 7963,
      "Ġscram": 7964,
      "Ġsqueaked": 7965,
      "Ġwiser": 7966,
      "Ġwisely": 7967,
      "Ġrelaxing": 7968,
      "Ġfishes": 7969,
      "Ġapologised": 7970,
      "Ġsweat": 7971,
      "undred": 7972,
      "Ġpepperoni": 7973,
      "Ġscratching": 7974,
      "Ġleopards": 7975,
      "ĠFinny": 7976,
      "Ġcocoon": 7977,
      "Ġtoothpaste": 7978,
      "Ġmayor": 7979,
      "ĠShannon": 7980,
      "Ġbeeped": 7981,
      "Ġfleas": 7982,
      "Ġappearance": 7983,
      "Ġuniforms": 7984,
      "ĠMaya": 7985,
      "ĠAmanda": 7986,
      "Ġbrushing": 7987,
      "Ġsatisfaction": 7988,
      "ĠChris": 7989,
      "Ġmasterpiece": 7990,
      "Ġparticularly": 7991,
      "Ġencouragement": 7992,
      "Ġswaying": 7993,
      "asmine": 7994,
      "Ġpurrs": 7995,
      "ĠCheese": 7996,
      "Ġcustomer": 7997,
      "Ġsteering": 7998,
      "Ġfailed": 7999
    },
    "merges": [
      [
        "h",
        "e"
      ],
      [
        "Ġ",
        "t"
      ],
      [
        "Ġ",
        "a"
      ],
      [
        "Ġ",
        "s"
      ],
      [
        "n",
        "d"
      ],
      [
        "Ġ",
        "w"
      ],
      [
        "Ġt",
        "he"
      ],
      [
        "e",
        "d"
      ],
      [
        "Ġa",
        "nd"
      ],
      [
        "Ġt",
        "o"
      ],
      [
        "Ġ",
        "b"
      ],
      [
        "i",
        "n"
      ],
      [
        "i",
        "t"
      ],
      [
        "Ġ",
        "h"
      ],
      [
        "e",
        "r"
      ],
      [
        "Ġw",
        "a"
      ],
      [
        "Ġ",
        "f"
      ],
      [
        "o",
        "u"
      ],
      [
        "r",
        "e"
      ],
      [
        "Ġ",
        "l"
      ],
      [
        "Ġ",
        "c"
      ],
      [
        "Ġ",
        "d"
      ],
      [
        "Ġ",
        "he"
      ],
      [
        "o",
        "r"
      ],
      [
        "i",
        "s"
      ],
      [
        "Ġ",
        "m"
      ],
      [
        "Ġ",
        "p"
      ],
      [
        "Ġwa",
        "s"
      ],
      [
        "Ġ",
        "T"
      ],
      [
        "o",
        "m"
      ],
      [
        "a",
        "y"
      ],
      [
        "o",
        "n"
      ],
      [
        "a",
        "n"
      ],
      [
        "a",
        "r"
      ],
      [
        "in",
        "g"
      ],
      [
        "i",
        "l"
      ],
      [
        "Ġ",
        "g"
      ],
      [
        "i",
        "d"
      ],
      [
        "a",
        "t"
      ],
      [
        "e",
        "n"
      ],
      [
        "Ġ",
        "n"
      ],
      [
        "Ġs",
        "a"
      ],
      [
        "Ġh",
        "a"
      ],
      [
        "<",
        "|"
      ],
      [
        "|",
        ">"
      ],
      [
        "Ġ",
        "S"
      ],
      [
        "ĠT",
        "he"
      ],
      [
        "i",
        "m"
      ],
      [
        "Ġs",
        "t"
      ],
      [
        "Ġ",
        "it"
      ],
      [
        "Ġt",
        "h"
      ],
      [
        "Ġ",
        "o"
      ],
      [
        "l",
        "l"
      ],
      [
        "l",
        "e"
      ],
      [
        "Ġ",
        "H"
      ],
      [
        "Ġhe",
        "r"
      ],
      [
        "o",
        "t"
      ],
      [
        "e",
        "t"
      ],
      [
        "i",
        "r"
      ],
      [
        "ĠS",
        "he"
      ],
      [
        "e",
        "nd"
      ],
      [
        "e",
        "s"
      ],
      [
        "ĠH",
        "e"
      ],
      [
        "Ġ",
        "in"
      ],
      [
        "Ġs",
        "h"
      ],
      [
        "u",
        "s"
      ],
      [
        "v",
        "er"
      ],
      [
        "u",
        "t"
      ],
      [
        "o",
        "w"
      ],
      [
        "a",
        "s"
      ],
      [
        "ĠThe",
        "y"
      ],
      [
        "c",
        "k"
      ],
      [
        "il",
        "y"
      ],
      [
        "l",
        "d"
      ],
      [
        "Ġ",
        "y"
      ],
      [
        "o",
        "o"
      ],
      [
        "Ġsa",
        "id"
      ],
      [
        "i",
        "g"
      ],
      [
        "a",
        "m"
      ],
      [
        "Ġ",
        "r"
      ],
      [
        "Ġ",
        "e"
      ],
      [
        "Ġ",
        "\""
      ],
      [
        "Ġb",
        "e"
      ],
      [
        "L",
        "ily"
      ],
      [
        "Ġ",
        "u"
      ],
      [
        "c",
        "e"
      ],
      [
        "Ġ",
        "I"
      ],
      [
        "it",
        "h"
      ],
      [
        "p",
        "p"
      ],
      [
        "Ġs",
        "he"
      ],
      [
        "k",
        "e"
      ],
      [
        "Ġw",
        "ith"
      ],
      [
        "v",
        "e"
      ],
      [
        "O",
        "n"
      ],
      [
        "Ġ",
        "on"
      ],
      [
        "r",
        "i"
      ],
      [
        "k",
        "ed"
      ],
      [
        "Ġp",
        "l"
      ],
      [
        "Ġy",
        "ou"
      ],
      [
        "Ġo",
        "f"
      ],
      [
        "Ġh",
        "is"
      ],
      [
        "Ġs",
        "o"
      ],
      [
        "Ġd",
        "ay"
      ],
      [
        "ver",
        "y"
      ],
      [
        "a",
        "d"
      ],
      [
        "is",
        "t"
      ],
      [
        "n",
        "t"
      ],
      [
        "Ġth",
        "at"
      ],
      [
        "an",
        "t"
      ],
      [
        "it",
        "e"
      ],
      [
        "Ġ",
        "Lily"
      ],
      [
        "Ġpl",
        "ay"
      ],
      [
        "or",
        "t"
      ],
      [
        "Ġu",
        "p"
      ],
      [
        "as",
        "s"
      ],
      [
        "Ġha",
        "d"
      ],
      [
        "Ġthe",
        "y"
      ],
      [
        "Ġm",
        "om"
      ],
      [
        "Ġst",
        "or"
      ],
      [
        "e",
        "l"
      ],
      [
        "Ġstor",
        "y"
      ],
      [
        "Ġ",
        "B"
      ],
      [
        "u",
        "n"
      ],
      [
        "m",
        "y"
      ],
      [
        "en",
        "t"
      ],
      [
        "Ġf",
        "or"
      ],
      [
        "ou",
        "ld"
      ],
      [
        "r",
        "ite"
      ],
      [
        "'",
        "s"
      ],
      [
        "Ġsh",
        "ort"
      ],
      [
        "ist",
        "ant"
      ],
      [
        "W",
        "rite"
      ],
      [
        "us",
        "er"
      ],
      [
        "ass",
        "istant"
      ],
      [
        "Ġha",
        "pp"
      ],
      [
        "Ġl",
        "i"
      ],
      [
        "c",
        "h"
      ],
      [
        "T",
        "he"
      ],
      [
        "it",
        "t"
      ],
      [
        "Ġwa",
        "nt"
      ],
      [
        "he",
        "r"
      ],
      [
        "ou",
        "t"
      ],
      [
        "Ġd",
        "o"
      ],
      [
        "a",
        "ll"
      ],
      [
        "Ġn",
        "ot"
      ],
      [
        "Ġ",
        "very"
      ],
      [
        "om",
        "e"
      ],
      [
        "l",
        "y"
      ],
      [
        "ou",
        "nd"
      ],
      [
        "im",
        "e"
      ],
      [
        "itt",
        "le"
      ],
      [
        "Ġt",
        "ime"
      ],
      [
        "Ġl",
        "ittle"
      ],
      [
        "Ġw",
        "h"
      ],
      [
        "Ġ",
        "k"
      ],
      [
        "Ġthe",
        "re"
      ],
      [
        "Ġb",
        "ig"
      ],
      [
        "Ġn",
        "e"
      ],
      [
        "Ġhapp",
        "y"
      ],
      [
        "a",
        "l"
      ],
      [
        "h",
        "t"
      ],
      [
        "Ġ",
        "re"
      ],
      [
        "Ġ",
        "is"
      ],
      [
        "Ġ",
        "M"
      ],
      [
        "Ġs",
        "m"
      ],
      [
        "Ġb",
        "ut"
      ],
      [
        "ri",
        "end"
      ],
      [
        "ĠI",
        "t"
      ],
      [
        "Ġsa",
        "w"
      ],
      [
        "Ġf",
        "riend"
      ],
      [
        "t",
        "er"
      ],
      [
        "Ġa",
        "n"
      ],
      [
        "Ġ",
        "Ċ"
      ],
      [
        "a",
        "ck"
      ],
      [
        ".",
        "\""
      ],
      [
        "Ġa",
        "s"
      ],
      [
        "r",
        "y"
      ],
      [
        "On",
        "e"
      ],
      [
        "id",
        "e"
      ],
      [
        "v",
        "ed"
      ],
      [
        "a",
        "ke"
      ],
      [
        "'",
        "t"
      ],
      [
        "er",
        "e"
      ],
      [
        "u",
        "g"
      ],
      [
        "Ġl",
        "o"
      ],
      [
        "On",
        "ce"
      ],
      [
        "ĠT",
        "im"
      ],
      [
        "Ġl",
        "oo"
      ],
      [
        "!",
        "\""
      ],
      [
        "Ġw",
        "ere"
      ],
      [
        "o",
        "re"
      ],
      [
        "r",
        "a"
      ],
      [
        "Ġs",
        "e"
      ],
      [
        "Ġb",
        "o"
      ],
      [
        "Ġh",
        "im"
      ],
      [
        "Ġto",
        "o"
      ],
      [
        "e",
        "c"
      ],
      [
        "Ġg",
        "o"
      ],
      [
        "Ġup",
        "on"
      ],
      [
        "ir",
        "l"
      ],
      [
        "Ġwant",
        "ed"
      ],
      [
        "il",
        "l"
      ],
      [
        "ar",
        "d"
      ],
      [
        "Ġg",
        "irl"
      ],
      [
        "Ġa",
        "re"
      ],
      [
        "Ġ",
        "j"
      ],
      [
        "Ġthe",
        "m"
      ],
      [
        "Ġ",
        "out"
      ],
      [
        "i",
        "nd"
      ],
      [
        "Ġa",
        "t"
      ],
      [
        "w",
        "ay"
      ],
      [
        "Ġthe",
        "ir"
      ],
      [
        "u",
        "r"
      ],
      [
        "Ġd",
        "id"
      ],
      [
        "Ġ",
        "A"
      ],
      [
        "Ġs",
        "p"
      ],
      [
        "Ġc",
        "ould"
      ],
      [
        "he",
        "n"
      ],
      [
        "u",
        "l"
      ],
      [
        "Ġsm",
        "il"
      ],
      [
        "a",
        "in"
      ],
      [
        "Ġha",
        "ve"
      ],
      [
        "Ġw",
        "ent"
      ],
      [
        "Ġn",
        "am"
      ],
      [
        "s",
        "e"
      ],
      [
        "ar",
        "t"
      ],
      [
        "he",
        "d"
      ],
      [
        "r",
        "om"
      ],
      [
        "Ġe",
        "x"
      ],
      [
        "l",
        "p"
      ],
      [
        "i",
        "c"
      ],
      [
        "r",
        "ound"
      ],
      [
        "ĠB",
        "en"
      ],
      [
        "Ġfriend",
        "s"
      ],
      [
        "Ġc",
        "an"
      ],
      [
        "Ġhe",
        "lp"
      ],
      [
        "f",
        "ul"
      ],
      [
        "Ġk",
        "n"
      ],
      [
        "oo",
        "d"
      ],
      [
        "Ġa",
        "ll"
      ],
      [
        "?",
        "\""
      ],
      [
        "Ġ",
        "J"
      ],
      [
        "h",
        "ing"
      ],
      [
        "u",
        "m"
      ],
      [
        "s",
        "t"
      ],
      [
        "ig",
        "ht"
      ],
      [
        "ar",
        "k"
      ],
      [
        "on",
        "e"
      ],
      [
        "Ġf",
        "un"
      ],
      [
        "Ġnam",
        "ed"
      ],
      [
        "Ġb",
        "ack"
      ],
      [
        "Ġc",
        "l"
      ],
      [
        "Ġl",
        "e"
      ],
      [
        "a",
        "re"
      ],
      [
        "Y",
        "ou"
      ],
      [
        "Ġs",
        "ay"
      ],
      [
        "Ġlo",
        "ved"
      ],
      [
        "ĠT",
        "om"
      ],
      [
        "Ġn",
        "o"
      ],
      [
        "el",
        "t"
      ],
      [
        "Ġ",
        "One"
      ],
      [
        "ĠTim",
        "my"
      ],
      [
        "o",
        "p"
      ],
      [
        "ou",
        "g"
      ],
      [
        "Ġto",
        "y"
      ],
      [
        "Ġs",
        "c"
      ],
      [
        "Ġf",
        "elt"
      ],
      [
        "Ġa",
        "l"
      ],
      [
        "s",
        "ide"
      ],
      [
        "i",
        "ck"
      ],
      [
        "Ġsmil",
        "ed"
      ],
      [
        "Ġas",
        "ked"
      ],
      [
        "Ġf",
        "e"
      ],
      [
        "Ġw",
        "e"
      ],
      [
        "am",
        "e"
      ],
      [
        "Ġm",
        "an"
      ],
      [
        "Ġloo",
        "ked"
      ],
      [
        "Ġse",
        "e"
      ],
      [
        "Ġli",
        "ke"
      ],
      [
        "Ġr",
        "o"
      ],
      [
        "Ġb",
        "ir"
      ],
      [
        "g",
        "et"
      ],
      [
        "Ġs",
        "ome"
      ],
      [
        "Ġm",
        "e"
      ],
      [
        "Ġ",
        "W"
      ],
      [
        "Ġa",
        "round"
      ],
      [
        "Ġbo",
        "y"
      ],
      [
        "Ġb",
        "r"
      ],
      [
        "u",
        "re"
      ],
      [
        "om",
        "et"
      ],
      [
        "Ġw",
        "ould"
      ],
      [
        "on",
        "g"
      ],
      [
        "Ġbir",
        "d"
      ],
      [
        "i",
        "ce"
      ],
      [
        "Ġst",
        "art"
      ],
      [
        "ad",
        "e"
      ],
      [
        "Ġa",
        "g"
      ],
      [
        "ing",
        "s"
      ],
      [
        "Ġs",
        "omet"
      ],
      [
        "Ġw",
        "or"
      ],
      [
        "Ġt",
        "re"
      ],
      [
        "get",
        "her"
      ],
      [
        "d",
        "d"
      ],
      [
        "ow",
        "n"
      ],
      [
        "a",
        "g"
      ],
      [
        "Ġm",
        "ake"
      ],
      [
        "Ġwh",
        "at"
      ],
      [
        "ĠB",
        "ut"
      ],
      [
        "k",
        "ing"
      ],
      [
        ",",
        "\""
      ],
      [
        "Ġa",
        "way"
      ],
      [
        "Ġto",
        "gether"
      ],
      [
        "Ġ",
        "You"
      ],
      [
        "Ġstart",
        "ed"
      ],
      [
        "Ġr",
        "an"
      ],
      [
        "Ġm",
        "ade"
      ],
      [
        "ou",
        "d"
      ],
      [
        "ar",
        "ed"
      ],
      [
        "Ġp",
        "ark"
      ],
      [
        "i",
        "f"
      ],
      [
        "i",
        "e"
      ],
      [
        "Ġsa",
        "d"
      ],
      [
        "Ġc",
        "o"
      ],
      [
        "Ġsay",
        "s"
      ],
      [
        "Ã",
        "¢"
      ],
      [
        "â",
        "Ĥ"
      ],
      [
        "âĤ",
        "¬"
      ],
      [
        "Ġsomet",
        "hing"
      ],
      [
        "Ġp",
        "ut"
      ],
      [
        "t",
        "her"
      ],
      [
        "Ġc",
        "ar"
      ],
      [
        "Ġne",
        "w"
      ],
      [
        "it",
        "ed"
      ],
      [
        "es",
        "t"
      ],
      [
        "Ġo",
        "ther"
      ],
      [
        "Ġag",
        "ain"
      ],
      [
        "Ġf",
        "rom"
      ],
      [
        "b",
        "le"
      ],
      [
        "Ġp",
        "r"
      ],
      [
        "e",
        "ll"
      ],
      [
        "Ġh",
        "ome"
      ],
      [
        "Ġh",
        "ug"
      ],
      [
        "Ġex",
        "c"
      ],
      [
        "Ġw",
        "hen"
      ],
      [
        "Ġg",
        "ood"
      ],
      [
        "Ġf",
        "ound"
      ],
      [
        "ri",
        "ed"
      ],
      [
        "oo",
        "k"
      ],
      [
        "Ġf",
        "l"
      ],
      [
        "Ġ",
        "L"
      ],
      [
        "e",
        "p"
      ],
      [
        "Ġwh",
        "o"
      ],
      [
        "Ġc",
        "h"
      ],
      [
        "Ġthe",
        "n"
      ],
      [
        "a",
        "ch"
      ],
      [
        "as",
        "t"
      ],
      [
        "a",
        "ug"
      ],
      [
        "oug",
        "ht"
      ],
      [
        "Ġplay",
        "ing"
      ],
      [
        "Ġd",
        "ec"
      ],
      [
        "pp",
        "ed"
      ],
      [
        "u",
        "e"
      ],
      [
        "Ġg",
        "et"
      ],
      [
        "Ġwa",
        "l"
      ],
      [
        "u",
        "ch"
      ],
      [
        "h",
        "at"
      ],
      [
        "Ġs",
        "w"
      ],
      [
        "all",
        "y"
      ],
      [
        "Ġg",
        "ot"
      ],
      [
        "Ġth",
        "ings"
      ],
      [
        "u",
        "ck"
      ],
      [
        "us",
        "t"
      ],
      [
        "p",
        "l"
      ],
      [
        "Ġli",
        "ked"
      ],
      [
        "ou",
        "s"
      ],
      [
        "Ġ",
        "E"
      ],
      [
        "n",
        "n"
      ],
      [
        "a",
        "ve"
      ],
      [
        "Ġe",
        "very"
      ],
      [
        "Ġdo",
        "g"
      ],
      [
        "Ġb",
        "l"
      ],
      [
        "Ġc",
        "ame"
      ],
      [
        "a",
        "x"
      ],
      [
        "us",
        "e"
      ],
      [
        "Ġexc",
        "ited"
      ],
      [
        "r",
        "o"
      ],
      [
        "Ġbe",
        "c"
      ],
      [
        "Ġdec",
        "id"
      ],
      [
        "Ġdecid",
        "ed"
      ],
      [
        "Ġd",
        "own"
      ],
      [
        "Ġ",
        "v"
      ],
      [
        "Ġyou",
        "r"
      ],
      [
        "Ġf",
        "ind"
      ],
      [
        "n",
        "y"
      ],
      [
        "ou",
        "se"
      ],
      [
        "Ġsc",
        "ared"
      ],
      [
        "Ġc",
        "are"
      ],
      [
        "Ġd",
        "ad"
      ],
      [
        "Ġfe",
        "el"
      ],
      [
        "Ġon",
        "e"
      ],
      [
        "ar",
        "n"
      ],
      [
        "Ġth",
        "an"
      ],
      [
        "u",
        "dd"
      ],
      [
        "Ġ",
        "D"
      ],
      [
        "Ġa",
        "b"
      ],
      [
        "a",
        "ce"
      ],
      [
        "ar",
        "a"
      ],
      [
        "a",
        "p"
      ],
      [
        "Ġtre",
        "e"
      ],
      [
        "Ġdid",
        "n"
      ],
      [
        "way",
        "s"
      ],
      [
        "Ġm",
        "y"
      ],
      [
        "Ġtoy",
        "s"
      ],
      [
        "q",
        "u"
      ],
      [
        "Ġb",
        "all"
      ],
      [
        "nn",
        "a"
      ],
      [
        "The",
        "y"
      ],
      [
        "er",
        "s"
      ],
      [
        "Ġtoo",
        "k"
      ],
      [
        "Ġ",
        "F"
      ],
      [
        "Ġal",
        "ways"
      ],
      [
        "Ġmom",
        "my"
      ],
      [
        "ĠM",
        "om"
      ],
      [
        "es",
        "s"
      ],
      [
        "Ġw",
        "ill"
      ],
      [
        "a",
        "nd"
      ],
      [
        "Ġab",
        "out"
      ],
      [
        "Ġp",
        "o"
      ],
      [
        "Ġkn",
        "e"
      ],
      [
        "nd",
        "er"
      ],
      [
        "Ġ",
        "ke"
      ],
      [
        "Ġl",
        "ot"
      ],
      [
        "Ġth",
        "ought"
      ],
      [
        "Ġout",
        "side"
      ],
      [
        "ou",
        "r"
      ],
      [
        "Ġloo",
        "k"
      ],
      [
        "Ġle",
        "arn"
      ],
      [
        "en",
        "ed"
      ],
      [
        "Ġm",
        "ore"
      ],
      [
        "b",
        "b"
      ],
      [
        "re",
        "t"
      ],
      [
        "c",
        "hed"
      ],
      [
        "Ġt",
        "r"
      ],
      [
        "is",
        "e"
      ],
      [
        "g",
        "ed"
      ],
      [
        "ec",
        "i"
      ],
      [
        "Ġc",
        "at"
      ],
      [
        "Ġkn",
        "ow"
      ],
      [
        "ĠM",
        "ax"
      ],
      [
        "s",
        "s"
      ],
      [
        "ĠS",
        "am"
      ],
      [
        "Ġh",
        "o"
      ],
      [
        "Ġo",
        "ld"
      ],
      [
        "Ġl",
        "aug"
      ],
      [
        "f",
        "ter"
      ],
      [
        "Ġkne",
        "w"
      ],
      [
        "Ġt",
        "ake"
      ],
      [
        "u",
        "ll"
      ],
      [
        "t",
        "o"
      ],
      [
        "eci",
        "al"
      ],
      [
        "Ġsp",
        "ecial"
      ],
      [
        "Ġp",
        "e"
      ],
      [
        "Ġan",
        "y"
      ],
      [
        "Ġg",
        "r"
      ],
      [
        "a",
        "k"
      ],
      [
        "i",
        "ve"
      ],
      [
        "an",
        "g"
      ],
      [
        "Ġh",
        "ow"
      ],
      [
        "or",
        "ry"
      ],
      [
        "udd",
        "en"
      ],
      [
        "Ġsh",
        "ow"
      ],
      [
        "Ġm",
        "uch"
      ],
      [
        "Ġh",
        "ouse"
      ],
      [
        "m",
        "a"
      ],
      [
        "Ġs",
        "l"
      ],
      [
        "udden",
        "ly"
      ],
      [
        "B",
        "ut"
      ],
      [
        "v",
        "en"
      ],
      [
        "is",
        "h"
      ],
      [
        "Ġr",
        "un"
      ],
      [
        "Ġs",
        "orry"
      ],
      [
        "i",
        "a"
      ],
      [
        "Ġto",
        "ld"
      ],
      [
        "Ġs",
        "un"
      ],
      [
        "Ġplay",
        "ed"
      ],
      [
        "Ġo",
        "p"
      ],
      [
        "Ġ",
        "or"
      ],
      [
        "an",
        "k"
      ],
      [
        "Ġha",
        "nd"
      ],
      [
        "in",
        "k"
      ],
      [
        "Ġg",
        "ave"
      ],
      [
        "Ġm",
        "o"
      ],
      [
        "Ġt",
        "ried"
      ],
      [
        "Ġwa",
        "ter"
      ],
      [
        "Ġs",
        "k"
      ],
      [
        "Ġt",
        "w"
      ],
      [
        "Ġin",
        "to"
      ],
      [
        "a",
        "use"
      ],
      [
        "Ġcl",
        "o"
      ],
      [
        "Ġpr",
        "oud"
      ],
      [
        "t",
        "y"
      ],
      [
        "Ġin",
        "side"
      ],
      [
        "Ġro",
        "om"
      ],
      [
        "um",
        "p"
      ],
      [
        "Ġ",
        "if"
      ],
      [
        "Ġcould",
        "n"
      ],
      [
        "at",
        "e"
      ],
      [
        "Ġo",
        "ver"
      ],
      [
        "Ġne",
        "ver"
      ],
      [
        "Ġg",
        "ra"
      ],
      [
        "Ġe",
        "at"
      ],
      [
        "a",
        "v"
      ],
      [
        "Ġ",
        "en"
      ],
      [
        "ot",
        "her"
      ],
      [
        "et",
        "ter"
      ],
      [
        "Ġbec",
        "ause"
      ],
      [
        "Ġhe",
        "ard"
      ],
      [
        "Ġp",
        "ick"
      ],
      [
        "Ġp",
        "ret"
      ],
      [
        "ĠW",
        "e"
      ],
      [
        "i",
        "on"
      ],
      [
        "Ġex",
        "pl"
      ],
      [
        "Ġg",
        "re"
      ],
      [
        "Ġbo",
        "x"
      ],
      [
        "d",
        "y"
      ],
      [
        "Ġe",
        "ach"
      ],
      [
        "Ġst",
        "r"
      ],
      [
        "ĠE",
        "very"
      ],
      [
        "Ġhug",
        "ged"
      ],
      [
        "he",
        "re"
      ],
      [
        "ĠA",
        "nna"
      ],
      [
        "Ġwa",
        "t"
      ],
      [
        "Ġth",
        "is"
      ],
      [
        "Ġsm",
        "all"
      ],
      [
        "Ġc",
        "om"
      ],
      [
        "T",
        "om"
      ],
      [
        "b",
        "y"
      ],
      [
        "il",
        "e"
      ],
      [
        "Ġne",
        "ed"
      ],
      [
        "Ġj",
        "ust"
      ],
      [
        "ot",
        "h"
      ],
      [
        "ĠS",
        "ara"
      ],
      [
        "Ġman",
        "y"
      ],
      [
        "M",
        "om"
      ],
      [
        "Ġn",
        "ice"
      ],
      [
        "Ġl",
        "ong"
      ],
      [
        "Ġ",
        "qu"
      ],
      [
[...]
