{
  "version": "1.0",
  "truncation": null,
  "padding": null,
  "added_tokens": [
    {
      "id": 0,
      "content": "[PAD]",
      "single_word": false,
      "lstrip": false,
      "rstrip": false,
      "normalized": false,
      "special": true
    },
    {
      "id": 1,
      "content": "[UNK]",
      "single_word": false,
      "lstrip": false,
      "rstrip": false,
      "normalized": false,
      "special": true
    },
    {
      "id": 2,
      "content": "[BOS]",
      "single_word": false,
      "lstrip": false,
      "rstrip": false,
      "normalized": false,
      "special": true
    },
    {
      "id": 3,
      "content": "[EOS]",
      "single_word": false,
      "lstrip": false,
      "rstrip": false,
      "normalized": false,
      "special": true
    },
    {
      "id": 4,
      "content": "[MASK]",
      "single_word": false,
      "lstrip": false,
      "rstrip": false,
      "normalized": false,
      "special": true
    },
    {
      "id": 5,
      "content": "<|user|>",
      "single_word": false,
      "lstrip": false,
      "rstrip": false,
      "normalized": false,
      "special": true
    },
    {
      "id": 6,
      "content": "<|assistant|>",
      "single_word": false,
      "lstrip": false,
      "rstrip": false,
      "normalized": false,
      "special": true
    },
    {
      "id": 7,
      "content": "<|system|>",
      "single_word": false,
      "lstrip": false,
      "rstrip": false,
      "normalized": false,
      "special": true
    },
    {
      "id": 8,
      "content": "<|end|>",
      "single_word": false,
      "lstrip": false,
      "rstrip": false,
      "normalized": false,
      "special": true
    }
  ],
  "normalizer": {
    "type": "NFKC"
  },
  "pre_tokenizer": {
    "type": "ByteLevel",
    "add_prefix_space": false,
    "trim_offsets": true,
    "use_regex": true
  },
  "post_processor": {
    "type": "TemplateProcessing",
    "single": [
      {
        "SpecialToken": {
          "id": "[BOS]",
          "type_id": 0
        }
      },
      {
        "Sequence": {
          "id": "A",
          "type_id": 0
        }
      },
      {
        "SpecialToken": {
          "id": "[EOS]",
          "type_id": 0
        }
      }
    ],
    "pair": [
      {
        "Sequence": {
          "id": "A",
          "type_id": 0
        }
      },
      {
        "Sequence": {
          "id": "B",
          "type_id": 1
        }
      }
    ],
    "special_tokens": {
      "[BOS]": {
        "id": "[BOS]",
        "ids": [
          2
        ],
        "tokens": [
          "[BOS]"
        ]
      },
      "[EOS]": {
        "id": "[EOS]",
        "ids": [
          3
        ],
        "tokens": [
          "[EOS]"
        ]
      }
    }
  },
  "decoder": {
    "type": "ByteLevel",
    "add_prefix_space": true,
    "trim_offsets": true,
    "use_regex": true
  },
  "model": {
    "type": "BPE",
    "dropout": null,
    "unk_token": "[UNK]",
    "continuing_subword_prefix": null,
    "end_of_word_suffix": null,
    "fuse_unk": false,
    "byte_fallback": false,
    "ignore_merges": false,
    "vocab": {
      "[PAD]": 0,
      "[UNK]": 1,
      "[BOS]": 2,
      "[EOS]": 3,
      "[MASK]": 4,
      "<|user|>": 5,
      "<|assistant|>": 6,
      "<|system|>": 7,
      "<|end|>": 8,
      "!": 9,
      "\"": 10,
      "#": 11,
      "$": 12,
      "&": 13,
      "'": 14,
      "(": 15,
      ")": 16,
      "*": 17,
      "+": 18,
      ",": 19,
      "-": 20,
      ".": 21,
      "/": 22,
      "0": 23,
      "1": 24,
      "2": 25,
      "3": 26,
      "4": 27,
      "5": 28,
      "6": 29,
      "7": 30,
      "8": 31,
      "9": 32,
      ":": 33,
      ";": 34,
      "<": 35,
      ">": 36,
      "?": 37,
      "A": 38,
      "B": 39,
      "C": 40,
      "D": 41,
      "E": 42,
      "F": 43,
      "G": 44,
      "H": 45,
      "I": 46,
      "J": 47,
      "K": 48,
      "L": 49,
      "M": 50,
      "N": 51,
      "O": 52,
      "P": 53,
      "Q": 54,
      "R": 55,
      "S": 56,
      "T": 57,
      "U": 58,
      "V": 59,
      "W": 60,
      "X": 61,
      "Y": 62,
      "Z": 63,
      "]": 64,
      "_": 65,
      "`": 66,
      "a": 67,
      "b": 68,
      "c": 69,
      "d": 70,
      "e": 71,
      "f": 72,
      "g": 73,
      "h": 74,
      "i": 75,
      "j": 76,
      "k": 77,
      "l": 78,
      "m": 79,
      "n": 80,
      "o": 81,
      "p": 82,
      "q": 83,
      "r": 84,
      "s": 85,
      "t": 86,
      "u": 87,
      "v": 88,
      "w": 89,
      "x": 90,
      "y": 91,
      "z": 92,
      "|": 93,
      "~": 94,
      "¡": 95,
      "¢": 96,
      "¦": 97,
      "©": 98,
      "«": 99,
      "¬": 100,
      "°": 101,
      "±": 102,
      "¶": 103,
      "¹": 104,
      "»": 105,
      "Â": 106,
      "Ã": 107,
      "Å": 108,
      "Ì": 109,
      "â": 110,
      "ĉ": 111,
      "Ċ": 112,
      "Ġ": 113,
      "Ģ": 114,
      "ģ": 115,
      "Ĥ": 116,
      "ĥ": 117,
      "ĵ": 118,
      "ľ": 119,
      "Ŀ": 120,
      "ł": 121,
      "Ń": 122,
      "he": 123,
      "Ġt": 124,
      "Ġa": 125,
      "Ġs": 126,
      "nd": 127,
      "Ġw": 128,
      "Ġthe": 129,
      "ed": 130,
      "Ġand": 131,
      "Ġto": 132,
      "Ġb": 133,
      "in": 134,
      "it": 135,
      "Ġh": 136,
      "er": 137,
      "Ġwa": 138,
      "Ġf": 139,
      "ou": 140,
      "re": 141,
      "Ġl": 142,
      "Ġc": 143,
      "Ġd": 144,
      "or": 145,
      "Ġhe": 146,
      "is": 147,
      "Ġm": 148,
      "Ġwas": 149,
      "Ġp": 150,
      "om": 151,
      "ĠT": 152,
      "on": 153,
      "ay": 154,
      "an": 155,
      "ar": 156,
      "ing": 157,
      "il": 158,
      "Ġg": 159,
      "id": 160,
      "at": 161,
      "en": 162,
      "Ġn": 163,
      "Ġsa": 164,
      "Ġha": 165,
      "ĠThe": 166,
      "<|": 167,
      "|>": 168,
      "ĠS": 169,
      "im": 170,
      "Ġst": 171,
      "Ġit": 172,
      "Ġo": 173,
      "Ġth": 174,
      "ll": 175,
      "le": 176,
      "ĠH": 177,
      "Ġher": 178,
      "ot": 179,
      "et": 180,
      "ir": 181,
      "ĠShe": 182,
      "es": 183,
      "ĠHe": 184,
      "end": 185,
      "Ġin": 186,
      "Ġsh": 187,
      "ver": 188,
      "us": 189,
      "ut": 190,
      "ow": 191,
      "as": 192,
      "ĠThey": 193,
      "ck": 194,
      "ld": 195,
      "Ġy": 196,
      "oo": 197,
      "Ġsaid": 198,
      "ily": 199,
      "ig": 200,
      "Ġe": 201,
      "Ġr": 202,
      "Ġbe": 203,
      "am": 204,
      "Ġ\"": 205,
      "ĠI": 206,
      "ce": 207,
      "ke": 208,
      "Ġu": 209,
      "Ġshe": 210,
      "pp": 211,
      "ve": 212,
      "ith": 213,
      "Ġwith": 214,
      "Lily": 215,
      "On": 216,
      "Ġon": 217,
      "Ġof": 218,
      "ked": 219,
      "ri": 220,
      "Ġyou": 221,
      "Ġso": 222,
      "Ġhis": 223,
      "Ġpl": 224,
      "ad": 225,
      "very": 226,
      "Ġday": 227,
      "nt": 228,
      "ist": 229,
      "Ġthat": 230,
      "ant": 231,
      "ite": 232,
      "ort": 233,
      "Ġup": 234,
      "ass": 235,
      "Ġhad": 236,
      "Ġplay": 237,
      "Ġthey": 238,
      "ĠLily": 239,
      "Ġstor": 240,
      "el": 241,
      "Ġmom": 242,
      "Ġstory": 243,
      "Ġfor": 244,
      "ĠB": 245,
      "un": 246,
      "ent": 247,
      "ould": 248,
      "rite": 249,
      "my": 250,
      "The": 251,
      "'s": 252,
      "istant": 253,
      "Ġshort": 254,
      "Write": 255,
      "user": 256,
      "assistant": 257,
      "Ġli": 258,
      "ch": 259,
      "Ġhapp": 260,
      "Ġwant": 261,
      "itt": 262,
      "out": 263,
      "her": 264,
      "Ġdo": 265,
      "Ġnot": 266,
      "ly": 267,
      "ome": 268,
      "Ġvery": 269,
      "ound": 270,
      "all": 271,
      "Ġwh": 272,
      "ime": 273,
      "ittle": 274,
      "Ġk": 275,
      "Ġtime": 276,
      "Ġlittle": 277,
      "al": 278,
      "Ġthere": 279,
      "Ġne": 280,
      "ht": 281,
      "Ġhappy": 282,
      "ĠM": 283,
      "Ġre": 284,
      "Ġbig": 285,
      "Ġsm": 286,
      "ĠIt": 287,
      "Ġis": 288,
      "Ġbut": 289,
      "ĠĊ": 290,
      "ack": 291,
      "Ġan": 292,
      "ter": 293,
      "Ġsaw": 294,
      "riend": 295,
      "Ġfriend": 296,
      "ry": 297,
      "Ġas": 298,
      ".\"": 299,
      "One": 300,
      "ide": 301,
      "ake": 302,
      "ere": 303,
      "'t": 304,
      "ug": 305,
      "Ġloo": 306,
      "ved": 307,
      "Ġwere": 308,
      "!\"": 309,
      "Once": 310,
      "ore": 311,
      "ec": 312,
      "Ġlo": 313,
      "ra": 314,
      "Ġhim": 315,
      "Ġtoo": 316,
      "Ġbo": 317,
      "Ġgo": 318,
      "Ġse": 319,
      "irl": 320,
      "Ġj": 321,
      "ĠTim": 322,
      "Ġwanted": 323,
      "Ġare": 324,
      "ard": 325,
      "Ġgirl": 326,
      "ill": 327,
      "Ġupon": 328,
      "Ġthem": 329,
      "Ġout": 330,
      "Ġat": 331,
      "Ġsp": 332,
      "ind": 333,
      "Ġtheir": 334,
      "way": 335,
      "ur": 336,
      "Ġdid": 337,
      "Ġcould": 338,
      "ĠA": 339,
      "ul": 340,
      "hen": 341,
      "Ġsmil": 342,
      "Ġhave": 343,
      "ain": 344,
      "se": 345,
      "hed": 346,
      "art": 347,
      "Ġex": 348,
      "rom": 349,
      "Ġwent": 350,
      "round": 351,
      "ic": 352,
      "Ġcan": 353,
      "ĠJ": 354,
      "lp": 355,
      "ful": 356,
      "hing": 357,
      "ĠBen": 358,
      "ood": 359,
      "Ġfriends": 360,
      "Ġall": 361,
      "Ġnam": 362,
      "ight": 363,
      "Ġkn": 364,
      "st": 365,
      "Ġhelp": 366,
      "um": 367,
      "?\"": 368,
      "one": 369,
      "Ġback": 370,
      "ark": 371,
      "Ġsay": 372,
      "Ġfun": 373,
      "Ġcl": 374,
      "You": 375,
      "are": 376,
      "ear": 377,
      "ĠTom": 378,
      "Ġno": 379,
      "op": 380,
      "Ġsc": 381,
      "Ġnamed": 382,
      "Ġal": 383,
      "elt": 384,
      "oug": 385,
      "Ġloved": 386,
      "side": 387,
      "Ġsmiled": 388,
      "ĠOne": 389,
      "Ġman": 390,
      "ick": 391,
      "Ġfelt": 392,
      "Ġtoy": 393,
      "Ġlike": 394,
      "Ġasked": 395,
      "Ġlooked": 396,
      "Ġaround": 397,
      "Ġsome": 398,
      "ame": 399,
      "Ġsee": 400,
      "omet": 401,
      "ĠTimmy": 402,
      "Ġme": 403,
      "ell": 404,
      "ure": 405,
      "Ġro": 406,
      "Ġbr": 407,
      "ĠW": 408,
      "Ġboy": 409,
      "Ġbir": 410,
      "get": 411,
      "Ġwould": 412,
      "ice": 413,
      "Ġstart": 414,
      "ong": 415,
      "Ġsomet": 416,
      "Ġbird": 417,
      "Ġag": 418,
      "ings": 419,
      "ade": 420,
      "dd": 421,
      "Ġwhat": 422,
      "Ġmake": 423,
      "Ġwor": 424,
      "king": 425,
      "Ã¢": 426,
      "âĤ": 427,
      "âĤ¬": 428,
      "Ġaway": 429,
      "ĠBut": 430,
      "Ġran": 431,
      "own": 432,
      "gether": 433,
      "Ġtre": 434,
      ",\"": 435,
      "ag": 436,
      "ĠYou": 437,
      "Ġstarted": 438,
      "ie": 439,
      "Ġsays": 440,
      "oud": 441,
      "Ġmade": 442,
      "if": 443,
      "Ġsomething": 444,
      "Ġfe": 445,
      "Ġwe": 446,
      "Ġtogether": 447,
      "Ġcar": 448,
      "Ġco": 449,
      "ited": 450,
      "ther": 451,
      "Ġpark": 452,
      "Ġsad": 453,
      "est": 454,
      "Ġother": 455,
      "Ġput": 456,
      "Ġfrom": 457,
      "Ġnew": 458,
      "Ġexc": 459,
      "Ġpr": 460,
      "ble": 461,
      "Ġagain": 462,
      "Ġscar": 463,
      "Ġhug": 464,
      "Ġhome": 465,
      "ĠL": 466,
      "Ġwhen": 467,
      "Ġgood": 468,
      "ach": 469,
      "ep": 470,
      "ook": 471,
      "Ġwho": 472,
      "Ġthen": 473,
      "ried": 474,
      "Ġfl": 475,
      "Ġdec": 476,
      "Ġfound": 477,
      "aug": 478,
      "Ġch": 479,
      "ast": 480,
      "pped": 481,
      "Ġget": 482,
      "Ġwal": 483,
      "qu": 484,
      "hat": 485,
      "uch": 486,
      "ust": 487,
      "ĠE": 488,
      "Ġplaying": 489,
      "ought": 490,
      "Ġsw": 491,
      "ally": 492,
      "pl": 493,
      "Ġthings": 494,
      "uck": 495,
      "ous": 496,
      "Ġliked": 497,
      "Ġexcited": 498,
      "nn": 499,
      "Ġgot": 500,
      "ided": 501,
      "ro": 502,
      "Ġdecided": 503,
      "Ġevery": 504,
      "Ġbl": 505,
      "ave": 506,
      "Ġcame": 507,
      "Ġv": 508,
      "use": 509,
      "Ġone": 510,
      "ara": 511,
      "Ġdog": 512,
      "Ġyour": 513,
      "Ġdown": 514,
      "ax": 515,
      "Ġscared": 516,
      "ĠMom": 517,
      "ĠD": 518,
      "Ġfind": 519,
      "Ġbec": 520,
      "Ġcare": 521,
      "ouse": 522,
      "Ġthan": 523,
      "ace": 524,
      "ap": 525,
      "Ġfeel": 526,
      "ny": 527,
      "Ġdad": 528,
      "udd": 529,
      "Ġab": 530,
      "ue": 531,
      "Ġle": 532,
      "They": 533,
      "nna": 534,
      "Ġke": 535,
      "Ġdidn": 536,
      "Ġwill": 537,
      "ways": 538,
      "Ġmy": 539,
      "Ġlook": 540,
      "ers": 541,
      "ess": 542,
      "Ġtook": 543,
      "Ġalways": 544,
      "Ġpo": 545,
      "Ġabout": 546,
      "Ġlot": 547,
      "Ġmommy": 548,
      "nder": 549,
      "ned": 550,
      "Ġkne": 551,
      "bb": 552,
      "Ġball": 553,
      "Ġtoys": 554,
      "our": 555,
      "ĠF": 556,
      "and": 557,
      "Ġoutside": 558,
      "eci": 559,
      "ise": 560,
      "Ġlear": 561,
      "ĠSam": 562,
      "Ġtree": 563,
      "Ġthought": 564,
      "ched": 565,
      "ened": 566,
      "ss": 567,
      "Ġmore": 568,
      "Ġknow": 569,
      "ret": 570,
      "Ġho": 571,
      "Ġold": 572,
      "ged": 573,
      "ecial": 574,
      "Ġspecial": 575,
      "Ġtake": 576,
      "Ġlaug": 577,
      "Ġtr": 578,
      "Ġknew": 579,
      "Ġcat": 580,
      "ull": 581,
      "to": 582,
      "ive": 583,
      "udden": 584,
      "ak": 585,
      "Ġgr": 586,
      "Ġany": 587,
      "orry": 588,
      "ĠMax": 589,
      "fter": 590,
      "Ġhow": 591,
      "ang": 592,
      "uddenly": 593,
      "Ġshow": 594,
      "Ġpe": 595,
      "ia": 596,
      "Ġmuch": 597,
      "ish": 598,
      "But": 599,
      "ink": 600,
      "ma": 601,
      "Ġrun": 602,
      "Ġsorry": 603,
      "Ġtw": 604,
      "Ġsl": 605,
      "ven": 606,
      "Ġsk": 607,
      "Ġhouse": 608,
      "Ġhand": 609,
      "Ġmo": 610,
      "Ġop": 611,
      "Ġor": 612,
      "Ġinto": 613,
      "Ġsun": 614,
      "Ġtried": 615,
      "Ġwater": 616,
      "Ġclo": 617,
      "Ġinside": 618,
      "Ġtold": 619,
      "ank": 620,
      "Ġqu": 621,
      "ate": 622,
      "Ġcouldn": 623,
      "Ġen": 624,
      "ump": 625,
      "Ġproud": 626,
      "ĠEvery": 627,
      "Ġgave": 628,
      "Ġover": 629,
      "Ġnever": 630,
      "Ġif": 631,
      "Ġheard": 632,
      "by": 633,
      "ty": 634,
      "Ġeat": 635,
      "Tom": 636,
      "ause": 637,
      "dy": 638,
      "Ġroom": 639,
      "Ġeach": 640,
      "Ġgra": 641,
      "other": 642,
      "ĠSara": 643,
      "av": 644,
      "Ġthis": 645,
      "ĠWe": 646,
      "Ġexpl": 647,
      "ion": 648,
      "Ġpick": 649,
      "etter": 650,
      "Ġpret": 651,
      "Ġplayed": 652,
      "Ġgre": 653,
      "here": 654,
      "ĠAnna": 655,
      "Ġcom": 656,
      "Ġhugged": 657,
      "Ġjust": 658,
      "Mom": 659,
      "Ġstr": 660,
      "Ġbecause": 661,
      "Ġwat": 662,
      "Ġbox": 663,
      "Ġoff": 664,
      "oth": 665,
      "Ġnice": 666,
      "Ġneed": 667,
      "Ġmany": 668,
      "ile": 669,
      "Ġsmall": 670,
      "iz": 671,
      "Ġjo": 672,
      "Ġlong": 673,
      "fe": 674,
      "'m": 675,
      "imal": 676,
      "Ġanimal": 677,
      "Ġfo": 678,
      "Ġbear": 679,
      "ough": 680,
      "gry": 681,
      "ine": 682,
      "Ġsn": 683,
      "Ġunt": 684,
      "uc": 685,
      "Ġtry": 686,
      "sel": 687,
      "ild": 688,
      "Ġuntil": 689,
      "em": 690,
      "ĠJack": 691,
      "Ġlearned": 692,
      "urt": 693,
      "Ġbetter": 694,
      "ving": 695,
      "Ġlove": 696,
      "Ġkind": 697,
      "ft": 698,
      "Ġflow": 699,
      "Ġend": 700,
      "ac": 701,
      "Ġim": 702,
      "Ġcall": 703,
      "Ġbu": 704,
      "aut": 705,
      "Ġad": 706,
      "ady": 707,
      "Ġbest": 708,
      "vent": 709,
      "Ġcle": 710,
      "ĠAnd": 711,
      "ning": 712,
      "Ġus": 713,
      "urp": 714,
      "ĠJo": 715,
      "Ġdre": 716,
      "ĠMia": 717,
      "Ġsky": 718,
      "Ġbeaut": 719,
      "Ġdon": 720,
      "arden": 721,
      "Ġgarden": 722,
      "Ġcareful": 723,
      "ĠSo": 724,
      "ber": 725,
      "Yes": 726,
      "Ġthanked": 727,
      "Ġeven": 728,
      "Ġbra": 729,
      "Ġlaughed": 730,
      "pt": 731,
      "Ġby": 732,
      "Ġjump": 733,
      "He": 734,
      "Ġfi": 735,
      "Ġche": 736,
      "ĠC": 737,
      "able": 738,
      "ĠHer": 739,
      "Ġloud": 740,
      "Th": 741,
      "self": 742,
      "iny": 743,
      "ies": 744,
      "Ġlots": 745,
      "lew": 746,
      "Ġgl": 747,
      "ase": 748,
      "iful": 749,
      "Åĵ": 750,
      "Ġcome": 751,
      "Ġbeautiful": 752,
      "Ġway": 753,
      "ect": 754,
      "Ġfam": 755,
      "It": 756,
      "Ġstill": 757,
      "Ġhard": 758,
      "Ġanimals": 759,
      "Ġwo": 760,
      "rm": 761,
      "Ġlist": 762,
      "ĠThen": 763,
      "Ġhurt": 764,
      "wn": 765,
      "ĠFrom": 766,
      "Ġunder": 767,
      "Ġstay": 768,
      "hes": 769,
      "ĠHis": 770,
      "Ġsafe": 771,
      "Ġcol": 772,
      "Ġcu": 773,
      "Ġlet": 774,
      "ool": 775,
      "ople": 776,
      "Ġclos": 777,
      "Ġbad": 778,
      "Ġboth": 779,
      "Ġrem": 780,
      "ane": 781,
      "ĠÃ¢": 782,
      "be": 783,
      "Ġlived": 784,
      "ree": 785,
      "Ġits": 786,
      "Ġtwo": 787,
      "Ġimp": 788,
      "Ġte": 789,
      "Ġbrave": 790,
      "ished": 791,
      "air": 792,
      "Ġpeople": 793,
      "ock": 794,
      "Ġfamily": 795,
      "Ġbook": 796,
      "urpr": 797,
      "Tim": 798,
      "Ġflew": 799,
      "kay": 800,
      "igh": 801,
      "Ġfin": 802,
      "When": 803,
      "Ġwalked": 804,
      "Ġra": 805,
      "Ġsurpr": 806,
      "Ġangry": 807,
      "ob": 808,
      "Ġred": 809,
      "Ġsoon": 810,
      "ucy": 811,
      "Ġshould": 812,
      "Ġkept": 813,
      "led": 814,
      "fore": 815,
      "Ġfore": 816,
      "Ġcalled": 817,
      "Ġfly": 818,
      "Ġpic": 819,
      "xt": 820,
      "No": 821,
      "ised": 822,
      "Ġshare": 823,
      "hn": 824,
      "ip": 825,
      "Ġtur": 826,
      "ĠWhen": 827,
      "Ġrock": 828,
      "Let": 829,
      "Ġgoing": 830,
      "Ġclean": 831,
      "Ġkeep": 832,
      "aking": 833,
      "Ġdoor": 834,
      "ĠP": 835,
      "Ġpretty": 836,
      "ummy": 837,
      "Ġnow": 838,
      "Ġdoll": 839,
      "Ġopened": 840,
      "Ġshiny": 841,
      "Ġadvent": 842,
      "Ġdra": 843,
      "Ġbefore": 844,
      "ons": 845,
      "Ġfast": 846,
      "Ġwind": 847,
      "iff": 848,
      "Ġnoise": 849,
      "dded": 850,
      "Ġreal": 851,
      "Ġcre": 852,
      "age": 853,
      "Ġide": 854,
      "illy": 855,
      "Ben": 856,
      "Ġsto": 857,
      "Ġac": 858,
      "Ġground": 859,
      "Ġcon": 860,
      "Ġcry": 861,
      "Ġey": 862,
      "Ġfar": 863,
      "Ġfr": 864,
      "ied": 865,
      "les": 866,
      "so": 867,
      "Ġexplore": 868,
      "Ġcolor": 869,
      "Ġidea": 870,
      "Ġalso": 871,
      "Ġun": 872,
      "oy": 873,
      "Ġfeeling": 874,
      "thing": 875,
      "What": 876,
      "Ġsmile": 877,
      "ture": 878,
      "Ġthr": 879,
      "Ġpicked": 880,
      "Ġnext": 881,
      "imb": 882,
      "TM": 883,
      "iss": 884,
      "Ġhas": 885,
      "Ġwhile": 886,
      "Ġclimb": 887,
      "Ġwalking": 888,
      "That": 889,
      "Ġbed": 890,
      "Ġadventure": 891,
      "So": 892,
      "ves": 893,
      "ĠDad": 894,
      "Ġnodded": 895,
      "ĠLucy": 896,
      "iced": 897,
      "Ġpicture": 898,
      "Ġtruck": 899,
      "ge": 900,
      "ĠG": 901,
      "eet": 902,
      "hy": 903,
      "aybe": 904,
      "Ġbeing": 905,
      "joy": 906,
      "Ġgive": 907,
      "ious": 908,
      "ted": 909,
      "Ġfood": 910,
      "Thank": 911,
      "Ġdiff": 912,
      "ff": 913,
      "Ġthink": 914,
      "Ġeyes": 915,
      "Ġwait": 916,
      "Ġstopped": 917,
      "ail": 918,
      "Ġtow": 919,
      "aught": 920,
      "Ġlooking": 921,
      "Ġbre": 922,
      "Ġafter": 923,
      "Ġdel": 924,
      "ember": 925,
      "ĠSp": 926,
      "Ġbro": 927,
      "ting": 928,
      "Ġgreat": 929,
      "Ġever": 930,
      "akes": 931,
      "Ġfish": 932,
      "Ġenjoy": 933,
      "ĠSuddenly": 934,
      "Ġlisten": 935,
      "Ġquick": 936,
      "Ġflowers": 937,
      "Ġnoticed": 938,
      "Ġblue": 939,
      "Ġwalk": 940,
      "Ġown": 941,
      "Ġrepl": 942,
      "Ġforest": 943,
      "ized": 944,
      "bbit": 945,
      "Ġvo": 946,
      "Ġhands": 947,
      "She": 948,
      "Ġrain": 949,
      "Suddenly": 950,
      "Ġremember": 951,
      "Ġshout": 952,
      "maz": 953,
      "Ġamaz": 954,
      "Ġdis": 955,
      "Ġapp": 956,
      "irst": 957,
      "Ġimport": 958,
      "Ġnear": 959,
      "Ġeveryone": 960,
      "Ġhead": 961,
      "Ġcr": 962,
      "Ġsound": 963,
      "Ġshowed": 964,
      "Ġslide": 965,
      "bye": 966,
      "Ġwonder": 967,
      "Ġwork": 968,
      "Ġmean": 969,
      "Ġrabbit": 970,
      "Ġstrong": 971,
      "gan": 972,
      "Ġbright": 973,
      "llow": 974,
      "Ġimportant": 975,
      "Ġwatch": 976,
      "bbed": 977,
      "Ġtal": 978,
      "Ġask": 979,
      "Ġright": 980,
      "Ġokay": 981,
      "day": 982,
      "Ġwatched": 983,
      "lease": 984,
      "Ġreplied": 985,
      "Ġquickly": 986,
      "Ġdiffer": 987,
      "We": 988,
      "Ġstick": 989,
      "Ġuse": 990,
      "Ġsqu": 991,
      "Ġboat": 992,
      "Ġfollow": 993,
      "Ġsure": 994,
      "Ġwhere": 995,
      "Ġstore": 996,
      "ered": 997,
      "Ġyear": 998,
      "ĠN": 999,
      "Ġbeen": 1000,
      "Ġgoodbye": 1001,
      "Ġmor": 1002,
      "Ġplace": 1003,
      "ath": 1004,
      "ance": 1005,
      "Ġyell": 1006,
      "ĠBob": 1007,
      "ĠSpot": 1008,
      "ange": 1009,
      "ct": 1010,
      "Ġface": 1011,
      "Ġchild": 1012,
      "Anna": 1013,
      "Ġour": 1014,
      "Ġbecame": 1015,
      "Ġdoes": 1016,
      "Ġhigh": 1017,
      "Ġdifferent": 1018,
      "Ġwarm": 1019,
      "Ġdress": 1020,
      "Ġwr": 1021,
      "Ġvoice": 1022,
      "ĠMommy": 1023,
      "Ġcuri": 1024,
      "Ġhop": 1025,
      "Ġmag": 1026,
      "Ġar": 1027,
      "ĠR": 1028,
      "ila": 1029,
      "Ġcloser": 1030,
      "co": 1031,
      "Look": 1032,
      "ĠSue": 1033,
      "Ġtell": 1034,
      "Ġforg": 1035,
      "Ġde": 1036,
      "Sara": 1037,
      "anc": 1038,
      "ndma": 1039,
      "Ġam": 1040,
      "leep": 1041,
      "lly": 1042,
      "Ġnight": 1043,
      "Ġcurious": 1044,
      "more": 1045,
      "Ġanymore": 1046,
      "Ġbel": 1047,
      "Ġcook": 1048,
      "Ġtra": 1049,
      "itc": 1050,
      "ached": 1051,
      "Jo": 1052,
      "Ġfav": 1053,
      "Ġcake": 1054,
      "ount": 1055,
      "Ġopen": 1056,
      "ired": 1057,
      "Ġblock": 1058,
      "Ġthree": 1059,
      "imes": 1060,
      "Ġz": 1061,
      "kes": 1062,
      "Her": 1063,
      "Ġbutter": 1064,
      "Ġfirst": 1065,
      "Ġpu": 1066,
      "Ġgrabbed": 1067,
      "ĠTh": 1068,
      "Ġpull": 1069,
      "Ġhere": 1070,
      "Ġpain": 1071,
      "Ġshar": 1072,
      "Ġbus": 1073,
      "Ġkid": 1074,
      "Ġfell": 1075,
      "Ġsweet": 1076,
      "Ġhelped": 1077,
      "Ġcont": 1078,
      "Ġbit": 1079,
      "itchen": 1080,
      "Ġkitchen": 1081,
      "Ġonly": 1082,
      "Can": 1083,
      "unny": 1084,
      "Ġbirds": 1085,
      "Ġflo": 1086,
      "orn": 1087,
      "Ġper": 1088,
      "Ġjumped": 1089,
      "Ġsand": 1090,
      "Ġhappened": 1091,
      "Ġdr": 1092,
      "Ġglad": 1093,
      "Ġsees": 1094,
      "ppy": 1095,
      "Ġgrass": 1096,
      "Ġstop": 1097,
      "ars": 1098,
      "Ġsing": 1099,
      "ĠEveryone": 1100,
      "Ġbeh": 1101,
      "After": 1102,
      "Ġru": 1103,
      "isy": 1104,
      "ĠJane": 1105,
      "Ġfire": 1106,
      "Ġreached": 1107,
      "Ġbrother": 1108,
      "Ġrealized": 1109,
      "Ġtri": 1110,
      "Ġyummy": 1111,
      "oon": 1112,
      "nts": 1113,
      "Ġgame": 1114,
      "Ġthrough": 1115,
      "Ġhaving": 1116,
      "uff": 1117,
      "Ġshouted": 1118,
      "Ġprin": 1119,
      "ĠSarah": 1120,
      "Ġlady": 1121,
      "ĠAs": 1122,
      "Ġmess": 1123,
      "Ġdraw": 1124,
      "Ġate": 1125,
      "ĠLet": 1126,
      "Ġsoft": 1127,
      "zy": 1128,
      "Ġrest": 1129,
      "Ġready": 1130,
      "ĠDo": 1131,
      "where": 1132,
      "Ġba": 1133,
      "ins": 1134,
      "Ġmum": 1135,
      "ater": 1136,
      "ully": 1137,
      "Ġless": 1138,
      "Ġreally": 1139,
      "Ġlearn": 1140,
      "Ġbegan": 1141,
      "Ġhat": 1142,
      "Ġunderst": 1143,
      "Ġfavor": 1144,
      "ather": 1145,
      "Ġthing": 1146,
      "Ġtired": 1147,
      "Ġmagic": 1148,
      "Ġfavorite": 1149,
      "'re": 1150,
      "Ġpretend": 1151,
      "Ġpare": 1152,
      "Ġhimself": 1153,
      "Ġdone": 1154,
      "Ġwaved": 1155,
      "Ġworld": 1156,
      "Ġmaking": 1157,
      "ary": 1158,
      "Ġfill": 1159,
      "Ġpond": 1160,
      "Ġcoming": 1161,
      "Ġfix": 1162,
      "Ġkids": 1163,
      "Ġbutterf": 1164,
      "Ġpap": 1165,
      "Ġlooks": 1166,
      "Ġcatch": 1167,
      "Mommy": 1168,
      "ĠThat": 1169,
      "Ġbunny": 1170,
      "fully": 1171,
      "Ġpart": 1172,
      "Ġste": 1173,
      "Ġused": 1174,
      "Ġcut": 1175,
      "Ġduck": 1176,
      "Ġwhy": 1177,
      "Ġprom": 1178,
      "Ġcars": 1179,
      "Ġfunny": 1180,
      "Ġseen": 1181,
      "bo": 1182,
      "Ġworry": 1183,
      "olly": 1184,
      "Ġtouch": 1185,
      "Ġname": 1186,
      "ĠCan": 1187,
      "Ġflower": 1188,
      "Ġanother": 1189,
      "Wow": 1190,
      "Ġtast": 1191,
      "ren": 1192,
      "ĠJoe": 1193,
      "ash": 1194,
      "Ġturn": 1195,
      "Ġtop": 1196,
      "Ġfro": 1197,
      "Ġdelic": 1198,
      "oney": 1199,
      "Ġswim": 1200,
      "ient": 1201,
      "rel": 1202,
      "Ġpus": 1203,
      "Ġcool": 1204,
      "iver": 1205,
      "Ġmouse": 1206,
      "mer": 1207,
      "Ġparents": 1208,
      "Ġlight": 1209,
      "Ġcried": 1210,
      "Ġperf": 1211,
      "Ġgi": 1212,
      "ĠJohn": 1213,
      "Ġhair": 1214,
      "Ġsmell": 1215,
      "eddy": 1216,
      "Ġgreen": 1217,
      "Ġblocks": 1218,
      "Ġhold": 1219,
      "Timmy": 1220,
      "Ġworked": 1221,
      "Ġthank": 1222,
      "As": 1223,
      "Ġfloor": 1224,
      "ation": 1225,
      "Ġhopped": 1226,
      "Ġbag": 1227,
      "Ġsurprise": 1228,
      "Ġbehind": 1229,
      "ards": 1230,
      "Ġdri": 1231,
      "ign": 1232,
      "Ġfull": 1233,
      "Don": 1234,
      "Ġwished": 1235,
      "Ġread": 1236,
      "Ġdoing": 1237,
      "Ġlikes": 1238,
      "Ġrunning": 1239,
      "aisy": 1240,
      "Ġdro": 1241,
      "Ġsleep": 1242,
      "Ġtrees": 1243,
      "andy": 1244,
      "Ġbow": 1245,
      "ued": 1246,
      "Ġdin": 1247,
      "Ġwindow": 1248,
      "Ġspot": 1249,
      "Sam": 1250,
      "Ġsho": 1251,
      "Ġlesson": 1252,
      "Ġyears": 1253,
      "Ġwood": 1254,
      "Ġwear": 1255,
      "Ġyellow": 1256,
      "Ġ-": 1257,
      "Ġdark": 1258,
      "Ġset": 1259,
      "Ġremembered": 1260,
      "Ġleav": 1261,
      "Ġpaper": 1262,
      "Ġslow": 1263,
      "Ġsurprised": 1264,
      "\".": 1265,
      "Ġsat": 1266,
      "Ġcold": 1267,
      "Ġswing": 1268,
      "Ġlaugh": 1269,
      "ike": 1270,
      "Ġhole": 1271,
      "Ġhappily": 1272,
      "John": 1273,
      "Ġneeded": 1274,
      "Ġbutterfly": 1275,
      "Ġcarefully": 1276,
      "ĠIn": 1277,
      "ely": 1278,
      "Ġmove": 1279,
      "Ġtall": 1280,
      "Ġheld": 1281,
      "Ġanything": 1282,
      "Ġlost": 1283,
      "uit": 1284,
      "Ġbuy": 1285,
      "Ġfrog": 1286,
      "TMs": 1287,
      "Ġice": 1288,
      "Ġhear": 1289,
      "Ġfinished": 1290,
      "Ġleft": 1291,
      "Ġwrong": 1292,
      "Ġair": 1293,
      "ens": 1294,
      "Ġenjoyed": 1295,
      "Ġfair": 1296,
      "inally": 1297,
      "Ġdream": 1298,
      "Hell": 1299,
      "Hello": 1300,
      "ĠAfter": 1301,
      "ined": 1302,
      "Ġarri": 1303,
      "Ġchildren": 1304,
      "Ġhun": 1305,
      "cess": 1306,
      "Ġfollowed": 1307,
      "ross": 1308,
      "Ġcast": 1309,
      "Ġel": 1310,
      "Ġherself": 1311,
      "Ġdir": 1312,
      "ream": 1313,
      "Ġhill": 1314,
      "reed": 1315,
      "anger": 1316,
      "Ġcontin": 1317,
      "Ġdelicious": 1318,
      "th": 1319,
      "Ġpre": 1320,
      "Ġclose": 1321,
      "Ġmus": 1322,
      "Ġrel": 1323,
      "Ġhid": 1324,
      "Ġtable": 1325,
      "Ġforgot": 1326,
      "Ġfriendly": 1327,
      "Ġsnow": 1328,
      "Ġunderstand": 1329,
      "Ġhot": 1330,
      "ken": 1331,
      "Ġbooks": 1332,
      "Ġarm": 1333,
      "Ġcra": 1334,
      "Ġbug": 1335,
      "ds": 1336,
      "Ġbuild": 1337,
      "ĠBenny": 1338,
      "ield": 1339,
      "Ġelse": 1340,
      "Ġbaby": 1341,
      "Ġable": 1342,
      "ĠLila": 1343,
      "asure": 1344,
      "lf": 1345,
      "Ġcolors": 1346,
      "Ġmight": 1347,
      "Ġgone": 1348,
      "Ġarrived": 1349,
      "Ġwonderful": 1350,
      "Ġplease": 1351,
      "Ġgent": 1352,
      "Ġfilled": 1353,
      "atter": 1354,
      "Ġcreat": 1355,
      "Ġbroken": 1356,
      "Then": 1357,
      "ĠSally": 1358,
      "ud": 1359,
      "ĠNow": 1360,
      "ner": 1361,
      "Ġtight": 1362,
      "Ġyes": 1363,
      "sp": 1364,
      "Ġsomeone": 1365,
      "room": 1366,
      "Ġsong": 1367,
      "Ġwants": 1368,
      "Ġleaves": 1369,
      "Ġfur": 1370,
      "Ġwall": 1371,
      "Ġcontinued": 1372,
      "ich": 1373,
      "Ġla": 1374,
      "irrel": 1375,
      "ĠThere": 1376,
      "ence": 1377,
      "Jack": 1378,
      "OK": 1379,
      "ask": 1380,
      "ger": 1381,
      "Ġcount": 1382,
      "ĠDaisy": 1383,
      "Ġagreed": 1384,
      "ĠEm": 1385,
      "Ġstayed": 1386,
      "Ġscary": 1387,
      "Ġsquirrel": 1388,
      "From": 1389,
      "Ġfinally": 1390,
      "Ġbreak": 1391,
      "Ġenough": 1392,
      "icy": 1393,
      "Ġmorning": 1394,
      "Ġlion": 1395,
      "Ġcomp": 1396,
      "ey": 1397,
      "Ġvis": 1398,
      "app": 1399,
      "Ġbar": 1400,
      "Ġpink": 1401,
      "Ġmoment": 1402,
      "Ġpoin": 1403,
      "Ġcastle": 1404,
      "Ġgetting": 1405,
      "ries": 1406,
      "'ll": 1407,
      "Ġgrandma": 1408,
      "aces": 1409,
      "Ġamazing": 1410,
      "Ġfall": 1411,
      "Ġpi": 1412,
      "Ġwet": 1413,
      "ee": 1414,
      "apped": 1415,
      "oup": 1416,
      "ĠMaybe": 1417,
      "Ġperfect": 1418,
      "Ġpictures": 1419,
      "Ġhungry": 1420,
      "Ġdinner": 1421,
      "Ġsmiles": 1422,
      "Ġmakes": 1423,
      "At": 1424,
      "Ġfew": 1425,
      "ĠThis": 1426,
      "oom": 1427,
      "Ġsometimes": 1428,
      "rot": 1429,
      "Ġfight": 1430,
      "Ġbeach": 1431,
      "row": 1432,
      "Ġturned": 1433,
      "ama": 1434,
      "Ġcookies": 1435,
      "Ġtrying": 1436,
      "ĠTommy": 1437,
      "gon": 1438,
      "Ġclot": 1439,
      "Ġmar": 1440,
      "oring": 1441,
      "Ġclimbed": 1442,
      "Ġothers": 1443,
      "Ġmiss": 1444,
      "Ġmet": 1445,
      "Ġpuppy": 1446,
      "ĠWhat": 1447,
      "ĠGra": 1448,
      "Ġclothes": 1449,
      "Ġdaddy": 1450,
      "Ġcream": 1451,
      "ĠK": 1452,
      "Ġtalk": 1453,
      "os": 1454,
      "Ġwhite": 1455,
      "Ġlistened": 1456,
      "ĠBilly": 1457,
      "Ġmother": 1458,
      "This": 1459,
      "Ġtail": 1460,
      "Ġwasn": 1461,
      "Ġjoy": 1462,
      "red": 1463,
      "man": 1464,
      "Ġbrought": 1465,
      "Ġspl": 1466,
      "Ġdanc": 1467,
      "His": 1468,
      "Ġthre": 1469,
      "Ġsail": 1470,
      "Ġsear": 1471,
      "aster": 1472,
      "Ġstrange": 1473,
      "ated": 1474,
      "amp": 1475,
      "Ġeverything": 1476,
      "der": 1477,
      "key": 1478,
      "wl": 1479,
      "uffy": 1480,
      "Ġpet": 1481,
      "Ġpol": 1482,
      "Ġspark": 1483,
      "Ġroll": 1484,
      "ĠJen": 1485,
      "Ġalone": 1486,
      "ucky": 1487,
      "ĠTo": 1488,
      "Ġsit": 1489,
      "Ġgrow": 1490,
      "elc": 1491,
      "Ġwoods": 1492,
      "eter": 1493,
      "Ġdeep": 1494,
      "Ġride": 1495,
      "ott": 1496,
      "Ġpie": 1497,
      "Ġwaited": 1498,
      "Ġasks": 1499,
      "Ġamazed": 1500,
      "ever": 1501,
      "Oh": 1502,
      "Ġju": 1503,
      "sh": 1504,
      "ower": 1505,
      "Ġpulled": 1506,
      "Ġvisit": 1507,
      "Ġplan": 1508,
      "Ġleave": 1509,
      "Ġdanger": 1510,
      "Ġcloud": 1511,
      "Ġmusic": 1512,
      "Ġwon": 1513,
      "orm": 1514,
      "Ġpat": 1515,
      "ister": 1516,
      "zz": 1517,
      "Ġhide": 1518,
      "Ġlake": 1519,
      "Ġthinks": 1520,
      "Ġsilly": 1521,
      "ope": 1522,
      "Ġruns": 1523,
      "thy": 1524,
      "Ġowner": 1525,
      "Ġtowards": 1526,
      "ames": 1527,
      "Ġfox": 1528,
      "Ġflying": 1529,
      "Ġtreat": 1530,
      "Ġpen": 1531,
      "Ġfield": 1532,
      "Ġland": 1533,
      "Ġside": 1534,
      "ugg": 1535,
      "onster": 1536,
      "Ġteddy": 1537,
      "Ġpa": 1538,
      "gs": 1539,
      "Max": 1540,
      "Ġpromised": 1541,
      "cket": 1542,
      "Ġcup": 1543,
      "Ġbelie": 1544,
      "Ġmonster": 1545,
      "med": 1546,
      "ĠAmy": 1547,
      "Ġparty": 1548,
      "ained": 1549,
      "Ġliving": 1550,
      "eces": 1551,
      "igg": 1552,
      "Ġqui": 1553,
      "Maybe": 1554,
      "ape": 1555,
      "Ġmoney": 1556,
      "ises": 1557,
      "Ġshared": 1558,
      "Ġpieces": 1559,
      "Ġfaster": 1560,
      "Ġgrate": 1561,
      "Ġrace": 1562,
      "sw": 1563,
      "Ġdance": 1564,
      "Ġworried": 1565,
      "Ġslowly": 1566,
      "Ġansw": 1567,
      "Ġsec": 1568,
      "Ġgrateful": 1569,
      "Ġpaint": 1570,
      "avy": 1571,
      "Ġtreasure": 1572,
      "Okay": 1573,
      "ually": 1574,
      "Ġgu": 1575,
      "ix": 1576,
      "Ġbigger": 1577,
      "Ġquiet": 1578,
      "Ġblank": 1579,
      "cle": 1580,
      "Ġbott": 1581,
      "Ġsuch": 1582,
      "Ġgif": 1583,
      "unch": 1584,
      "Ġcandy": 1585,
      "Ġmust": 1586,
      "Ġmoral": 1587,
      "ĠAll": 1588,
      "Ġsnack": 1589,
      "up": 1590,
      "Ġcolorful": 1591,
      "ĠJim": 1592,
      "Ġplant": 1593,
      "Ġreach": 1594,
      "ctor": 1595,
      "Ġpot": 1596,
      "ol": 1597,
      "ling": 1598,
      "fort": 1599,
      "Ġwelc": 1600,
      "Ġstar": 1601,
      "Ġblanket": 1602,
      "ased": 1603,
      "Ġem": 1604,
      "ze": 1605,
      "Ġtrain": 1606,
      "Ġjob": 1607,
      "Ġmagical": 1608,
      "outh": 1609,
      "Ġbroke": 1610,
      "Ġele": 1611,
      "Ġblack": 1612,
      "ire": 1613,
      "less": 1614,
      "Ġnap": 1615,
      "ph": 1616,
      "me": 1617,
      "Ġpro": 1618,
      "Ġmouth": 1619,
      "Ġriver": 1620,
      "Ġeverywhere": 1621,
      "Ġjoin": 1622,
      "Ġsister": 1623,
      "Ġje": 1624,
      "Ġsmart": 1625,
      "Ġkiss": 1626,
      "Ġcho": 1627,
      "set": 1628,
      "used": 1629,
      "Ġprincess": 1630,
      "Ġmost": 1631,
      "Ġbike": 1632,
      "Ġdolls": 1633,
      "ng": 1634,
      "Ġscream": 1635,
      "Ġmon": 1636,
      "Ġfarmer": 1637,
      "Ġhelping": 1638,
      "Ġcarrot": 1639,
      "ming": 1640,
      "Ġwin": 1641,
      "Ġbee": 1642,
      "ipped": 1643,
      "Ġacross": 1644,
      "Ġdangerous": 1645,
      "Ġthrew": 1646,
      "vel": 1647,
      "Ġheal": 1648,
      "Ġdoctor": 1649,
      "Ġsame": 1650,
      "Sure": 1651,
      "ident": 1652,
      "ĠFl": 1653,
      "Ġacc": 1654,
      "Ġcrying": 1655,
      "Ġstepped": 1656,
      "Ġbowl": 1657,
      "Ġspr": 1658,
      "bble": 1659,
      "Ġheavy": 1660,
      "ored": 1661,
      "Ġbath": 1662,
      "Ġdirty": 1663,
      "ĠMolly": 1664,
      "Ġtower": 1665,
      "Ġwords": 1666,
      "ĠDaddy": 1667,
      "Ġdragon": 1668,
      "eared": 1669,
      "Ġbuck": 1670,
      "Ġdisapp": 1671,
      "Ġhig": 1672,
      "Ġpass": 1673,
      "Ġteac": 1674,
      "Ġatt": 1675,
      "Ġbelieve": 1676,
      "Ġbite": 1677,
      "Ġmonkey": 1678,
      "Ġtwins": 1679,
      "Ġfruit": 1680,
      "ĠJill": 1681,
      "Ġcoll": 1682,
      "Why": 1683,
      "Ġwouldn": 1684,
      "Ġclosed": 1685,
      "Ġstuck": 1686,
      "Ġballoon": 1687,
      "Ġsign": 1688,
      "br": 1689,
      "Ġmix": 1690,
      "Hi": 1691,
      "chool": 1692,
      "Ġbutt": 1693,
      "iting": 1694,
      "Ġhoped": 1695,
      "Ġheart": 1696,
      "asket": 1697,
      "Ġbasket": 1698,
      "Ġtown": 1699,
      "Ġeating": 1700,
      "af": 1701,
      "cked": 1702,
      "Ġpers": 1703,
      "TMt": 1704,
      "Ġmin": 1705,
      "Ġschool": 1706,
      "Mia": 1707,
      "Ġteacher": 1708,
      "Ġcour": 1709,
      "Ġfeels": 1710,
      "Ġfairy": 1711,
      "Ġclapped": 1712,
      "Ġhit": 1713,
      "Ġneigh": 1714,
      "Ġcheered": 1715,
      "Ġhigher": 1716,
      "Ġpack": 1717,
      "ĠMr": 1718,
      "Ġsuddenly": 1719,
      "Ġgentle": 1720,
      "umb": 1721,
      "Ġbrown": 1722,
      "ventually": 1723,
      "Ġyard": 1724,
      "Ġneighb": 1725,
      "Ġaccident": 1726,
      "Ġwithout": 1727,
      "Ġtoday": 1728,
      "ier": 1729,
      "Ġstand": 1730,
      "Ġcray": 1731,
      "Ġchair": 1732,
      "Ġpushed": 1733,
      "ord": 1734,
      "Ġcourse": 1735,
      "Ġpocket": 1736,
      "Ġdry": 1737,
      "Ġwings": 1738,
      "Ġforget": 1739,
      "Ġsmo": 1740,
      "pping": 1741,
      "orrow": 1742,
      "Ġgames": 1743,
      "Ġwelcome": 1744,
      "ster": 1745,
      "Ġfree": 1746,
      "Finally": 1747,
      "ors": 1748,
      "Ġthrow": 1749,
      "Ġlonger": 1750,
      "Ġhappen": 1751,
      "Ġfence": 1752,
      "Ġdrove": 1753,
      "Ġswings": 1754,
      "ourn": 1755,
      "ract": 1756,
      "Ġlon": 1757,
      "Ġjourn": 1758,
      "Ġpiece": 1759,
      "Ġnoises": 1760,
      "Ġgift": 1761,
      "Ġalong": 1762,
      "Ġlonely": 1763,
      "Ġcorn": 1764,
      "ress": 1765,
      "Lila": 1766,
      "Ġexplained": 1767,
      "Ġturns": 1768,
      "Ġhugs": 1769,
      "ho": 1770,
      "Ġupset": 1771,
      "de": 1772,
      "Ġsea": 1773,
      "Ġsinging": 1774,
      "ead": 1775,
      "Ġstories": 1776,
      "Ġsang": 1777,
      "Ġwell": 1778,
      "Ġneck": 1779,
      "Ġbucket": 1780,
      "Ġadventures": 1781,
      "ible": 1782,
      "Ġshoes": 1783,
      "Ġmat": 1784,
      "itting": 1785,
      "ek": 1786,
      "Ġben": 1787,
      "Ġswam": 1788,
      "Ġwhe": 1789,
      "Ġpast": 1790,
      "Ġlate": 1791,
      "Ġinst": 1792,
      "Ġbring": 1793,
      "Ġstars": 1794,
      "Ġsecret": 1795,
      "Ġyoung": 1796,
      "Ġsoup": 1797,
      "Ġmoved": 1798,
      "phant": 1799,
      "ĠGrandma": 1800,
      "Ġtrou": 1801,
      "Ġwish": 1802,
      "Ġrocks": 1803,
      "Ġtaking": 1804,
      "oun": 1805,
      "Ġshop": 1806,
      "Ġcaught": 1807,
      "Ġapple": 1808,
      "Ġdropped": 1809,
      "yard": 1810,
      "Ġlunch": 1811,
      "Ġdrink": 1812,
      "Ġjuice": 1813,
      "Ġjar": 1814,
      "ountain": 1815,
      "Ġnaught": 1816,
      "ĠMary": 1817,
      "Ġexploring": 1818,
      "Ġelephant": 1819,
      "Ġbackyard": 1820,
      "Ġnaughty": 1821,
      "Ġshook": 1822,
      "ward": 1823,
      "ocked": 1824,
      "ush": 1825,
      "fused": 1826,
      "Ġstre": 1827,
      "Ġbelong": 1828,
      "Ġshap": 1829,
      "Ġph": 1830,
      "ĠEmma": 1831,
      "llo": 1832,
      "Ġowl": 1833,
      "Ġstreet": 1834,
      "Ġexp": 1835,
      "Ġve": 1836,
      "Ġwise": 1837,
      "Ġseemed": 1838,
      "Ġkey": 1839,
      "bby": 1840,
      "Ġwoke": 1841,
      "Ġtiny": 1842,
      "Ġpig": 1843,
      "Ġorange": 1844,
      "Ġcou": 1845,
      "ung": 1846,
      "Ġnearby": 1847,
      "ub": 1848,
      "bow": 1849,
      "Ġbusy": 1850,
      "Ġtom": 1851,
      "Do": 1852,
      "Ġ3": 1853,
      "Ġrelie": 1854,
      "Ġes": 1855,
      "ions": 1856,
      "Ġinv": 1857,
      "Ġthough": 1858,
      "Ġsick": 1859,
      "sy": 1860,
      "ĠThank": 1861,
      "Ġfarm": 1862,
      "aughter": 1863,
      "Ġtakes": 1864,
      "Ġpurp": 1865,
      "Ġshapes": 1866,
      "ining": 1867,
      "adow": 1868,
      "ment": 1869,
      "Ġdes": 1870,
      "And": 1871,
      "Ġmail": 1872,
      "Ġspo": 1873,
      "ĠFluffy": 1874,
      "Ġaf": 1875,
      "Ġca": 1876,
      "Ġmark": 1877,
      "Ġnose": 1878,
      "Ġresp": 1879,
      "Ġforever": 1880,
      "ese": 1881,
      "pper": 1882,
      "Ġob": 1883,
      "ose": 1884,
      "col": 1885,
      "Ġarms": 1886,
      "Ġwondered": 1887,
      "Ġmine": 1888,
      "Ġcow": 1889,
      "Ġkite": 1890,
      "ity": 1891,
      "Ġcarry": 1892,
      "ittens": 1893,
      "Ġrainbow": 1894,
      "Ġsounds": 1895,
      "ĠInside": 1896,
      "Ġhuge": 1897,
      "Ġround": 1898,
      "Ġwhist": 1899,
      "idge": 1900,
      "fish": 1901,
      "anch": 1902,
      "Ġsitting": 1903,
      "Ġbranch": 1904,
      "Ġcir": 1905,
      "Ġmil": 1906,
      "Ġpurple": 1907,
      "Ġdaughter": 1908,
      "Ġnest": 1909,
      "ours": 1910,
      "vered": 1911,
      "Ġcomes": 1912,
      "irt": 1913,
      "Ġbench": 1914,
      "Ġpeace": 1915,
      "Ġdriver": 1916,
      "Ġboun": 1917,
      "Ġmad": 1918,
      "raid": 1919,
      "Ġking": 1920,
      "Ġfit": 1921,
      "Ġnothing": 1922,
      "Ġafraid": 1923,
      "Ġpatient": 1924,
      "thday": 1925,
      "Ġhello": 1926,
      "ĠFinally": 1927,
      "Ġcreature": 1928,
      "uched": 1929,
      "Ġtouched": 1930,
      "Ġcute": 1931,
      "Ġwar": 1932,
      "board": 1933,
      "Ġswimming": 1934,
      "Ġholding": 1935,
      "ĠO": 1936,
      "Ġinter": 1937,
      "Ġlift": 1938,
      "shine": 1939,
      "Ġrelieved": 1940,
      "let": 1941,
      "Ġshell": 1942,
      "Ġletter": 1943,
      "gg": 1944,
      "Ġear": 1945,
      "Ġlife": 1946,
      "weet": 1947,
      "Ġexciting": 1948,
      "Ġaccidentally": 1949,
      "Ġcoat": 1950,
      "Ġpromise": 1951,
      "Ġsunshine": 1952,
      "Ġgrab": 1953,
      "Ġwra": 1954,
      "tur": 1955,
      "Ġfing": 1956,
      "ĠSammy": 1957,
      "Ġcheese": 1958,
      "itch": 1959,
      "Ġlaughing": 1960,
      "Ġinterest": 1961,
      "Ġdays": 1962,
      "Ġonto": 1963,
      "Of": 1964,
      "Ġband": 1965,
      "Ġbirthday": 1966,
      "Ġdisco": 1967,
      "Ġcollect": 1968,
      "ped": 1969,
      "ĠSoon": 1970,
      "Ġbread": 1971,
      "Ġgigg": 1972,
      "Ġjourney": 1973,
      "la": 1974,
      "Ġinc": 1975,
      "Ġretur": 1976,
      "Ġhor": 1977,
      "eth": 1978,
      "Ġmilk": 1979,
      "Ġmist": 1980,
      "Ġcomfort": 1981,
      "ten": 1982,
      "Ġcave": 1983,
      "ĠCome": 1984,
      "Ġspin": 1985,
      "Ġlucky": 1986,
      "Ġgives": 1987,
      "Ġcozy": 1988,
      "ness": 1989,
      "Ġpower": 1990,
      "Hey": 1991,
      "og": 1992,
      "Ġhope": 1993,
      "Ġsunny": 1994,
      "Later": 1995,
      "ears": 1996,
      "Ġpudd": 1997,
      "Ġbottle": 1998,
      "Ġsearched": 1999,
      "Ġsmiling": 2000,
      "Ġinstead": 2001,
      "Ġperson": 2002,
      "ĠMama": 2003,
      "ball": 2004,
      "itten": 2005,
      "Ġgather": 2006,
      "Ġputs": 2007,
      "Ġpointed": 2008,
      "Ġeas": 2009,
      "Ġimag": 2010,
      "gged": 2011,
      "Ġanyone": 2012,
      "els": 2013,
      "alm": 2014,
      "Ġhealthy": 2015,
      "Ġplane": 2016,
      "Ġkick": 2017,
      "Ġbush": 2018,
      "Ġhoney": 2019,
      "ize": 2020,
      "Ġce": 2021,
      "Ġbought": 2022,
      "Ġwatching": 2023,
      "oman": 2024,
      "Ġroad": 2025,
      "Ġsuc": 2026,
      "Ġtasty": 2027,
      "Ġrope": 2028,
      "Ġwoman": 2029,
      "Ġtalked": 2030,
      "blem": 2031,
      "Ġlater": 2032,
      "Ġpres": 2033,
      "Ġproblem": 2034,
      "Tommy": 2035,
      "Bob": 2036,
      "Ġsharp": 2037,
      "unt": 2038,
      "Ġbutton": 2039,
      "Ġshining": 2040,
      "Ġclouds": 2041,
      "ove": 2042,
      "Ġent": 2043,
      "Ġsu": 2044,
      "Ġsandw": 2045,
      "Ġmeet": 2046,
      "Ġtrouble": 2047,
      "Ġsmelled": 2048,
      "Ġzoom": 2049,
      "Ġwide": 2050,
      "Ġstorm": 2051,
      "Ġadm": 2052,
      "Ġapples": 2053,
      "Ġspoon": 2054,
      "Ġclever": 2055,
      "Ġinteresting": 2056,
      "Ġpile": 2057,
      "Ġzoo": 2058,
      "Ġdist": 2059,
      "Ġpract": 2060,
      "ndp": 2061,
      "Ġroar": 2062,
      "aced": 2063,
      "Ġloves": 2064,
      "Good": 2065,
      "Ġhorse": 2066,
      "ert": 2067,
      "Ġducks": 2068,
      "Ġquest": 2069,
      "Ġres": 2070,
      "owed": 2071,
      "ĠWith": 2072,
      "Ġcrayons": 2073,
      "Ġspid": 2074,
      "Ġvill": 2075,
      "Ġmatter": 2076,
      "Ġhon": 2077,
      "Ġpresent": 2078,
      "epend": 2079,
      "Ġpar": 2080,
      "Ġpop": 2081,
      "Ġcard": 2082,
      "Ġfeather": 2083,
      "ont": 2084,
      "amed": 2085,
      "Ġmach": 2086,
      "Ġorgan": 2087,
      "Ġsnowman": 2088,
      "cks": 2089,
      "Ġsaf": 2090,
      "Ġap": 2091,
      "Ġseat": 2092,
      "Ġeag": 2093,
      "een": 2094,
      "Ġbur": 2095,
      "Ġfront": 2096,
      "Ġsur": 2097,
      "ometimes": 2098,
      "Ġwhich": 2099,
      "Ġdanced": 2100,
      "Ġwhole": 2101,
      "ĠTweet": 2102,
      "Ġanswer": 2103,
      "Ġneighbor": 2104,
      "ond": 2105,
      "ale": 2106,
      "Ġlovely": 2107,
      "Ġpill": 2108,
      "Lucy": 2109,
      "Ġmyster": 2110,
      "Ġprot": 2111,
      "Ġstu": 2112,
      "Ġtrip": 2113,
      "Ġgiant": 2114,
      "Ġspotted": 2115,
      "Ġappeared": 2116,
      "lla": 2117,
      "ching": 2118,
      "Ġcheer": 2119,
      "Ġwild": 2120,
      "erly": 2121,
      "aur": 2122,
      "Ġgoes": 2123,
      "ÅĵI": 2124,
      "Ġact": 2125,
      "Ġrespect": 2126,
      "oose": 2127,
      "Ġasleep": 2128,
      "Ġprotect": 2129,
      "Ġsnake": 2130,
      "Ġpath": 2131,
      "Ġbark": 2132,
      "Ġscreamed": 2133,
      "isa": 2134,
      "Ġminut": 2135,
      "cean": 2136,
      "Ġrolled": 2137,
      "Ġocean": 2138,
      "Ġwearing": 2139,
      "Molly": 2140,
      "Ġdi": 2141,
      "Ġplaces": 2142,
      "izz": 2143,
      "Ġtasted": 2144,
      "Ġlay": 2145,
      "ĠJimmy": 2146,
      "Every": 2147,
      "Ġtun": 2148,
      "Ġpuzz": 2149,
      "Ġval": 2150,
      "ĠMittens": 2151,
      "Ġmed": 2152,
      "Ġshr": 2153,
      "ndpa": 2154,
      "Just": 2155,
      "ular": 2156,
      "Ġteach": 2157,
      "Ġgently": 2158,
      "St": 2159,
      "Ġmud": 2160,
      "ex": 2161,
      "Ġspent": 2162,
      "Ġimpress": 2163,
      "Jim": 2164,
      "ult": 2165,
      "Ġdirt": 2166,
      "Ġthin": 2167,
      "Ġsort": 2168,
      "Come": 2169,
      "Ġmind": 2170,
      "Ġslid": 2171,
      "Ġconfused": 2172,
      "nic": 2173,
      "Ġtries": 2174,
      "Ġser": 2175,
      "Ġpicnic": 2176,
      "Ġcorner": 2177,
      "ones": 2178,
      "Ġphone": 2179,
      "Ġsal": 2180,
      "Ġfaces": 2181,
      "Ġsplas": 2182,
      "Mum": 2183,
      "eb": 2184,
      "Ġbuilding": 2185,
      "ĠGo": 2186,
      "Ġemb": 2187,
      "Ġcouch": 2188,
      "Ġrec": 2189,
      "Ġcoin": 2190,
      "act": 2191,
      "Ġfeet": 2192,
      "Ġwrite": 2193,
      "unk": 2194,
      "Ġring": 2195,
      "Ġlad": 2196,
      "Ġoven": 2197,
      "Ġlive": 2198,
      "Ġsupp": 2199,
      "In": 2200,
      "Ġign": 2201,
      "Ġforgive": 2202,
      "Ġteeth": 2203,
      "Ġpour": 2204,
      "Ġsack": 2205,
      "arge": 2206,
      "read": 2207,
      "itty": 2208,
      "Ġlast": 2209,
      "Ġchick": 2210,
      "Ġdrive": 2211,
      "ĠHow": 2212,
      "Ġfurry": 2213,
      "Ġpretended": 2214,
      "arr": 2215,
      "hile": 2216,
      "Ġash": 2217,
      "Ġrude": 2218,
      "Ġhelpful": 2219,
      "Ġremind": 2220,
      "ĠEmily": 2221,
      "Ġshirt": 2222,
      "arrass": 2223,
      "Ġant": 2224,
      "Ġspread": 2225,
      "Ġworm": 2226,
      "Ġfoot": 2227,
      "Ġdelight": 2228,
      "Ġembarrass": 2229,
      "Ġblew": 2230,
      "Ġmachine": 2231,
      "Ġmountain": 2232,
      "Ġcalm": 2233,
      "Ġeventually": 2234,
      "Ġtid": 2235,
      "als": 2236,
      "umber": 2237,
      "Ġsmooth": 2238,
      "Ġtool": 2239,
      "Ġcookie": 2240,
      "Ġspider": 2241,
      "Ġwave": 2242,
      "ato": 2243,
      "Ġbell": 2244,
      "Ġcart": 2245,
      "Ġladder": 2246,
      "cer": 2247,
      "Ġtalking": 2248,
      "Ġpush": 2249,
      "Ġbugs": 2250,
      "mo": 2251,
      "Ġwhenever": 2252,
      "Ġhiding": 2253,
      "Soon": 2254,
      "Ġcann": 2255,
      "Ġpaw": 2256,
      "Ġpool": 2257,
      "Ġwip": 2258,
      "Ġwaiting": 2259,
      "Ġtomorrow": 2260,
      "Ġban": 2261,
      "Ġshy": 2262,
      "Ġfinish": 2263,
      "Ġcannot": 2264,
      "oph": 2265,
      "bbles": 2266,
      "Ġspray": 2267,
      "Ġbat": 2268,
      "Ġrep": 2269,
      "lex": 2270,
      "ĠJust": 2271,
      "ator": 2272,
      "Ġchocol": 2273,
      "ĠSometimes": 2274,
      "Ġcross": 2275,
      "Ġleaf": 2276,
      "Ġpuddle": 2277,
      "Ġvillage": 2278,
      "Ġcoo": 2279,
      "Ġlarge": 2280,
      "ĠCh": 2281,
      "lebr": 2282,
      "Ġcelebr": 2283,
      "Ġfixed": 2284,
      "Ġstret": 2285,
      "Ġsel": 2286,
      "Ġnet": 2287,
      "Ġchased": 2288,
      "Ġplate": 2289,
      "Ġfighting": 2290,
      "ĠEverywhere": 2291,
      "hnn": 2292,
      "ory": 2293,
      "Ġfold": 2294,
      "Ġwore": 2295,
      "Ġknee": 2296,
      "Ġsongs": 2297,
      "ife": 2298,
      "ighed": 2299,
      "Ġcolour": 2300,
      "Ġrob": 2301,
      "Ġmoon": 2302,
      "Ġstir": 2303,
      "Ġsol": 2304,
      "Ġcloth": 2305,
      "ĠSt": 2306,
      "Ġpeaceful": 2307,
      "Ġneckl": 2308,
      "urse": 2309,
      "Ġtaste": 2310,
      "ungle": 2311,
      "Ġbarked": 2312,
      "Ġcarrots": 2313,
      "iger": 2314,
      "ĠAl": 2315,
      "Ġembarrassed": 2316,
      "Ġtidy": 2317,
      "Ġwhistle": 2318,
      "Ġgen": 2319,
      "hnny": 2320,
      "Ġstra": 2321,
      "Ġjungle": 2322,
      "Ġhum": 2323,
      "old": 2324,
      "getable": 2325,
      "Ġforward": 2326,
      "Ġbanan": 2327,
      "Ġmaybe": 2328,
      "ĠJake": 2329,
      "Ġvegetable": 2330,
      "ĠJenny": 2331,
      "Ġknocked": 2332,
      "Ġstring": 2333,
      "Ġselfish": 2334,
      "Ġgrew": 2335,
      "box": 2336,
      "Ġchocolate": 2337,
      "Ġtreats": 2338,
      "My": 2339,
      "arm": 2340,
      "Ġspe": 2341,
      "Ġwash": 2342,
      "Ġemp": 2343,
      "Ġcrab": 2344,
      "Ġple": 2345,
      "Ġempty": 2346,
      "Ġsave": 2347,
      "Ġfort": 2348,
      "Ġtells": 2349,
      "elly": 2350,
      "ĠLe": 2351,
      "Ġspicy": 2352,
      "umpy": 2353,
      "inted": 2354,
      "Ġcreative": 2355,
      "airs": 2356,
      "ĠPlease": 2357,
      "Ġrobot": 2358,
      "Ġclear": 2359,
      "Ġtrust": 2360,
      "Please": 2361,
      "Ġrocket": 2362,
      "Ġmissed": 2363,
      "Ġstep": 2364,
      "Ġhears": 2365,
      "Ġjumping": 2366,
      "Ġdeter": 2367,
      "Ġtightly": 2368,
      "Ġkitten": 2369,
      "Dad": 2370,
      "Ġdecor": 2371,
      "Ġtea": 2372,
      "Ġdeterm": 2373,
      "Ġint": 2374,
      "most": 2375,
      "Ġ'": 2376,
      "Ġstone": 2377,
      "Ġhonest": 2378,
      "Ġbal": 2379,
      "Ġshelf": 2380,
      "Now": 2381,
      "ground": 2382,
      "Ġdisappo": 2383,
      "Ġsplash": 2384,
      "ian": 2385,
      "Ġalmost": 2386,
      "Ġsheep": 2387,
      "Ġmeant": 2388,
      "den": 2389,
      "Ġpan": 2390,
      "ying": 2391,
      "ches": 2392,
      "ĠSome": 2393,
      "Ġlegs": 2394,
      "Ġnecklace": 2395,
      "ĠTheir": 2396,
      "Mama": 2397,
      "Ġgray": 2398,
      "Ġlanded": 2399,
      "dle": 2400,
      "Ġscre": 2401,
      "Ġsharing": 2402,
      "Ġpizz": 2403,
      "Ġmeadow": 2404,
      "ĠOn": 2405,
      "Ġbounc": 2406,
      "Ġsparkly": 2407,
      "Ġcarried": 2408,
      "ird": 2409,
      "Ġgener": 2410,
      "Ġsour": 2411,
      "Ġbreath": 2412,
      "Ġber": 2413,
      "Ġsticks": 2414,
      "Ġprince": 2415,
      "Ġwhis": 2416,
      "Ġlem": 2417,
      "Ġstood": 2418,
      "Ġsnacks": 2419,
      "Ġjew": 2420,
      "Ġfear": 2421,
      "ustr": 2422,
      "Ġhel": 2423,
      "Ġnut": 2424,
      "Ġhours": 2425,
      "ĠLisa": 2426,
      "Ġhidden": 2427,
      "To": 2428,
      "ĠTV": 2429,
      "Ġpay": 2430,
      "Ġdisappointed": 2431,
      "aw": 2432,
      "Ġshore": 2433,
      "Ġgold": 2434,
      "Ġyelled": 2435,
      "Ġgroup": 2436,
      "Ġseed": 2437,
      "Be": 2438,
      "ĠTeddy": 2439,
      "ĠAnn": 2440,
      "Ġnods": 2441,
      "hin": 2442,
      "ĠMum": 2443,
      "Ġpolite": 2444,
      "ital": 2445,
      "ancy": 2446,
      "Ġvan": 2447,
      "kin": 2448,
      "Ġsuccess": 2449,
      "Ġpizza": 2450,
      "'d": 2451,
      "Ġug": 2452,
      "Ġpillow": 2453,
      "Ġtick": 2454,
      "Ġvase": 2455,
      "Ġsleepy": 2456,
      "Ġashamed": 2457,
      "Ġfrustr": 2458,
      "Ġdrew": 2459,
      "Ġtest": 2460,
      "ano": 2461,
      "Ġhosp": 2462,
      "Ġunderstood": 2463,
      "vous": 2464,
      "ĠEven": 2465,
      "Ġknowing": 2466,
      "Ġugly": 2467,
      "Ġplants": 2468,
      "Ġthese": 2469,
      "ony": 2470,
      "Ġreturned": 2471,
      "Ġgun": 2472,
      "Ġpolice": 2473,
      "lower": 2474,
      "Ġhospital": 2475,
      "Ġline": 2476,
      "ĠWhy": 2477,
      "Ġav": 2478,
      "Ġdeer": 2479,
      "Ġstanding": 2480,
      "oons": 2481,
      "ĠTogether": 2482,
      "ork": 2483,
      "Stop": 2484,
      "Ġgas": 2485,
      "ĠDon": 2486,
      "Ġwhisp": 2487,
      "Sarah": 2488,
      "Ġmessy": 2489,
      "itter": 2490,
      "Ġbedroom": 2491,
      "ĠZ": 2492,
      "Ġthankful": 2493,
      "Ġjelly": 2494,
      "Ġpoor": 2495,
      "llie": 2496,
      "Ġcirc": 2497,
      "There": 2498,
      "Ġdetermined": 2499,
      "Ġpri": 2500,
      "Ġtwirl": 2501,
      "Ġeasy": 2502,
      "Ġgenerous": 2503,
      "Ġpin": 2504,
      "Ġfrustrated": 2505,
      "era": 2506,
      "Ġclass": 2507,
      "Ġmysterious": 2508,
      "Ġblow": 2509,
      "Ġbored": 2510,
      "Ġner": 2511,
      "Ġpuzzle": 2512,
      "Ġtaught": 2513,
      "Ġseek": 2514,
      "Ġcries": 2515,
      "Ġpir": 2516,
      "Ġhur": 2517,
      "Ġsold": 2518,
      "Ġexcite": 2519,
      "ual": 2520,
      "Ġnervous": 2521,
      "Ġoften": 2522,
      "Ġspoil": 2523,
      "Ġwaves": 2524,
      "usie": 2525,
      "Ġwolf": 2526,
      "ote": 2527,
      "Ġflag": 2528,
      "Ġgathered": 2529,
      "Ġfancy": 2530,
      "Jane": 2531,
      "ĠRex": 2532,
      "Ġpassed": 2533,
      "Ġpowerful": 2534,
      "Ġminutes": 2535,
      "Ġglass": 2536,
      "Ġreg": 2537,
      "pack": 2538,
      "Ġsighed": 2539,
      "Ġboring": 2540,
      "Ġrad": 2541,
      "obby": 2542,
      "Ġdancing": 2543,
      "erp": 2544,
      "ĠPeter": 2545,
      "work": 2546,
      "Ġsandwich": 2547,
      "oop": 2548,
      "iddle": 2549,
      "Ġtent": 2550,
      "ina": 2551,
      "Ġlit": 2552,
      "Ġmummy": 2553,
      "Ġmot": 2554,
      "Ġfeed": 2555,
      "Ġyourself": 2556,
      "Ġflut": 2557,
      "Ġfinger": 2558,
      "Ġkissed": 2559,
      "Ġscr": 2560,
      "Ġexcitement": 2561,
      "Where": 2562,
      "uce": 2563,
      "Ġbridge": 2564,
      "ensive": 2565,
      "Ġscarf": 2566,
      "Ġanswered": 2567,
      "Ġfil": 2568,
      "Ġcaterp": 2569,
      "Ġcaterpill": 2570,
      "Ġhang": 2571,
      "izzy": 2572,
      "Ġcloset": 2573,
      "Ġexpensive": 2574,
      "ĠBe": 2575,
      "Ġfig": 2576,
      "Ġgate": 2577,
      "Ġgrumpy": 2578,
      "Ġship": 2579,
      "Ġcomfortable": 2580,
      "Ġsaved": 2581,
      "Ġtears": 2582,
      "aken": 2583,
      "Ġesc": 2584,
      "oof": 2585,
      "Ġdrop": 2586,
      "Ġpacked": 2587,
      "Ġmedic": 2588,
      "Sorry": 2589,
      "Ġleg": 2590,
      "selves": 2591,
      "Ġchew": 2592,
      "illed": 2593,
      "mb": 2594,
      "aser": 2595,
      "Ġweek": 2596,
      "Ġchest": 2597,
      "Ġvegetables": 2598,
      "Ġwander": 2599,
      "Ġgets": 2600,
      "Ġcrawl": 2601,
      "Ġdrum": 2602,
      "Ġspend": 2603,
      "ĠLeo": 2604,
      "ates": 2605,
      "Ġboss": 2606,
      "ets": 2607,
      "Ġworking": 2608,
      "Ġmedicine": 2609,
      "iness": 2610,
      "Ġmiddle": 2611,
      "Ġhopping": 2612,
      "Ġtrue": 2613,
      "Ġtaken": 2614,
      "ĠJohnny": 2615,
      "light": 2616,
      "Ġbone": 2617,
      "Ġcaterpillar": 2618,
      "Ġsmelly": 2619,
      "Ġknight": 2620,
      "Ġpicks": 2621,
      "Ġcand": 2622,
      "Ġlock": 2623,
      "Ġstuff": 2624,
      "que": 2625,
      "Ġmistake": 2626,
      "Are": 2627,
      "Ġdrawing": 2628,
      "Ġcap": 2629,
      "Ġdest": 2630,
      "Ġwagged": 2631,
      "ĠOK": 2632,
      "Ġbathroom": 2633,
      "body": 2634,
      "Ġlazy": 2635,
      "Ġpleased": 2636,
      "Ġcrown": 2637,
      "Ġwheel": 2638,
      "osaur": 2639,
      "ggs": 2640,
      "Ġpress": 2641,
      "Ġmir": 2642,
      "Ġeggs": 2643,
      "Ġweak": 2644,
      "ecially": 2645,
      "astic": 2646,
      "Ġgiggled": 2647,
      "Ġteam": 2648,
      "issors": 2649,
      "Ġgar": 2650,
      "Ġfruits": 2651,
      "Their": 2652,
      "ĠBl": 2653,
      "Ġscissors": 2654,
      "Ġpray": 2655,
      "Ġwis": 2656,
      "Ġexam": 2657,
      "ushed": 2658,
      "Ġwalks": 2659,
      "ĠBr": 2660,
      "Ġmov": 2661,
      "Ġadd": 2662,
      "Ġclown": 2663,
      "Ġsight": 2664,
      "Ġbrush": 2665,
      "Ġsoar": 2666,
      "Ġasking": 2667,
      "Ġdinosaur": 2668,
      "Ġclap": 2669,
      "Ġruined": 2670,
      "pecially": 2671,
      "Ġdistance": 2672,
      "Ġcri": 2673,
      "Ġespecially": 2674,
      "Who": 2675,
      "Ġfeathers": 2676,
      "Ġones": 2677,
      "aged": 2678,
      "Ġmatch": 2679,
      "ror": 2680,
      "Ġrelax": 2681,
      "Ġbody": 2682,
      "Ġfake": 2683,
      "ots": 2684,
      "Ġlying": 2685,
      "Ġsplashed": 2686,
      "Ġok": 2687,
      "ating": 2688,
      "Ġplayground": 2689,
      "Ġstones": 2690,
      "Ġcontent": 2691,
      "Ġlemon": 2692,
      "Ġdogs": 2693,
      "Ġqueen": 2694,
      "Ġnumber": 2695,
      "Ġquestions": 2696,
      "Ġsoap": 2697,
      "Sp": 2698,
      "Ġcrack": 2699,
      "Ġsailed": 2700,
      "Ġwrote": 2701,
      "Ġbecome": 2702,
      "Ġfluffy": 2703,
      "Ġmic": 2704,
      "Ġchange": 2705,
      "Jimmy": 2706,
      "Ġtie": 2707,
      "Ġjuicy": 2708,
      "Ġrid": 2709,
      "Ġdisappeared": 2710,
      "Ġcalling": 2711,
      "Ġsweetie": 2712,
      "Ġdrank": 2713,
      "Ġsug": 2714,
      "Ġlicked": 2715,
      "Ġcage": 2716,
      "Ġlead": 2717,
      "Ġballs": 2718,
      "ĠEnd": 2719,
      "Me": 2720,
      "ella": 2721,
      "Ġlose": 2722,
      "ĠIf": 2723,
      "Ġcraw": 2724,
      "Ġcrawled": 2725,
      "Ġmeasure": 2726,
      "Ġfis": 2727,
      "Ġincred": 2728,
      "Ġeld": 2729,
      "keep": 2730,
      "Ġsugar": 2731,
      "ete": 2732,
      "Ġext": 2733,
      "Ġind": 2734,
      "Ġbake": 2735,
      "alous": 2736,
      "Ġsell": 2737,
      "Sally": 2738,
      "enny": 2739,
      "Ġjealous": 2740,
      "Ġtape": 2741,
      "ĠAt": 2742,
      "Ġmirror": 2743,
      "Ġmap": 2744,
      "Ġfather": 2745,
      "Ġunus": 2746,
      "uggest": 2747,
      "Ġow": 2748,
      "elp": 2749,
      "Ġref": 2750,
      "Ġnoisy": 2751,
      "Ġins": 2752,
      "Ġmoving": 2753,
      "Ġsuggest": 2754,
      "Ġshows": 2755,
      "Ġfamous": 2756,
      "Ġunusual": 2757,
      "Ġdecide": 2758,
      "Ġnod": 2759,
      "Ġtowel": 2760,
      "Ġcovered": 2761,
      "Ġeager": 2762,
      "Ġeye": 2763,
      "Ġglow": 2764,
      "ĠMark": 2765,
      "Ġskipped": 2766,
      "ti": 2767,
      "umbled": 2768,
      "port": 2769,
      "Ġthick": 2770,
      "Ġtiger": 2771,
      "Ġyours": 2772,
      "Ġshoot": 2773,
      "hip": 2774,
      "ination": 2775,
      "Ġrealised": 2776,
      "Ġfine": 2777,
      "Ġincredible": 2778,
      "Ġhorn": 2779,
      "Ġextra": 2780,
      "ha": 2781,
      "Ġmoms": 2782,
      "Ġhappening": 2783,
      "Ġboys": 2784,
      "Ġgarage": 2785,
      "Ġcheck": 2786,
      "Ġdiscovered": 2787,
      "Ġord": 2788,
      "Ġcover": 2789,
      "Ġglue": 2790,
      "Billy": 2791,
      "Jill": 2792,
      "Ġdig": 2793,
      "Ġrare": 2794,
      "Ġboard": 2795,
      "Ġcleaned": 2796,
      "cil": 2797,
      "yal": 2798,
      "Ġpencil": 2799,
      "Ġpoint": 2800,
      "ipper": 2801,
      "Help": 2802,
      "Ġed": 2803,
      "Ġcolourful": 2804,
      "keeper": 2805,
      "illi": 2806,
      "rag": 2807,
      "Ġborrow": 2808,
      "Ġtag": 2809,
      "imp": 2810,
      "eez": 2811,
      "Ġdish": 2812,
      "Ġsil": 2813,
      "Ġfrown": 2814,
      "ately": 2815,
      "Ġonce": 2816,
      "Ġelderly": 2817,
      "Ġlamp": 2818,
      "Ġbranc": 2819,
      "Ġbranches": 2820,
      "Ġrich": 2821,
      "apping": 2822,
      "Ġlouder": 2823,
      "Ġprint": 2824,
      "Ġchicken": 2825,
      "Ġtwist": 2826,
      "ĠBlue": 2827,
      "par": 2828,
      "asing": 2829,
      "Ġbubbles": 2830,
      "Ġadventur": 2831,
      "Ġstraw": 2832,
      "Ġorganized": 2833,
      "Ġcost": 2834,
      "Ġcher": 2835,
      "ĠNo": 2836,
      "Ġbottom": 2837,
      "Ġwand": 2838,
      "ique": 2839,
      "Ġjoke": 2840,
      "Ġtrucks": 2841,
      "Gra": 2842,
      "ipp": 2843,
      "Ġboxes": 2844,
      "Ġoffered": 2845,
      "Ġloyal": 2846,
      "ĠLittle": 2847,
      "Ġaw": 2848,
      "Ġbalance": 2849,
      "Ġmanaged": 2850,
      "Ġmod": 2851,
      "Ġfa": 2852,
      "Ġang": 2853,
      "Ġunique": 2854,
      "Ġbarn": 2855,
      "Ġkindness": 2856,
      "fast": 2857,
      "Ġshake": 2858,
      "Ġham": 2859,
      "Ġgiving": 2860,
      "ĠSusie": 2861,
      "Ġmighty": 2862,
      "cept": 2863,
      "Ġswan": 2864,
      "Ġdiffic": 2865,
      "Ġcompet": 2866,
      "Ġmotor": 2867,
      "?\".": 2868,
      "arl": 2869,
      "Ġsword": 2870,
      "Ġwrapped": 2871,
      "Ġneeds": 2872,
      "ym": 2873,
      "Ġjewel": 2874,
      "Ġtoug": 2875,
      "ume": 2876,
      "Ġcoins": 2877,
      "Ġbreakfast": 2878,
      "lies": 2879,
      "ages": 2880,
      "Ġenjoying": 2881,
      "imed": 2882,
      "Ġfigure": 2883,
      "Ġguess": 2884,
      "Ġdifficult": 2885,
      "emo": 2886,
      "uggled": 2887,
      "cy": 2888,
      "Ġperform": 2889,
      "Ġballoons": 2890,
      "Ġbanana": 2891,
      "Ġadded": 2892,
      "ured": 2893,
      "ery": 2894,
      "Ġspun": 2895,
      "Ġword": 2896,
      "Ġlaughs": 2897,
      "Ġturt": 2898,
      "Ġdizzy": 2899,
      "ourite": 2900,
      "ilt": 2901,
      "Ġfavourite": 2902,
      "Ġhurts": 2903,
      "und": 2904,
      "Ġhose": 2905,
      "Ġfridge": 2906,
      "Well": 2907,
      "Ġicy": 2908,
      "Ġadventurous": 2909,
      "oppy": 2910,
      "Ġfool": 2911,
      "Ġhero": 2912,
      "Ġloudly": 2913,
      "Ġimpressed": 2914,
      "Ġagainst": 2915,
      "ache": 2916,
      "Ġknife": 2917,
      "How": 2918,
      "Ġbloom": 2919,
      "Ġchase": 2920,
      "ject": 2921,
      "Ġegg": 2922,
      "Ġwhale": 2923,
      "uddy": 2924,
      "Ġlifted": 2925,
      "ement": 2926,
      "Joe": 2927,
      "Ġfour": 2928,
      "olog": 2929,
      "Mummy": 2930,
      "Ġharm": 2931,
      "Ġpump": 2932,
      "alk": 2933,
      "Ġlog": 2934,
      "Ġtough": 2935,
      "Ġcompetit": 2936,
      "Ġpee": 2937,
      "gu": 2938,
      "Ġmarket": 2939,
      "land": 2940,
      "Al": 2941,
      "Ġhappiness": 2942,
      "Ġweird": 2943,
      "Ġtrack": 2944,
      "Ġpointing": 2945,
      "Ġcircle": 2946,
      "anged": 2947,
      "Ġlearning": 2948,
      "ĠRose": 2949,
      "Sue": 2950,
      "Ġdepend": 2951,
      "Ġnorm": 2952,
      "Ġbelonged": 2953,
      "Ġapolog": 2954,
      "ature": 2955,
      "Ġgrown": 2956,
      "Ġfat": 2957,
      "Ġrecord": 2958,
      "Amy": 2959,
      "Ġbald": 2960,
      "Ġcircles": 2961,
      "Ġgoat": 2962,
      "Ġears": 2963,
      "Ġslipped": 2964,
      "Ġsearch": 2965,
      "Ġsmoke": 2966,
      "Spot": 2967,
      "Ġfright": 2968,
      "Ġberries": 2969,
      "Ġmeans": 2970,
      "Ġsafely": 2971,
      "head": 2972,
      "Ġflash": 2973,
      "Ġmovie": 2974,
      "erry": 2975,
      "Ġoffice": 2976,
      "Ġfalls": 2977,
      "Ġbossy": 2978,
      "Ġchoose": 2979,
      "ouses": 2980,
      "ĠToday": 2981,
      "Ġdolp": 2982,
      "ĠKitty": 2983,
      "Ġwrap": 2984,
      "Ġter": 2985,
      "Ġhunt": 2986,
      "Ġwagon": 2987,
      "Ġhelps": 2988,
      "Ġnormal": 2989,
      "Ġdreamed": 2990,
      "Ġfoolish": 2991,
      "Ġgrace": 2992,
      "Ġbrilli": 2993,
      "ĠBrown": 2994,
      "Ġmelt": 2995,
      "Ġskin": 2996,
      "ready": 2997,
      "Ġbuttons": 2998,
      "Ġrough": 2999,
      "Ġedge": 3000,
      "Ġstrawber": 3001,
      "Ġknows": 3002,
      "Here": 3003,
      "Ġpainting": 3004,
      "iable": 3005,
      "Ġbrilliant": 3006,
      "pes": 3007,
      "Ġbitter": 3008,
      "Ġsounded": 3009,
      "Ġtunn": 3010,
      "Ġrat": 3011,
      "Ġcheerful": 3012,
      "Ġjack": 3013,
      "Ġtrunk": 3014,
      "arry": 3015,
      "Ġscare": 3016,
      "Ġstubb": 3017,
      "Ġcam": 3018,
      "Ġhouses": 3019,
      "Ġyog": 3020,
      "Ġalready": 3021,
      "Ġshape": 3022,
      "Ġvalu": 3023,
      "Ġguit": 3024,
      "Ġhats": 3025,
      "Ġmixed": 3026,
      "iv": 3027,
      "Ġbatter": 3028,
      "omed": 3029,
      "Ġwalls": 3030,
      "Ġdreams": 3031,
      "edient": 3032,
      "Ġwake": 3033,
      "Ġshells": 3034,
      "Ġweal": 3035,
      "Ġstubborn": 3036,
      "Ġlibr": 3037,
      "arth": 3038,
      "Ġturtle": 3039,
      "ĠMrs": 3040,
      "Ġindepend": 3041,
      "Ġlean": 3042,
      "Ġbrothers": 3043,
      "Ġreliable": 3044,
      "Ġlaw": 3045,
      "Ġtools": 3046,
      "Ġcity": 3047,
      "Ġstronger": 3048,
      "Ġcro": 3049,
      "Ġstri": 3050,
      "ĠMy": 3051,
      "Ġfier": 3052,
      "Ġpil": 3053,
      "Ġunl": 3054,
      "Ġnosy": 3055,
      "Ġcudd": 3056,
      "Ġdependable": 3057,
      "Ġproudly": 3058,
      "laimed": 3059,
      "Ġisland": 3060,
      "Ġclay": 3061,
      "Ġabove": 3062,
      "Ġaccept": 3063,
      "ĠBobby": 3064,
      "Ġsaying": 3065,
      "Ġexclaimed": 3066,
      "Ġescape": 3067,
      "Ġlow": 3068,
      "Ġjog": 3069,
      "Ġharder": 3070,
      "ext": 3071,
      "Ġexplored": 3072,
      "Ġobedient": 3073,
      "Ġfierce": 3074,
      "Ġstumbled": 3075,
      "Ġinvited": 3076,
      "Ġterri": 3077,
      "wards": 3078,
      "Ġtimes": 3079,
      "Ġkinds": 3080,
      "Ġspace": 3081,
      "gy": 3082,
      "Ġuseful": 3083,
      "Ġguitar": 3084,
      "Ġjoined": 3085,
      "Ġcab": 3086,
      "sc": 3087,
      "Ġmagn": 3088,
      "Ġindependent": 3089,
      "na": 3090,
      "oot": 3091,
      "ĠElla": 3092,
      "Ġstudy": 3093,
      "aul": 3094,
      "Ġroof": 3095,
      "Ġenorm": 3096,
      "Ġtele": 3097,
      "ÅĵLet": 3098,
      "Ġlights": 3099,
      "Ġcomput": 3100,
      "Ġcabin": 3101,
      "Ġenormous": 3102,
      "Ġfrightened": 3103,
      "Ġvaluable": 3104,
      "Ġgem": 3105,
      "Ġusing": 3106,
      "ĠNemo": 3107,
      "Ġtummy": 3108,
      "irp": 3109,
      "amond": 3110,
      "Ġshark": 3111,
      "Ġfre": 3112,
      "Ġcop": 3113,
      "Ġspoiled": 3114,
      "Ġparrot": 3115,
      "Ġbushes": 3116,
      "Ġsuggested": 3117,
      "ĠBu": 3118,
      "rage": 3119,
      "cient": 3120,
      "Ġtwig": 3121,
      "ola": 3122,
      "Ġshowing": 3123,
      "Ġbags": 3124,
      "Ġcounted": 3125,
      "Ġnotice": 3126,
      "Ġpoured": 3127,
      "Ġways": 3128,
      "Ġfingers": 3129,
      "Ġsmaller": 3130,
      "Ġbrightly": 3131,
      "Ġdiamond": 3132,
      "Ġthemselves": 3133,
      "Ġrode": 3134,
      "ado": 3135,
      "Ġunk": 3136,
      "Ġancient": 3137,
      "Ġdead": 3138,
      "Ġstream": 3139,
      "Ġbuilt": 3140,
      "Ġpractice": 3141,
      "Ġwiped": 3142,
      "Ġmem": 3143,
      "Ġreminded": 3144,
      "orge": 3145,
      "Ġspinning": 3146,
      "Ġsuccessful": 3147,
      "Ġcrayon": 3148,
      "ention": 3149,
      "Ġfountain": 3150,
      "Ġkicked": 3151,
      "anut": 3152,
      "Ġexcitedly": 3153,
      "Ġtank": 3154,
      "Ġthoughtful": 3155,
      "Ġstove": 3156,
      "Ġflute": 3157,
      "Ġjam": 3158,
      "Ġfrag": 3159,
      "Ġshone": 3160,
      "dge": 3161,
      "arn": 3162,
      "illa": 3163,
      "Ġbirdie": 3164,
      "Ġadmired": 3165,
      "Ġresc": 3166,
      "Ġgrandpa": 3167,
      "ipe": 3168,
      "Ġcamera": 3169,
      "Ġseem": 3170,
      "Ġsuit": 3171,
      "Ġlocked": 3172,
      "dom": 3173,
      "Ġchanged": 3174,
      "Ġswe": 3175,
      "Ġbeet": 3176,
      "Ġscrat": 3177,
      "Ġcleaning": 3178,
      "Ġpige": 3179,
      "nown": 3180,
      "ĠAlice": 3181,
      "ye": 3182,
      "uth": 3183,
      "Ġbeak": 3184,
      "Ġfinding": 3185,
      "Ġdelighted": 3186,
      "corn": 3187,
      "Ġbounce": 3188,
      "Ġbees": 3189,
      "ĠWhenever": 3190,
      "ĠPete": 3191,
      "Ġsteal": 3192,
      "ĠU": 3193,
      "ither": 3194,
      "Ġnicely": 3195,
      "Ġmarch": 3196,
      "Ġdelicate": 3197,
      "Ġwealthy": 3198,
      "anny": 3199,
      "Ġlab": 3200,
      "Ġchose": 3201,
      "Ġenvel": 3202,
      "Ġtooth": 3203,
      "Ġsearching": 3204,
      "Ġshadow": 3205,
      "Ġnurse": 3206,
      "uring": 3207,
      "Ġserious": 3208,
      "Ġsunf": 3209,
      "ray": 3210,
      "Ġraced": 3211,
      "Ġrose": 3212,
      "az": 3213,
      "inal": 3214,
      "Ġyet": 3215,
      "Ġyarn": 3216,
      "inary": 3217,
      "Ġorig": 3218,
      "Ġeng": 3219,
      "Ġsalad": 3220,
      "Ġunknown": 3221,
      "Ġfragile": 3222,
      "Ġsolve": 3223,
      "Ġcomputer": 3224,
      "ĠFred": 3225,
      "Ġforth": 3226,
      "Em": 3227,
      "eorge": 3228,
      "Ġsniff": 3229,
      "Ġthirst": 3230,
      "Ġclum": 3231,
      "Ġpicking": 3232,
      "Ġpumpkin": 3233,
      "Ġpopcorn": 3234,
      "Ġtoast": 3235,
      "Ġstairs": 3236,
      "Ġpotato": 3237,
      "eeze": 3238,
      "Ġson": 3239,
      "Ġdough": 3240,
      "Ġplayful": 3241,
      "Ġhairy": 3242,
      "Ġoriginal": 3243,
      "upid": 3244,
      "Ġrushed": 3245,
      "ĠDucky": 3246,
      "ience": 3247,
      "Ġhoop": 3248,
      "Ġmis": 3249,
      "ĠYour": 3250,
      "cod": 3251,
      "Ġmarble": 3252,
      "Ġfresh": 3253,
      "Ġstat": 3254,
      "Ġstamp": 3255,
      "Ġpant": 3256,
      "Ġpost": 3257,
      "het": 3258,
      "Ġdove": 3259,
      "iew": 3260,
      "Ġmole": 3261,
      "Ġclock": 3262,
      "llip": 3263,
      "Ġcheap": 3264,
      "Ġpainted": 3265,
      "llipop": 3266,
      "Ġfan": 3267,
      "Ġtunnel": 3268,
      "Ġsauce": 3269,
      "Ġboats": 3270,
      "Ġhalf": 3271,
      "Ġpeanut": 3272,
      "com": 3273,
      "aghet": 3274,
      "Ġmetal": 3275,
      "Ġangel": 3276,
      "aghetti": 3277,
      "Ġliz": 3278,
      "Ġclumsy": 3279,
      "gest": 3280,
      "Ġbeetle": 3281,
      "Ġstupid": 3282,
      "Ġlollipop": 3283,
      "Ġview": 3284,
      "Ġwitch": 3285,
      "Ġcere": 3286,
      "ilty": 3287,
      "Ġtelling": 3288,
      "Ġrubb": 3289,
      "Ġstops": 3290,
      "Ġguilty": 3291,
      "Ġthirsty": 3292,
      "Ġdull": 3293,
      "Ġallowed": 3294,
      "Ġenc": 3295,
      "ines": 3296,
      "oomy": 3297,
      "under": 3298,
      "vice": 3299,
      "Ġbiggest": 3300,
      "Ġseeds": 3301,
      "Ġthose": 3302,
      "Ġspaghetti": 3303,
      "umbers": 3304,
      "Ġterrible": 3305,
      "Ġdoesn": 3306,
      "Ġpirate": 3307,
      "ĠMar": 3308,
      "Ġcrocod": 3309,
      "Ġwashed": 3310,
      "Ġgoose": 3311,
      "Ġmoder": 3312,
      "Ġregular": 3313,
      "Ġer": 3314,
      "Ġbump": 3315,
      "ĠBobo": 3316,
      "Ġnote": 3317,
      "Ġcarrying": 3318,
      "Ġjolly": 3319,
      "Ġgrand": 3320,
      "Ġbull": 3321,
      "Ġflex": 3322,
      "Ġwhispered": 3323,
      "Ġhammer": 3324,
      "Ġpatter": 3325,
      "Ġscatter": 3326,
      "Ġmissing": 3327,
      "Ġholds": 3328,
      "Ġtomato": 3329,
      "Ġzip": 3330,
      "Ġshel": 3331,
      "Ġdriving": 3332,
      "Ġcompass": 3333,
      "Ġpow": 3334,
      "Ġcareless": 3335,
      "Ġguard": 3336,
      "Ġleaving": 3337,
      "Ġdreaming": 3338,
      "Ġarg": 3339,
      "Ġdesk": 3340,
      "mbre": 3341,
      "Ġending": 3342,
      "Ġsleeping": 3343,
      "time": 3344,
      "Ġrug": 3345,
      "Ġhandle": 3346,
      "Ġopens": 3347,
      "Ġpattern": 3348,
      "Ġmel": 3349,
      "Ġumbre": 3350,
      "!\".": 3351,
      "Ġflashlight": 3352,
      "isk": 3353,
      "ĠFin": 3354,
      "âĢ": 3355,
      "Ġmodern": 3356,
      "Ġfriendship": 3357,
      "Ġdestro": 3358,
      "Ġhay": 3359,
      "Ġreward": 3360,
      "ĠEllie": 3361,
      "Ġdust": 3362,
      "Ġshiver": 3363,
      "Ġing": 3364,
      "Ġsne": 3365,
      "Ġchar": 3366,
      "See": 3367,
      "Ġavo": 3368,
      "âĤ¬âĢ": 3369,
      "Ġbean": 3370,
      "Ġscreen": 3371,
      "Ġfork": 3372,
      "Ġnature": 3373,
      "Ġpeeked": 3374,
      "Ġthunder": 3375,
      "ugged": 3376,
      "ĠDave": 3377,
      "redient": 3378,
      "Ġhelm": 3379,
      "Ġingredient": 3380,
      "Ġhanded": 3381,
      "Ġcereal": 3382,
      "Ġcur": 3383,
      "Ġload": 3384,
      "Ġtrap": 3385,
      "Ġflexible": 3386,
      "Ġpersist": 3387,
      "Ġenvelope": 3388,
      "ophie": 3389,
      "ellig": 3390,
      "Ġpopular": 3391,
      "ÅĵWhat": 3392,
      "Ġdolphin": 3393,
      "Ġgraceful": 3394,
      "Ġtor": 3395,
      "Ġintellig": 3396,
      "Ġlizard": 3397,
      "Ġnumbers": 3398,
      "Ġcoco": 3399,
      "Ġwire": 3400,
      "Ġearth": 3401,
      "Ġdeliver": 3402,
      "Ġprize": 3403,
      "ision": 3404,
      "Ġsink": 3405,
      "Ġtied": 3406,
      "Ġspilled": 3407,
      "Ġengine": 3408,
      "Ġtowers": 3409,
      "Ġrubbed": 3410,
      "ĠWhile": 3411,
      "ict": 3412,
      "robe": 3413,
      "Ġcompassion": 3414,
      "Ġrub": 3415,
      "Ġcone": 3416,
      "Ġtruth": 3417,
      "Ġblueber": 3418,
      "Ġtravel": 3419,
      "arsh": 3420,
      "Ġstage": 3421,
      "While": 3422,
      "Ġtem": 3423,
      "Ġarrow": 3424,
      "Ġpup": 3425,
      "Ġsparkled": 3426,
      "Ġpenny": 3427,
      "Ġimagined": 3428,
      "ĠBella": 3429,
      "ÅĵIt": 3430,
      "Ġearly": 3431,
      "eezed": 3432,
      "Ġjacket": 3433,
      "Ġaunt": 3434,
      "Ġbent": 3435,
      "ĠMummy": 3436,
      "Ġpigeon": 3437,
      "Ġmeal": 3438,
      "ĠKim": 3439,
      "Ġbeauty": 3440,
      "Ġsquare": 3441,
      "Ġperm": 3442,
      "Ġcrazy": 3443,
      "ations": 3444,
      "Ġreading": 3445,
      "Ġrepair": 3446,
      "Ġwing": 3447,
      "Ġknock": 3448,
      "Go": 3449,
      "Ġsudden": 3450,
      "Ġenv": 3451,
      "Ġorder": 3452,
      "Ġcomplet": 3453,
      "ÅĵLetÃ¢": 3454,
      "comfort": 3455,
      "Ġcrocodile": 3456,
      "Ġjug": 3457,
      "ikes": 3458,
      "Ġthinking": 3459,
      "tter": 3460,
      "uper": 3461,
      "Ġwarned": 3462,
      "Ġadvice": 3463,
      "Ġingredients": 3464,
      "Ġquestion": 3465,
      "Ġmailbox": 3466,
      "Ġcooking": 3467,
      "Ġcelebrate": 3468,
      "Ġobject": 3469,
      "Ġshocked": 3470,
      "Ġplaced": 3471,
      "comfortable": 3472,
      "Ġgor": 3473,
      "ĠMike": 3474,
      "Ġharmless": 3475,
      "Ġstatue": 3476,
      "Ġgrowing": 3477,
      "Ġuncomfortable": 3478,
      "Ġslides": 3479,
      "Ġbarber": 3480,
      "Ġcompetitive": 3481,
      "Ġrece": 3482,
      "Ġspoke": 3483,
      "Ġsunflower": 3484,
      "Ġimpressive": 3485,
      "Ġjet": 3486,
      "Ġdiscover": 3487,
      "Ġsorts": 3488,
      "Ġtwirled": 3489,
      "Ġanx": 3490,
      "Ġpale": 3491,
      "Ġgasped": 3492,
      "orant": 3493,
      "Ġwindows": 3494,
      "Ġscale": 3495,
      "ÅĵYes": 3496,
      "Ġstickers": 3497,
      "host": 3498,
      "io": 3499,
      "illie": 3500,
      "Ġcomb": 3501,
      "Ġstranger": 3502,
      "Ġlibrary": 3503,
      "Ġcreate": 3504,
      "Ġpengu": 3505,
      "Ġshut": 3506,
      "ĠGrandpa": 3507,
      "Ġspring": 3508,
      "Ġcreatures": 3509,
      "Ġenth": 3510,
      "Ġumbrella": 3511,
      "arian": 3512,
      "Ġotter": 3513,
      "ĠPe": 3514,
      "Ġdesign": 3515,
      "ĠSn": 3516,
      "Ġtrash": 3517,
      "Ġanxious": 3518,
      "Ġtask": 3519,
      "iches": 3520,
      "Ġsurf": 3521,
      "ĠLook": 3522,
      "Ġsnuggled": 3523,
      "Ġpatch": 3524,
      "Ġcollar": 3525,
      "ĠFr": 3526,
      "Ġghost": 3527,
      "ĠHere": 3528,
      "Ġbutterflies": 3529,
      "Ġpants": 3530,
      "usi": 3531,
      "ric": 3532,
      "Ġdestroy": 3533,
      "Ġenthusi": 3534,
      "Ġnames": 3535,
      "Ġsett": 3536,
      "Ġhung": 3537,
      "loo": 3538,
      "Ġsquash": 3539,
      "Ġsof": 3540,
      "Ġneat": 3541,
      "Ġbrace": 3542,
      "Ġjumps": 3543,
      "Ġignorant": 3544,
      "Ġmask": 3545,
      "Ġbracelet": 3546,
      "Ġrefused": 3547,
      "Ġpersistent": 3548,
      "Ġwheels": 3549,
      "ĠTweety": 3550,
      "Ġchance": 3551,
      "Ġspell": 3552,
      "stri": 3553,
      "Ġsadly": 3554,
      "Ġhumble": 3555,
      "Ġsofa": 3556,
      "Ġpretending": 3557,
      "Ġreturn": 3558,
      "Ġintelligent": 3559,
      "ibb": 3560,
      "Ġdug": 3561,
      "ĠcouldnÃ¢": 3562,
      "Ġacorn": 3563,
      "Ġbadly": 3564,
      "Ġletters": 3565,
      "Ġahead": 3566,
      "Ġcupboard": 3567,
      "Ġmill": 3568,
      "Ġcounting": 3569,
      "Ġtorn": 3570,
      "aid": 3571,
      "Ġcourage": 3572,
      "Ġstation": 3573,
      "Ġspeed": 3574,
      "Mary": 3575,
      "Ġscoot": 3576,
      "Ġchasing": 3577,
      "Ġcrane": 3578,
      "Ġresist": 3579,
      "Ġtrump": 3580,
      "Ġuncle": 3581,
      "Ġfearful": 3582,
      "Ow": 3583,
      "oe": 3584,
      "Ġcards": 3585,
      "Ġordinary": 3586,
      "Ġpony": 3587,
      "aches": 3588,
      "Ġgloomy": 3589,
      "Ġsandwiches": 3590,
      "Ġnuts": 3591,
      "ices": 3592,
      "Ġjeep": 3593,
      "Ġstack": 3594,
      "Ġphot": 3595,
      "Yay": 3596,
      "htub": 3597,
      "Ġcocoa": 3598,
      "Ġbrighter": 3599,
      "gust": 3600,
      "Ġcricket": 3601,
      "Ġgorilla": 3602,
      "Ġvol": 3603,
      "ĠToby": 3604,
      "Ġbathtub": 3605,
      "cream": 3606,
      "Ġcamp": 3607,
      "Ġimpat": 3608,
      "Ġdisgust": 3609,
      "Ġcharming": 3610,
      "Ġattic": 3611,
      "Ġostri": 3612,
      "ief": 3613,
      "Ġencou": 3614,
      "Ġmay": 3615,
      "Ġgir": 3616,
      "Ġflour": 3617,
      "Ġpepper": 3618,
      "erable": 3619,
      "Ġpear": 3620,
      "Ġanywhere": 3621,
      "Ġrules": 3622,
      "Ġattract": 3623,
      "Ġhipp": 3624,
      "Ġled": 3625,
      "ĠPat": 3626,
      "Ġhurry": 3627,
      "Ġbeep": 3628,
      "Ġolder": 3629,
      "Ġpracticed": 3630,
      "cano": 3631,
      "Ġshaking": 3632,
      "Ġparade": 3633,
      "Ġimpatient": 3634,
      "Ġshine": 3635,
      "Ġstarts": 3636,
      "Ġaftern": 3637,
      "Ġtrick": 3638,
      "Ġmiserable": 3639,
      "aff": 3640,
      "ceed": 3641,
      "Ġtrumpet": 3642,
      "Ġitself": 3643,
      "Ġcompl": 3644,
      "Ġmelon": 3645,
      "bled": 3646,
      "Ġsuper": 3647,
      "Ġwaff": 3648,
      "Ġbarrel": 3649,
      "Ġpiano": 3650,
      "Ġrestless": 3651,
      "Ġbandage": 3652,
      "Ġtriang": 3653,
      "Ġmeas": 3654,
      "ĠWh": 3655,
      "Ġleash": 3656,
      "Ġdeaf": 3657,
      "Ġpasta": 3658,
      "Ġgifted": 3659,
      "Ġvalue": 3660,
      "aroo": 3661,
      "Ġalert": 3662,
      "angaroo": 3663,
      "Ġfurther": 3664,
      "Ġclub": 3665,
      "Ġsoldier": 3666,
      "Ġtire": 3667,
      "Ġcush": 3668,
      "Ġadmire": 3669,
      "Ġsend": 3670,
      "ĠSm": 3671,
      "Ġsupport": 3672,
      "Ġdecorate": 3673,
      "iest": 3674,
      "Ġmush": 3675,
      "Ġsalt": 3676,
      "Ġafternoon": 3677,
      "Ġkangaroo": 3678,
      "Ġuniver": 3679,
      "gging": 3680,
      "Ġcompassionate": 3681,
      "Ġmushroom": 3682,
      "ips": 3683,
      "urb": 3684,
      "ĠEventually": 3685,
      "Ġturkey": 3686,
      "Ġstretched": 3687,
      "Ġnobody": 3688,
      "Ġcryst": 3689,
      "Ġbounced": 3690,
      "Ġvolcano": 3691,
      "Ġdisturb": 3692,
      "Ġattractive": 3693,
      "Ġmagnet": 3694,
      "aby": 3695,
      "Ġseal": 3696,
      "Ġdrawer": 3697,
      "Ġenvious": 3698,
      "Ġgum": 3699,
      "Ġleop": 3700,
      "Ġnowhere": 3701,
      "Ġnail": 3702,
      "Ġdisgusting": 3703,
      "Ġfact": 3704,
      "Ġcase": 3705,
      "Ġpurse": 3706,
      "If": 3707,
      "ĠJoey": 3708,
      "Ġcarp": 3709,
      "ĠBear": 3710,
      "Ġelev": 3711,
      "Re": 3712,
      "Ġtap": 3713,
      "Ġhunter": 3714,
      "aked": 3715,
      "ince": 3716,
      "anda": 3717,
      "Ġraven": 3718,
      "Ġsucceed": 3719,
      "Ġhook": 3720,
      "Ġpun": 3721,
      "ĠAre": 3722,
      "Ġfirework": 3723,
      "Ġpressed": 3724,
      "Ġostrich": 3725,
      "Ġanyway": 3726,
      "Ġener": 3727,
      "Give": 3728,
      "cut": 3729,
      "Ġbet": 3730,
      "Ġshield": 3731,
      "Ġwheat": 3732,
      "Ġcooked": 3733,
      "ses": 3734,
      "ĠLola": 3735,
      "Ġsplit": 3736,
      "ubby": 3737,
      "Ġneedle": 3738,
      "Ġsepar": 3739,
      "ĠWhere": 3740,
      "essert": 3741,
      "Ġelevator": 3742,
      "irit": 3743,
      "Ġcats": 3744,
      "Ġpebble": 3745,
      "ĠGive": 3746,
      "yster": 3747,
      "ĠEverything": 3748,
      "Ġfilthy": 3749,
      "Alice": 3750,
      "Ġcurt": 3751,
      "hood": 3752,
      "ummer": 3753,
      "Ġshouts": 3754,
      "Ġcurtain": 3755,
      "aze": 3756,
      "ĠMandy": 3757,
      "opus": 3758,
      "ctopus": 3759,
      "gn": 3760,
      "Ġsent": 3761,
      "Ġdessert": 3762,
      "Benny": 3763,
      "Ġgiggle": 3764,
      "ÅĵThat": 3765,
      "Ġcandle": 3766,
      "Ġbackpack": 3767,
      "Ġshoe": 3768,
      "ĠTweetie": 3769,
      "Ġskip": 3770,
      "Ġexplain": 3771,
      "ĠCl": 3772,
      "aurant": 3773,
      "Ġoctopus": 3774,
      "Ġunpack": 3775,
      "Ġhuman": 3776,
      "Ġpoem": 3777,
      "Ġlively": 3778,
      "Ġreco": 3779,
      "Ġgoal": 3780,
      "Ġimpro": 3781,
      "Ġrestaurant": 3782,
      "Ġhelmet": 3783,
      "Ġhelpless": 3784,
      "ĠAlex": 3785,
      "Ġbelt": 3786,
      "cus": 3787,
      "Ġmath": 3788,
      "Ġpackage": 3789,
      "Ġcows": 3790,
      "Ġhippo": 3791,
      "ĠSh": 3792,
      "Ġswitch": 3793,
      "Ġvine": 3794,
      "Ġquite": 3795,
      "Ġbicy": 3796,
      "Ġchubby": 3797,
      "Ġshopkeeper": 3798,
      "ophone": 3799,
      "Ġcact": 3800,
      "Ġrice": 3801,
      "icop": 3802,
      "icopter": 3803,
      "ipping": 3804,
      "ser": 3805,
      "Ġjud": 3806,
      "ĠPaul": 3807,
      "Ġorganize": 3808,
      "Bye": 3809,
      "gie": 3810,
      "Ġdistant": 3811,
      "orable": 3812,
      "Ġvi": 3813,
      "Ġgrabs": 3814,
      "inking": 3815,
      "Ġsticker": 3816,
      "Ġleopard": 3817,
      "Ġoyster": 3818,
      "Ġtemp": 3819,
      "Ġbarking": 3820,
      "Ġhelicopter": 3821,
      "ccol": 3822,
      "Ġcomet": 3823,
      "enry": 3824,
      "Ġstirred": 3825,
      "Ġscrew": 3826,
      "Ġfu": 3827,
      "Ġthief": 3828,
      "Ġpaws": 3829,
      "Ġcarpet": 3830,
      "ccoli": 3831,
      "year": 3832,
      "ebra": 3833,
      "Ġharsh": 3834,
      "Ġsomewhere": 3835,
      "ebook": 3836,
      "Ġnotebook": 3837,
      "Ġpulls": 3838,
      "heart": 3839,
      "Ġsheet": 3840,
      "Ġspirit": 3841,
      "Everyone": 3842,
      "Ġradio": 3843,
      "Ġadorable": 3844,
      "Ġsilver": 3845,
      "Ġwishes": 3846,
      "night": 3847,
      "Ġloop": 3848,
      "Ġjokes": 3849,
      "ĠRed": 3850,
      "Ġstared": 3851,
      "Ġfrowned": 3852,
      "Ġmodest": 3853,
      "arlie": 3854,
      "Ġcactus": 3855,
      "Ġsize": 3856,
      "Ġbikes": 3857,
      "Ġfinds": 3858,
      "ĠBill": 3859,
      "Ġtray": 3860,
      "Ġfive": 3861,
      "uct": 3862,
      "Ġbehave": 3863,
      "Ġten": 3864,
      "Ġhive": 3865,
      "Ġrespectful": 3866,
      "Ġbri": 3867,
      "ĠAndy": 3868,
      "Ġavoc": 3869,
      "Ġlions": 3870,
      "Ġgolf": 3871,
      "Ġpushes": 3872,
      "Ġrepe": 3873,
      "Ġlaser": 3874,
      "iskers": 3875,
      "Ġlid": 3876,
      "ulif": 3877,
      "Ġzebra": 3878,
      "Ġswinging": 3879,
      "Ġcaulif": 3880,
      "Ġhedge": 3881,
      "Ġsweater": 3882,
      "stairs": 3883,
      "ĠPolly": 3884,
      "Ġeraser": 3885,
      "Ġhappier": 3886,
      "Ġbears": 3887,
      "Ġmicr": 3888,
      "Ġscooter": 3889,
      "Ġmeat": 3890,
      "Ġspeak": 3891,
      "Ġholes": 3892,
      "Ġquar": 3893,
      "Ġrag": 3894,
      "Ġsandbox": 3895,
      "Ġexper": 3896,
      "Ġribb": 3897,
      "Ġclapping": 3898,
      "Ġriding": 3899,
      "Ġur": 3900,
      "ĠdidnÃ¢": 3901,
      "ĠGeorge": 3902,
      "Ġstarting": 3903,
      "apa": 3904,
      "Ġol": 3905,
      "Ġbroccoli": 3906,
      "Ġprov": 3907,
      "Ġmessage": 3908,
      "Ġsecond": 3909,
      "ci": 3910,
      "Ġpushing": 3911,
      "Ġthread": 3912,
      "Ġsteps": 3913,
      "Ġcolours": 3914,
      "Ġwallet": 3915,
      "Ġmonkeys": 3916,
      "ĠSmith": 3917,
      "hino": 3918,
      "Ġmicrophone": 3919,
      "Daisy": 3920,
      "Ġroared": 3921,
      "Ġrecogn": 3922,
      "Ġants": 3923,
      "Ġchalk": 3924,
      "Ġallig": 3925,
      "Ġfireman": 3926,
      "Ġcountry": 3927,
      "Ġstom": 3928,
      "Ġoat": 3929,
      "Ġsle": 3930,
      "Ġlip": 3931,
      "Ġbuzz": 3932,
      "Ġlightning": 3933,
      "cycle": 3934,
      "ooped": 3935,
      "Ġforgave": 3936,
      "ef": 3937,
      "Ġsummer": 3938,
      "Ġonion": 3939,
      "Ġended": 3940,
      "Ġpaid": 3941,
      "Ġtroubled": 3942,
      "Ġobser": 3943,
      "Ġbicycle": 3944,
      "Ġeither": 3945,
      "elery": 3946,
      "Ġbreat": 3947,
      "Ġstretch": 3948,
      "reci": 3949,
      "reeze": 3950,
      "Ġshelter": 3951,
      "Ġenthusiastic": 3952,
      "Ġpor": 3953,
      "Ġrod": 3954,
      "Ġchain": 3955,
      "Ġneighbour": 3956,
      "Ġcauliflower": 3957,
      "Little": 3958,
      "Ġvisited": 3959,
      "olin": 3960,
      "Ġrhino": 3961,
      "Ġpal": 3962,
      "Ġappreci": 3963,
      "Ġtripped": 3964,
      "Ġdrawings": 3965,
      "Ġpapers": 3966,
      "Ġsock": 3967,
      "Ġpolish": 3968,
      "bul": 3969,
      "Ġzoomed": 3970,
      "Ġhadn": 3971,
      "Ġdishes": 3972,
      "Ġbasketball": 3973,
      "Ġlearnt": 3974,
      "Ġtreasures": 3975,
      "Ġmuff": 3976,
      "Ġgro": 3977,
      "Ġscold": 3978,
      "undry": 3979,
      "Ġrescue": 3980,
      "Ġbin": 3981,
      "Ġbase": 3982,
      "ucked": 3983,
      "Ġraining": 3984,
      "ron": 3985,
      "Ġmug": 3986,
      "Ġhall": 3987,
      "Ġkay": 3988,
      "Ġlaundry": 3989,
      "ĠBrownie": 3990,
      "eer": 3991,
      "Ġalive": 3992,
      "Ġgiven": 3993,
      "azz": 3994,
      "ĠJerry": 3995,
      "Ġcube": 3996,
      "Ġlistening": 3997,
      "Ġart": 3998,
      "Ġpilot": 3999,
      "Ġfle": 4000,
      "Ġcardboard": 4001,
      "Ġcrystal": 4002,
      "aggie": 4003,
      "Ġmarry": 4004,
      "acht": 4005,
      "Ġrolling": 4006,
      "Ġyacht": 4007,
      "cast": 4008,
      "ĠSandy": 4009,
      "Ġframe": 4010,
      "Ġjellyfish": 4011,
      "aled": 4012,
      "Ġcooler": 4013,
      "Ġhaircut": 4014,
      "Ġluck": 4015,
      "Daddy": 4016,
      "happy": 4017,
      "render": 4018,
      "Ġairport": 4019,
      "Ġcostume": 4020,
      "Ġcelery": 4021,
      "Ġtrains": 4022,
      "Ġavail": 4023,
      "Ġsandcast": 4024,
      "ube": 4025,
      "iron": 4026,
      "Ġevening": 4027,
      "Ġped": 4028,
      "Ġvide": 4029,
      "Ġsweetheart": 4030,
      "Ġcane": 4031,
      "Ġtrop": 4032,
      "Ġshovel": 4033,
      "Ġtriangle": 4034,
      "ĠBuddy": 4035,
      "Ġpeek": 4036,
      "Ġclimbing": 4037,
      "Ġcushion": 4038,
      "Ġpalace": 4039,
      "Ġmild": 4040,
      "ĠSophie": 4041,
      "ashed": 4042,
      "Ġgrapes": 4043,
      "ĠWould": 4044,
      "Ġpole": 4045,
      "Ġaer": 4046,
      "anic": 4047,
      "opl": 4048,
      "Ġaeropl": 4049,
      "Ġax": 4050,
      "Ġsailor": 4051,
      "Ġbubble": 4052,
      "Ġsmells": 4053,
      "ffe": 4054,
      "Ġpad": 4055,
      "Ġputting": 4056,
      "Ġenergy": 4057,
      "Ġavailable": 4058,
      "Ġsym": 4059,
      "Ġreind": 4060,
      "Ġhoping": 4061,
      "ĠGrace": 4062,
      "Ġfootball": 4063,
      "Ġtrophy": 4064,
      "ffee": 4065,
      "Jenny": 4066,
      "Ġtheater": 4067,
      "Ġmarched": 4068,
      "ĠWhiskers": 4069,
      "kelet": 4070,
      "Ġknot": 4071,
      "Ġfilm": 4072,
      "chanic": 4073,
      "Ġthanks": 4074,
      "Ġdive": 4075,
      "Ġtuna": 4076,
      "Ġpipe": 4077,
      "Ġleaned": 4078,
      "Ġtear": 4079,
      "sely": 4080,
      "Ġambul": 4081,
      "Ġbreaks": 4082,
      "Ġmen": 4083,
      "Ġoil": 4084,
      "icer": 4085,
      "Ġtricks": 4086,
      "Ġsoftly": 4087,
      "Ġcherries": 4088,
      "Ġunlock": 4089,
      "zzy": 4090,
      "ĠTr": 4091,
      "Ġsaus": 4092,
      "Ġmechanic": 4093,
      "Ġpainter": 4094,
      "Ġjournal": 4095,
      "Ġtube": 4096,
      "ecause": 4097,
      "Ġchecked": 4098,
      "Ġunhappy": 4099,
      "Ġstrugg": 4100,
      "Ġsprink": 4101,
      "Grandma": 4102,
      "Ġalligator": 4103,
      "Ġskill": 4104,
      "Ġclosely": 4105,
      "Ġinsist": 4106,
      "Ġstrawberry": 4107,
      "Ġpage": 4108,
      "bol": 4109,
      "Ġmama": 4110,
      "ĠLee": 4111,
      "Ġaxe": 4112,
      "Ġsymbol": 4113,
      "Ġfalling": 4114,
      "Ġjudge": 4115,
      "Ġmu": 4116,
      "Ġsunset": 4117,
      "Ġcups": 4118,
      "Ġshrimp": 4119,
      "Ġcomplete": 4120,
      "Ġambulance": 4121,
      "Ġcord": 4122,
      "Ġboots": 4123,
      "Ġreindeer": 4124,
      "Ġreef": 4125,
      "affe": 4126,
      "Ġdisag": 4127,
      "Ġrac": 4128,
      "keleton": 4129,
      "ait": 4130,
      "Ġlawy": 4131,
      "Ġpeach": 4132,
      "Ġstuffed": 4133,
      "Ġkitty": 4134,
      "ceros": 4135,
      "Ġpowder": 4136,
      "Ġhut": 4137,
      "Ġflies": 4138,
      "Ġraft": 4139,
      "Ha": 4140,
      "lud": 4141,
      "Ġink": 4142,
      "Ġshakes": 4143,
      "play": 4144,
      "Ġfeelings": 4145,
      "Ġfields": 4146,
      "Ġshade": 4147,
      "Ġdrops": 4148,
      "Ġwaving": 4149,
      "Ġsoil": 4150,
      "Ġsurrender": 4151,
      "Ġperfectly": 4152,
      "âĤ¬âĢľ": 4153,
      "ense": 4154,
      "ĠBunny": 4155,
      "ÅĵYou": 4156,
      "TMm": 4157,
      "ides": 4158,
      "Ġbarks": 4159,
      "Ġapologized": 4160,
      "Ġporch": 4161,
      "ges": 4162,
      "Ġlie": 4163,
      "ckey": 4164,
      "Ġhockey": 4165,
      "ĠRo": 4166,
      "Ġcounter": 4167,
      "Ġinclud": 4168,
      "Ġviolin": 4169,
      "Ġrhinoceros": 4170,
      "Ġcoffee": 4171,
      "Ġforgotten": 4172,
      "Ġmule": 4173,
      "ccer": 4174,
      "pe": 4175,
      "Ġlend": 4176,
      "ĠPapa": 4177,
      "ĠOr": 4178,
      "Ġbul": 4179,
      "edy": 4180,
      "ites": 4181,
      "angu": 4182,
      "Ġdisplay": 4183,
      "Ġpenguin": 4184,
      "Ġskeleton": 4185,
      "iling": 4186,
      "Ġsoccer": 4187,
      "Ġlangu": 4188,
      "Ġcreated": 4189,
      "Ġminute": 4190,
      "Ġdiary": 4191,
      "Ġgiraffe": 4192,
      "Ġkayak": 4193,
      "ween": 4194,
      "Ġtax": 4195,
      "Ġfrogs": 4196,
      "Ġfauc": 4197,
      "Ġrubber": 4198,
      "eath": 4199,
      "Ġbananas": 4200,
      "chair": 4201,
      "Ġfactory": 4202,
      "ĠSnow": 4203,
      "Ġbetween": 4204,
      "Ġnovel": 4205,
      "Ġsneak": 4206,
      "Ġquarrel": 4207,
      "nam": 4208,
      "Ġbreeze": 4209,
      "Ġpair": 4210,
      "Ġvest": 4211,
      "Ġmint": 4212,
      "Ġbulb": 4213,
      "Ġvend": 4214,
      "Ġheads": 4215,
      "Ġwinter": 4216,
      "Ġlime": 4217,
      "Ġseas": 4218,
      "Ġswung": 4219,
      "ected": 4220,
      "erc": 4221,
      "Ġsteak": 4222,
      "Ġfaucet": 4223,
      "Ġskirt": 4224,
      "Ġphoto": 4225,
      "Ġtrail": 4226,
      "Ġarmchair": 4227,
      "Ġweather": 4228,
      "Ġglove": 4229,
      "place": 4230,
      "useum": 4231,
      "Ġattention": 4232,
      "ories": 4233,
      "inarian": 4234,
      "eterinarian": 4235,
      "Ġburn": 4236,
      "ĠMaria": 4237,
      "ney": 4238,
      "Ġchirp": 4239,
      "Ġveterinarian": 4240,
      "Ġtwink": 4241,
      "Ġheaded": 4242,
      "Ġmixer": 4243,
      "Ġkingdom": 4244,
      "Ġmuseum": 4245,
      "any": 4246,
      "ĠBet": 4247,
      "izes": 4248,
      "Ġhotel": 4249,
      "Ġeagerly": 4250,
      "nit": 4251,
      "Ġshouldn": 4252,
      "Ġzipper": 4253,
      "Ġtaxi": 4254,
      "sed": 4255,
      "Ġthrows": 4256,
      "Ġinsect": 4257,
      "..": 4258,
      "Ġnapkin": 4259,
      "Ġtub": 4260,
      "Ġquit": 4261,
      "Ġfishing": 4262,
      "Ġplayer": 4263,
      "nament": 4264,
      "Ġpanda": 4265,
      "Ġwool": 4266,
      "Ġimagine": 4267,
      "Ġgrocer": 4268,
      "Ġlawyer": 4269,
      "Ġsir": 4270,
      "Ġwife": 4271,
      "Ġaeroplane": 4272,
      "Ġlives": 4273,
      "ĠWill": 4274,
      "ison": 4275,
      "urch": 4276,
      "Ġrever": 4277,
      "Ġplanet": 4278,
      "ippery": 4279,
      "niture": 4280,
      "Ġherb": 4281,
      "Ġflame": 4282,
      "Ġchickens": 4283,
      "Ġfisher": 4284,
      "Ġiron": 4285,
      "Ġbaking": 4286,
      "Ġrot": 4287,
      "stead": 4288,
      "Ġslippery": 4289,
      "ĠRos": 4290,
      "Ġfurniture": 4291,
      "Ġgolden": 4292,
      "ues": 4293,
      "Ġcable": 4294,
      "orth": 4295,
      "Ġcelebrated": 4296,
      "Ġmeeting": 4297,
      "Ġpirates": 4298,
      "Ġvet": 4299,
      "Ġpastry": 4300,
      "gen": 4301,
      "Ġshouting": 4302,
      "unately": 4303,
      "Ġoffer": 4304,
      "Ġdancer": 4305,
      "Ġmotorcycle": 4306,
      "Ġyogurt": 4307,
      "Ġcheek": 4308,
      "Ġwelcomed": 4309,
      "Ġbaseball": 4310,
      "Ch": 4311,
      "ito": 4312,
      "Ġplastic": 4313,
      "Ġexerc": 4314,
      "Ġpassport": 4315,
      "Ġimagination": 4316,
      "Ġseeing": 4317,
      "Ġskull": 4318,
      "ĠdonÃ¢": 4319,
      "Ġdiscus": 4320,
      "Ġvendor": 4321,
      "Ġprun": 4322,
      "Ġfireplace": 4323,
      "Ġmedal": 4324,
      "Ġsprayed": 4325,
      "Ġitch": 4326,
      "Ġornament": 4327,
      "Ġblowing": 4328,
      "ĠUn": 4329,
      "Ġcrow": 4330,
      "Ġslept": 4331,
      "Ġwipe": 4332,
      "gth": 4333,
      "Ġbelongs": 4334,
      "quito": 4335,
      "Eventually": 4336,
      "Ġstaff": 4337,
      "ĠLilly": 4338,
      "Ġshower": 4339,
      "Ġavocado": 4340,
      "una": 4341,
      "ĠMillie": 4342,
      "achel": 4343,
      "Ġflea": 4344,
      "Ġhappens": 4345,
      "elcome": 4346,
      "Ġfreez": 4347,
      "Ġmagaz": 4348,
      "Ġmemories": 4349,
      "Ġstud": 4350,
      "Ġpresents": 4351,
      "low": 4352,
      "Ġsung": 4353,
      "Ġsquirrels": 4354,
      "Ġmos": 4355,
      "Ġtrave": 4356,
      "laud": 4357,
      "Inside": 4358,
      "Ġglowing": 4359,
      "asher": 4360,
      "Ġpetals": 4361,
      "Ġblankets": 4362,
      "washer": 4363,
      "imney": 4364,
      "Ġconf": 4365,
      "Ġdressed": 4366,
      "Ġmosquito": 4367,
      "lass": 4368,
      "Ġignored": 4369,
      "Today": 4370,
      "Ġdishwasher": 4371,
      "Ġminer": 4372,
      "Ġtemple": 4373,
      "Ġfisherman": 4374,
      "Next": 4375,
      "Ġstable": 4376,
      "Ġinf": 4377,
      "Ġchimney": 4378,
      "Ġthrowing": 4379,
      "Ġmystery": 4380,
      "Ġmoves": 4381,
      "Ġfolder": 4382,
      "Ġpoints": 4383,
      "Ġmop": 4384,
      "Ġargue": 4385,
      "Ġmaze": 4386,
      "Ġreve": 4387,
      "rod": 4388,
      "Ġdoors": 4389,
      "Ġsque": 4390,
      "Ġworth": 4391,
      "inked": 4392,
      "orses": 4393,
      "ĠGod": 4394,
      "Ġcrib": 4395,
      "Ġsurround": 4396,
      "Together": 4397,
      "ĠHarry": 4398,
      "Ġintrod": 4399,
      "Ġhanging": 4400,
      "Ġstren": 4401,
      "Ġhar": 4402,
      "rosc": 4403,
      "Ġpoke": 4404,
      "Ġshoulder": 4405,
      "Ġapplaud": 4406,
      "Ġlanguage": 4407,
      "men": 4408,
      "Your": 4409,
      "Ġbury": 4410,
      "Ġhorses": 4411,
      "Ġmicrosc": 4412,
      "Ġcell": 4413,
      "Emma": 4414,
      "hero": 4415,
      "Ġhopes": 4416,
      "Ġsniffed": 4417,
      "Ġseparate": 4418,
      "imi": 4419,
      "Ġjunk": 4420,
      "Ġagre": 4421,
      "Ġsuperhero": 4422,
      "ĠIÃ¢": 4423,
      "Ġstrength": 4424,
      "Ġmicroscope": 4425,
      "Ġgrin": 4426,
      "Ġwriting": 4427,
      "Ġinvest": 4428,
      "Because": 4429,
      "Ġchurch": 4430,
      "medi": 4431,
      "aws": 4432,
      "Ġteleph": 4433,
      "right": 4434,
      "Ġsticky": 4435,
      "ĠRu": 4436,
      "Ġclassroom": 4437,
      "mediately": 4438,
      "Ġtoil": 4439,
      "Ġweep": 4440,
      "Ġsailing": 4441,
      "Ġinvestig": 4442,
      "Ġig": 4443,
      "Ġalarm": 4444,
      "Ġweigh": 4445,
      "Ġlawn": 4446,
      "Ġigloo": 4447,
      "iday": 4448,
      "Ġthumb": 4449,
      "Ġcollected": 4450,
      "Ġbouncing": 4451,
      "Ġticket": 4452,
      "Ġble": 4453,
      "aring": 4454,
      "ĠBaby": 4455,
      "ĠAnnie": 4456,
      "Ġburned": 4457,
      "Ġflapped": 4458,
      "Ġmistakes": 4459,
      "Ġcrawling": 4460,
      "Ġbattery": 4461,
      "Ġtelephone": 4462,
      "Ġpra": 4463,
      "Ġknob": 4464,
      "Ġpopped": 4465,
      "Ġsunglass": 4466,
      "Thanks": 4467,
      "Ġsunglasses": 4468,
      "ĠSee": 4469,
      "Ġgreedy": 4470,
      "Ġsteam": 4471,
      "Ġregret": 4472,
      "Ġwags": 4473,
      "Ġblinked": 4474,
      "Ġstraight": 4475,
      "Ġtoilet": 4476,
      "chie": 4477,
      "Ġnews": 4478,
      "Ġquack": 4479,
      "ĠInstead": 4480,
      "spap": 4481,
      "Ġspear": 4482,
      "mm": 4483,
      "Ġnewspap": 4484,
      "Ġberry": 4485,
      "Ġmarried": 4486,
      "Ġrelaxed": 4487,
      "Ġcalls": 4488,
      "Ġprevent": 4489,
      "ÅĵItÃ¢": 4490,
      "Wait": 4491,
      "Ġdear": 4492,
      "Ġapart": 4493,
      "Ġaccepted": 4494,
      "case": 4495,
      "te": 4496,
      "Ġpuddles": 4497,
      "tress": 4498,
      "Ġpine": 4499,
      "ĠitÃ¢": 4500,
      "Ġlotion": 4501,
      "Ġeaten": 4502,
      "Ġfollows": 4503,
      "Ġshrugged": 4504,
      "Ġradish": 4505,
      "ring": 4506,
      "ety": 4507,
      "Ġfog": 4508,
      "Sammy": 4509,
      "Ġmattress": 4510,
      "reek": 4511,
      "Ġcomplain": 4512,
      "Ġscolded": 4513,
      "Ġsizes": 4514,
      "ssible": 4515,
      "Ġhol": 4516,
      "Ġcreek": 4517,
      "Ġattach": 4518,
      "Ġholiday": 4519,
      "Ġbother": 4520,
      "Ġswamp": 4521,
      "Ġpinch": 4522,
      "Ġpur": 4523,
      "Ġcliff": 4524,
      "Ġcrossed": 4525,
      "Ġinvestigate": 4526,
      "ives": 4527,
      "ĠTony": 4528,
      "Ġgym": 4529,
      "Ġceiling": 4530,
      "Ġfought": 4531,
      "ising": 4532,
      "ores": 4533,
      "Ġagree": 4534,
      "Ġmakeup": 4535,
      "anges": 4536,
      "ĠCharlie": 4537,
      "Ġdem": 4538,
      "ĠKate": 4539,
      "vision": 4540,
      "res": 4541,
      "Ġchoice": 4542,
      "chor": 4543,
      "Ġfloat": 4544,
      "ĊĠ": 4545,
      "Ġwigg": 4546,
      "Ġbeef": 4547,
      "Ġpist": 4548,
      "Ġcared": 4549,
      "Ġvroom": 4550,
      "Ġchess": 4551,
      "Ġquietly": 4552,
      "Ġveil": 4553,
      "Ġentered": 4554,
      "Ġblueberries": 4555,
      "house": 4556,
      "mend": 4557,
      "Ġrequ": 4558,
      "Ġpit": 4559,
      "Ġblackboard": 4560,
      "Ġpistol": 4561,
      "Ġoak": 4562,
      "Ġyield": 4563,
      "Ġraz": 4564,
      "Ġunif": 4565,
      "Ġamazement": 4566,
      "Ġparent": 4567,
      "Ġwhisper": 4568,
      "Ġsqueezed": 4569,
      "Ġuniform": 4570,
      "omes": 4571,
      "Ġtrusted": 4572,
      "ommend": 4573,
      "Ġmusician": 4574,
      "Ġmustache": 4575,
      "Ġdisappear": 4576,
      "Ġyoga": 4577,
      "tain": 4578,
      "Ġhelper": 4579,
      "Ġbelow": 4580,
      "Ġrecommend": 4581,
      "sit": 4582,
      "Ġrake": 4583,
      "Ġcaring": 4584,
      "Ġshrink": 4585,
      "ĠRosie": 4586,
      "Ġfreezer": 4587,
      "Ġtucked": 4588,
      "uckily": 4589,
      "Ġkisses": 4590,
      "Ġward": 4591,
      "Ġimprove": 4592,
      "Ġrooms": 4593,
      "Ġappro": 4594,
      "ups": 4595,
      "Ġtelevision": 4596,
      "asis": 4597,
      "Ġknown": 4598,
      "Ġsqueeze": 4599,
      "Ġwardrobe": 4600,
      "ĠHenry": 4601,
      "bbie": 4602,
      "Ġcastles": 4603,
      "Ġserve": 4604,
      "Qu": 4605,
      "ived": 4606,
      "ĠDanny": 4607,
      "Ġopera": 4608,
      "fortunately": 4609,
      "Ġtug": 4610,
      "Ġeasily": 4611,
      "Ġvideo": 4612,
      "Ġrequest": 4613,
      "Ġfile": 4614,
      "Ġyaw": 4615,
      "Ġbathe": 4616,
      "Ġtut": 4617,
      "Ġsuff": 4618,
      "ĠTed": 4619,
      "Ġoasis": 4620,
      "Ġgrowled": 4621,
      "atie": 4622,
      "Ġanchor": 4623,
      "Ġcob": 4624,
      "Ġstro": 4625,
      "Ġcoal": 4626,
      "Ġbalanc": 4627,
      "Ġjewelry": 4628,
      "ĠNext": 4629,
      "Ġwandered": 4630,
      "Ġperfume": 4631,
      "Ġclaws": 4632,
      "Ġreaches": 4633,
      "Ġsplashing": 4634,
      "Ġfuel": 4635,
      "Ġtip": 4636,
      "ĠHelp": 4637,
      "Ġchairs": 4638,
      "Ġmatches": 4639,
      "hic": 4640,
      "Ġkeeping": 4641,
      "Ġrazor": 4642,
      "Ann": 4643,
      "Did": 4644,
      "Ġvehic": 4645,
      "Ġcandles": 4646,
      "Ġmagazine": 4647,
      "Ġcoats": 4648,
      "Ġringing": 4649,
      "Ġsigh": 4650,
      "Ġhurting": 4651,
      "Ġfiref": 4652,
      "Ġinfant": 4653,
      "Ġdemand": 4654,
      "ab": 4655,
      "eve": 4656,
      "Ġyucky": 4657,
      "Ġkneel": 4658,
      "Ġbookcase": 4659,
      "Ġsurprises": 4660,
      "Ġdelay": 4661,
      "ggy": 4662,
      "Ġnewspaper": 4663,
      "vet": 4664,
      "web": 4665,
      "Ġtoes": 4666,
      "ĠJul": 4667,
      "Ġgrill": 4668,
      "Ġairpl": 4669,
      "Ġscattered": 4670,
      "Ġletting": 4671,
      "Ġskills": 4672,
      "Ġsince": 4673,
      "Ġrefres": 4674,
      "Is": 4675,
      "lier": 4676,
      "Ġtong": 4677,
      "Ġcrash": 4678,
      "Ġincre": 4679,
      "lend": 4680,
      "Ġplates": 4681,
      "Ġlicks": 4682,
      "Ġspade": 4683,
      "ĠSu": 4684,
      "Ġsettled": 4685,
      "ĠBun": 4686,
      "Ġsafety": 4687,
      "Ġapron": 4688,
      "Ġlumber": 4689,
      "Ġrise": 4690,
      "ĠJames": 4691,
      "ero": 4692,
      "Ġdried": 4693,
      "Ġisn": 4694,
      "icing": 4695,
      "Ġraise": 4696,
      "Ġexperience": 4697,
      "ĠTrue": 4698,
      "Ġcobweb": 4699,
      "Ġwaste": 4700,
      "Ġsnap": 4701,
      "Ġaut": 4702,
      "Ġtherm": 4703,
      "oral": 4704,
      "Ġcalend": 4705,
      "Ġwaffle": 4706,
      "'.": 4707,
      "Mr": 4708,
      "Ġharb": 4709,
      "Ġcalendar": 4710,
      "Ġvac": 4711,
      "Ġspending": 4712,
      "Ġimmediately": 4713,
      "Ġlemonade": 4714,
      "Ġribbon": 4715,
      "Will": 4716,
      "anna": 4717,
      "asp": 4718,
      "Ġprop": 4719,
      "Ġwarmth": 4720,
      "Ġsandcastle": 4721,
      "sing": 4722,
      "Ġmass": 4723,
      "raged": 4724,
      "Ġbravely": 4725,
      "Ġcabinet": 4726,
      "Ġwine": 4727,
      "Ġsaving": 4728,
      "Ġlaught": 4729,
      "Ġmoments": 4730,
      "Ġbill": 4731,
      "alley": 4732,
      "Ġfollowing": 4733,
      "ĠRachel": 4734,
      "Ġsparkling": 4735,
      "ĠWho": 4736,
      "Ġunderstanding": 4737,
      "ari": 4738,
      "Ġbeamed": 4739,
      "amber": 4740,
      "Ġspots": 4741,
      "Ġfallen": 4742,
      "Ġstrawberries": 4743,
      "ĠJess": 4744,
      "Ġblouse": 4745,
      "Ġthermomet": 4746,
      "Ġlaughter": 4747,
      "Ġdire": 4748,
      "âĤ¬.": 4749,
      "Ġweap": 4750,
      "Ġsnapped": 4751,
      "Ġvanished": 4752,
      "Ġcherry": 4753,
      "omeday": 4754,
      "Ġfastest": 4755,
      "Ġsupply": 4756,
      "Ġdestination": 4757,
      "Ġvalley": 4758,
      "Ġtrade": 4759,
      "Ġremove": 4760,
      "Ġcaptain": 4761,
      "ah": 4762,
      "Ġsi": 4763,
      "Ġdestroyed": 4764,
      "Ġharbor": 4765,
      "Jen": 4766,
      "Mandy": 4767,
      "Ġblood": 4768,
      "Ġhardly": 4769,
      "Ġrail": 4770,
      "Ġhills": 4771,
      "Ġprepar": 4772,
      "Ġearlier": 4773,
      "Ġflutter": 4774,
      "Welcome": 4775,
      "Ġburied": 4776,
      "Ġinstr": 4777,
      "Ġenter": 4778,
      "ĠClara": 4779,
      "Ġpraised": 4780,
      "Ġcuddled": 4781,
      "ces": 4782,
      "Ġscooped": 4783,
      "Ġdresses": 4784,
      "Ġhearts": 4785,
      "Ġtutor": 4786,
      "ĠIts": 4787,
      "aped": 4788,
      "Ġpoked": 4789,
      "Ġsparkle": 4790,
      "Ġthermometer": 4791,
      "Ġworms": 4792,
      "Ġsub": 4793,
      "ĠEach": 4794,
      "xture": 4795,
      "Ġbeans": 4796,
      "Ġpages": 4797,
      "Ġrow": 4798,
      "Ġideas": 4799,
      "Ġrabbits": 4800,
      "Ġjewels": 4801,
      "With": 4802,
      "Ġremain": 4803,
      "Ġpuzzles": 4804,
      "ival": 4805,
      "'ve": 4806,
      "Ġsomeday": 4807,
      "Ġquiz": 4808,
      "Ġyawned": 4809,
      "Ġport": 4810,
      "Ġboot": 4811,
      "Mark": 4812,
      "Ġcub": 4813,
      "Ġplanes": 4814,
      "Ġhits": 4815,
      "Ġinvite": 4816,
      "omob": 4817,
      "Ġbirdc": 4818,
      "Ġpride": 4819,
      "Ġcrunch": 4820,
      "Ġignore": 4821,
      "Ġreverse": 4822,
      "Ġmyself": 4823,
      "angers": 4824,
      "Ġtaller": 4825,
      "Ġbirdcage": 4826,
      "Peter": 4827,
      "ĠMimi": 4828,
      "Ġsneeze": 4829,
      "Ġautomob": 4830,
      "Ġlic": 4831,
      "ĠMiss": 4832,
      "ĠSpike": 4833,
      "ampoo": 4834,
      "Ġshooting": 4835,
      "Ġhomes": 4836,
      "Ġtornado": 4837,
      "Ġbleed": 4838,
      "riger": 4839,
      "Ġpanic": 4840,
      "Ġrefriger": 4841,
      "Ġrefrigerator": 4842,
      "Ġwashing": 4843,
      "Ġchamber": 4844,
      "izard": 4845,
      "Ġdirect": 4846,
      "Ġbookshe": 4847,
      "Ġreceived": 4848,
      "ĠHave": 4849,
      "Ġbegged": 4850,
      "htray": 4851,
      "Ġashtray": 4852,
      "Ġlugg": 4853,
      "Ġgear": 4854,
      "ionary": 4855,
      "ucture": 4856,
      "Ġtide": 4857,
      "Ġstructure": 4858,
      "ictionary": 4859,
      "Ġluggage": 4860,
      "Yuck": 4861,
      "Ġmall": 4862,
      "Ġadmir": 4863,
      "Ġbumped": 4864,
      "Ġstomach": 4865,
      "Ġinsisted": 4866,
      "pare": 4867,
      "Ġachie": 4868,
      "ared": 4869,
      "Ġsty": 4870,
      "ĠMay": 4871,
      "ĠDan": 4872,
      "inky": 4873,
      "Ġtongue": 4874,
      "Ġdictionary": 4875,
      "Ġjazz": 4876,
      "Ġmissile": 4877,
      "Ġfest": 4878,
      "Ġsocks": 4879,
      "Ġclimbs": 4880,
      "Ġsolved": 4881,
      "Ġshot": 4882,
      "Ġshampoo": 4883,
      "Ġpoison": 4884,
      "Ġfloated": 4885,
      "Ġprepare": 4886,
      "Ġappreciate": 4887,
      "Ġpalm": 4888,
      "Ġmuffin": 4889,
      "Lisa": 4890,
      "ĠRe": 4891,
      "osed": 4892,
      "Ġteaching": 4893,
      "ission": 4894,
      "ĠFreddy": 4895,
      "Ġnone": 4896,
      "ops": 4897,
      "Ġalright": 4898,
      "Ġoranges": 4899,
      "Ġneighborhood": 4900,
      "Ġpermission": 4901,
      "Ġunite": 4902,
      "ĠSnowy": 4903,
      "Ok": 4904,
      "ĠMaggie": 4905,
      "Ġfloating": 4906,
      "Ġpunish": 4907,
      "Ġchores": 4908,
      "Ġpatiently": 4909,
      "Ġscratch": 4910,
      "Ġprovide": 4911,
      "Ġbookshelf": 4912,
      "Ġrestore": 4913,
      "ĠBefore": 4914,
      "Ġvacation": 4915,
      "Ġitem": 4916,
      "Ġdrain": 4917,
      "Ġexamine": 4918,
      "Ġplays": 4919,
      "Ġjogging": 4920,
      "Ġsparkles": 4921,
      "Ġcartoon": 4922,
      "ĠPeople": 4923,
      "ĠKing": 4924,
      "osity": 4925,
      "Ġgifts": 4926,
      "ls": 4927,
      "Ġsimp": 4928,
      "Ġdare": 4929,
      "ishing": 4930,
      "Ġdifference": 4931,
      "ĠBuzz": 4932,
      "Ġbreathe": 4933,
      "rise": 4934,
      "Ġranch": 4935,
      "TMll": 4936,
      "Ġparts": 4937,
      "Ġmailman": 4938,
      "Ġlabel": 4939,
      "Ġbuzzing": 4940,
      "Ġlicense": 4941,
      "Ġpulling": 4942,
      "Ġbelieved": 4943,
      "Ġexercise": 4944,
      "Ġsits": 4945,
      "Ġweeks": 4946,
      "Ġmeasured": 4947,
      "Ġtore": 4948,
      "Ġdaisy": 4949,
      "Ġhers": 4950,
      "TMre": 4951,
      "iers": 4952,
      "ĠAb": 4953,
      "ĠFo": 4954,
      "Ġwizard": 4955,
      "Ġrhy": 4956,
      "Ġstruggling": 4957,
      "Ġsigns": 4958,
      "Ġmodel": 4959,
      "Ġapproached": 4960,
      "Ġairplane": 4961,
      "ium": 4962,
      "Ġuniverse": 4963,
      "Ġchirping": 4964,
      "Ġscore": 4965,
      "Ġdeeper": 4966,
      "ĠEveryday": 4967,
      "Ġreplace": 4968,
      "Ġinvit": 4969,
      "Ġcollecting": 4970,
      "All": 4971,
      "Ġleak": 4972,
      "Ġsunrise": 4973,
      "Ġautomobile": 4974,
      "Ġelephants": 4975,
      "asc": 4976,
      "antly": 4977,
      "Ġwhip": 4978,
      "Ġgrape": 4979,
      "Ġbrain": 4980,
      "Not": 4981,
      "Ġoper": 4982,
      "nies": 4983,
      "Ġdigg": 4984,
      "Ġglowed": 4985,
      "Ġfestival": 4986,
      "ĠTina": 4987,
      "Ġdigging": 4988,
      "Ġequ": 4989,
      "Ġdecorations": 4990,
      "Ġpatterns": 4991,
      "ents": 4992,
      "Ġjail": 4993,
      "ĠJoy": 4994,
      "bey": 4995,
      "Ġwhistled": 4996,
      "Ġsport": 4997,
      "Ġroot": 4998,
      "Ġworse": 4999,
      "Ġcollection": 5000,
      "Ġrush": 5001,
      "Ġhanger": 5002,
      "Ġhesit": 5003,
      "Ġupstairs": 5004,
      "Ġsupposed": 5005,
      "Ġencouraged": 5006,
      "Ġbang": 5007,
      "Ġsetting": 5008,
      "Ġglo": 5009,
      "Ġthrilled": 5010,
      "Ġguy": 5011,
      "Ġbeg": 5012,
      "Ġmeowed": 5013,
      "Ġsoldiers": 5014,
      "Ġsausage": 5015,
      "Ġgrey": 5016,
      "ĠCo": 5017,
      "Ġmelted": 5018,
      "ging": 5019,
      "xc": 5020,
      "uture": 5021,
      "Ġtease": 5022,
      "Fl": 5023,
      "xy": 5024,
      "Ġmention": 5025,
      "Ġgust": 5026,
      "Ġvehicle": 5027,
      "Ġfuture": 5028,
      "ÅĵNo": 5029,
      "Ġbites": 5030,
      "ĠRuby": 5031,
      "Ġsip": 5032,
      "Ġstad": 5033,
      "Ġteasp": 5034,
      "Ġstadium": 5035,
      "ĠV": 5036,
      "ĠIs": 5037,
      "ĠPenny": 5038,
      "ĠGood": 5039,
      "Ġrepeat": 5040,
      "Ġsprinkles": 5041,
      "Ġdiscovery": 5042,
      "allen": 5043,
      "thm": 5044,
      "Ġmassage": 5045,
      "Ġscur": 5046,
      "Ġweapon": 5047,
      "Ġwhistling": 5048,
      "bers": 5049,
      "Ġbak": 5050,
      "These": 5051,
      "Ġbillboard": 5052,
      "sity": 5053,
      "Ġvel": 5054,
      "Ġgain": 5055,
      "Ġpotatoes": 5056,
      "igail": 5057,
      "Ġshed": 5058,
      "Ġchallen": 5059,
      "ĠPoppy": 5060,
      "Ġhurric": 5061,
      "Ġvelvet": 5062,
      "fied": 5063,
      "Ġsew": 5064,
      "Ġbathrobe": 5065,
      "Ġfasc": 5066,
      "ĠLater": 5067,
      "Johnny": 5068,
      "Ġolive": 5069,
      "Mmm": 5070,
      "do": 5071,
      "Ġtoe": 5072,
      "Ġrespons": 5073,
      "Ġburning": 5074,
      "Ġtwisted": 5075,
      "Ġrhythm": 5076,
      "eed": 5077,
      "atch": 5078,
      "Ġsore": 5079,
      "Ġgirls": 5080,
      "Ġmanage": 5081,
      "Ġproblems": 5082,
      "ĠZoe": 5083,
      "Ġbricks": 5084,
      "ities": 5085,
      "Ġlect": 5086,
      "Ġremained": 5087,
      "Ġzipped": 5088,
      "Ġpaused": 5089,
      "Jake": 5090,
      "Before": 5091,
      "Ġgrinned": 5092,
      "fy": 5093,
      "Ġeff": 5094,
      "Ġlaid": 5095,
      "Ġwarning": 5096,
      "Ġawe": 5097,
      "Ġobserve": 5098,
      "Ġracing": 5099,
      "Ġcrunchy": 5100,
      "Would": 5101,
      "Ġemer": 5102,
      "umble": 5103,
      "Ġflav": 5104,
      "ĠBetsy": 5105,
      "Ġgrocery": 5106,
      "Ġhurricane": 5107,
      "Ġwherever": 5108,
      "Ġseats": 5109,
      "Ġdecision": 5110,
      "Ġfixing": 5111,
      "Ġurge": 5112,
      "utty": 5113,
      "emember": 5114,
      "Ġblueberry": 5115,
      "Ġlecture": 5116,
      "Ouch": 5117,
      "Ġlick": 5118,
      "Ġspaces": 5119,
      "Ġflood": 5120,
      "Ġskipping": 5121,
      "Ġworks": 5122,
      "Ġsurrounded": 5123,
      "Ġfascin": 5124,
      "cles": 5125,
      "Ġduring": 5126,
      "Ġsunlight": 5127,
      "Ġsneezed": 5128,
      "Ġcrashed": 5129,
      "Ġdrinking": 5130,
      "Ġattached": 5131,
      "Ġactually": 5132,
      "Emily": 5133,
      "Ġmarbles": 5134,
      "!'": 5135,
      "Ġnation": 5136,
      "allow": 5137,
      "Ġteaspoon": 5138,
      "oved": 5139,
      "Ġlily": 5140,
      "Ġwatches": 5141,
      "Ġpigs": 5142,
      "Ġreceive": 5143,
      "Ġchir": 5144,
      "Ġpoppy": 5145,
      "Ġsliding": 5146,
      "Ġpeanuts": 5147,
      "cious": 5148,
      "ases": 5149,
      "Ġrust": 5150,
      "Ġwatered": 5151,
      "Ġbuildings": 5152,
      "Ġprayed": 5153,
      "Ġexplor": 5154,
      "Ġoperation": 5155,
      "Ġchirped": 5156,
      "Ġx": 5157,
      "Ġtracks": 5158,
      "Ġbrus": 5159,
      "bbled": 5160,
      "Ġbuckle": 5161,
      "Ġmeasuring": 5162,
      "Ġhate": 5163,
      "Ġslice": 5164,
      "Ġmonsters": 5165,
      "Ġsafari": 5166,
      "Ġsuffer": 5167,
      "Ġcomfy": 5168,
      "ĠChirp": 5169,
      "Ġheat": 5170,
      "ĠAm": 5171,
      "Ġsatis": 5172,
      "Ġdrinks": 5173,
      "Ġordered": 5174,
      "Ġuniversity": 5175,
      "Ġspit": 5176,
      "Ġlets": 5177,
      "ĠOllie": 5178,
      "ĠLuna": 5179,
      "Ġhated": 5180,
      "Sh": 5181,
      "Ġfed": 5182,
      "Ġcakes": 5183,
      "Ġrecognized": 5184,
      "Ġsubway": 5185,
      "Ġinvitation": 5186,
      "awn": 5187,
      "Ġbes": 5188,
      "Ġbeat": 5189,
      "Ġraised": 5190,
      "Ġappear": 5191,
      "Ġours": 5192,
      "Ġfireworks": 5193,
      "ÅĵThatÃ¢": 5194,
      "Ġbrings": 5195,
      "Ġremem": 5196,
      "Ġmarching": 5197,
      "Ġspoons": 5198,
      "Ġcurled": 5199,
      "Ġchewed": 5200,
      "Ġtomatoes": 5201,
      "ĠSomeone": 5202,
      "unday": 5203,
      "Ġmemory": 5204,
      "Ġrefreshed": 5205,
      "Ġremembers": 5206,
      "eren": 5207,
      "Ġmister": 5208,
      "ĠLiz": 5209,
      "Ġcontain": 5210,
      "Ġlands": 5211,
      "Ġscreams": 5212,
      "ced": 5213,
      "walk": 5214,
      "Ġmitten": 5215,
      "Ġpillows": 5216,
      "mother": 5217,
      "!\",": 5218,
      "Ġpossible": 5219,
      "ĠFro": 5220,
      "Ġkindly": 5221,
      "Ġmineral": 5222,
      "Ġsings": 5223,
      "Ġplanted": 5224,
      "Ġcartoons": 5225,
      "Ġprice": 5226,
      "ÅĵIÃ¢": 5227,
      "Ġtour": 5228,
      "ĠSunday": 5229,
      "Ġtremb": 5230,
      "Ġhappiest": 5231,
      "ĠMe": 5232,
      "Ġpanc": 5233,
      "Ġeasier": 5234,
      "Ġcircus": 5235,
      "Ġearthqu": 5236,
      "Ġbeside": 5237,
      "son": 5238,
      "ĠCat": 5239,
      "Ġturning": 5240,
      "Ġkeeper": 5241,
      "Ġcontinue": 5242,
      "Ġmountains": 5243,
      "Ġclearing": 5244,
      "Ġstrip": 5245,
      "Ready": 5246,
      "Ġeffort": 5247,
      "hest": 5248,
      "Ġbringing": 5249,
      "Ġfolded": 5250,
      "Ġtwigs": 5251,
      "Ġwre": 5252,
      "Ġstrangers": 5253,
      "ĠMat": 5254,
      "Ġspill": 5255,
      "Ġsidewalk": 5256,
      "Ġscratched": 5257,
      "ĠSteve": 5258,
      "Ġdisagreed": 5259,
      "Ġescaped": 5260,
      "adly": 5261,
      "Ġpetted": 5262,
      "ĠMilly": 5263,
      "Ġdoggy": 5264,
      "ÅĵWe": 5265,
      "ipment": 5266,
      "Ġwaits": 5267,
      "Ġresult": 5268,
      "ĠSharing": 5269,
      "Ro": 5270,
      "Ġwanting": 5271,
      "Ġofficer": 5272,
      "Ġserved": 5273,
      "Ġequipment": 5274,
      "\",": 5275,
      "Ġevent": 5276,
      "seek": 5277,
      "Ġslip": 5278,
      "Yum": 5279,
      "Ġweren": 5280,
      "Ġsoared": 5281,
      "Ġselling": 5282,
      "Ġpitch": 5283,
      "Ġstitch": 5284,
      "Ġbrand": 5285,
      "ÅĵThank": 5286,
      "Ġtrapped": 5287,
      "Ġcompany": 5288,
      "Ġadmiring": 5289,
      "Ġmuddy": 5290,
      "Ġonwards": 5291,
      "Ġanytime": 5292,
      "Ġguessed": 5293,
      "Ġwid": 5294,
      "Ġtalent": 5295,
      "Ġstyle": 5296,
      "Moral": 5297,
      "ĠLetÃ¢": 5298,
      "Ġwarn": 5299,
      "Ġgaz": 5300,
      "amb": 5301,
      "Ġallow": 5302,
      "Ġmeow": 5303,
      "Ġprecious": 5304,
      "Ġpaints": 5305,
      "ĠNutty": 5306,
      "Ġrevealed": 5307,
      "Ġspaceship": 5308,
      "Ġwond": 5309,
      "ĠNot": 5310,
      "Ġmouths": 5311,
      "loe": 5312,
      "anta": 5313,
      "Ġpeered": 5314,
      "Ġbeds": 5315,
      "igned": 5316,
      "Ġweight": 5317,
      "Ġcopper": 5318,
      "Ġperched": 5319,
      "Ġpermit": 5320,
      "Ġagreement": 5321,
      "Ġfet": 5322,
      "ences": 5323,
      "Ġglitter": 5324,
      "ĠKatie": 5325,
      "Ġpets": 5326,
      "Ġprepared": 5327,
      "Ġbones": 5328,
      "aded": 5329,
      "omething": 5330,
      "Ġwisdom": 5331,
      "Ġobey": 5332,
      "Ġflap": 5333,
      "Ġgotten": 5334,
      "Ġrested": 5335,
      "Ġreminder": 5336,
      "Ġnavy": 5337,
      "Ġsecrets": 5338,
      "ern": 5339,
      "amie": 5340,
      "avid": 5341,
      "joyed": 5342,
      "Ġbowed": 5343,
      "Ġsimple": 5344,
      "Ġearthquake": 5345,
      "oming": 5346,
      "Ġoverjoyed": 5347,
      "Ġvillag": 5348,
      "ales": 5349,
      "Ġunderground": 5350,
      "Ġsettle": 5351,
      "Ġpedal": 5352,
      "Ġeveryday": 5353,
      "Ġswims": 5354,
      "Really": 5355,
      "Ġsucceeded": 5356,
      "idges": 5357,
      "Ġexact": 5358,
      "Ġscoop": 5359,
      "Ġleather": 5360,
      "Ġwooden": 5361,
      "Ġpracticing": 5362,
      "Ġhurried": 5363,
      "Ġshadows": 5364,
      "Ġfirefight": 5365,
      "First": 5366,
      "Ġcatching": 5367,
      "Ġvisiting": 5368,
      "iggy": 5369,
      "Ġapologize": 5370,
      "Ġladyb": 5371,
      "Ġstripes": 5372,
      "umes": 5373,
      "Ġzero": 5374,
      "Ġcutting": 5375,
      "Luckily": 5376,
      "Ġcomple": 5377,
      "Ġcomforted": 5378,
      "Ġwaffles": 5379,
      "Ġfamil": 5380,
      "Ġdinosaurs": 5381,
      "Le": 5382,
      "Susie": 5383,
      "Ġshopping": 5384,
      "Ġtickets": 5385,
      "Ġlips": 5386,
      "Ġmenu": 5387,
      "Ġcal": 5388,
      "Ġbridges": 5389,
      "Ġcrept": 5390,
      "Ġrang": 5391,
      "Ġcostumes": 5392,
      "Ġsadness": 5393,
      "Ġrained": 5394,
      "Ġwrites": 5395,
      "Ġbegin": 5396,
      "Ġcuriosity": 5397,
      "Ġsteel": 5398,
      "Ġoats": 5399,
      "Ġgloves": 5400,
      "len": 5401,
      "Ġhist": 5402,
      "enty": 5403,
      "Ġanswers": 5404,
      "Ġactiv": 5405,
      "Ġbrick": 5406,
      "Ġdrag": 5407,
      "Ġhistory": 5408,
      "ays": 5409,
      "ĠHoppy": 5410,
      "Ġstruggled": 5411,
      "Ġolives": 5412,
      "Ġdiscuss": 5413,
      "ishes": 5414,
      "Ġripped": 5415,
      "Ġwhatever": 5416,
      "Ġbehav": 5417,
      "Ġbeneath": 5418,
      "Ġcuddle": 5419,
      "Ġvillagers": 5420,
      "Exc": 5421,
      "ding": 5422,
      "Ġmice": 5423,
      "Ġfiremen": 5424,
      "Ġfreeze": 5425,
      "Ġbleeding": 5426,
      "Ġbrushed": 5427,
      "Ġimage": 5428,
      "Ġbye": 5429,
      "Ġwaist": 5430,
      "ĠTiny": 5431,
      "Ġsting": 5432,
      "Ġdisturbed": 5433,
      "Ġpastel": 5434,
      "Ġeagle": 5435,
      "mare": 5436,
      "Ġyawn": 5437,
      "Ġarea": 5438,
      "Ġweighed": 5439,
      "Ġdecides": 5440,
      "Ġpadd": 5441,
      "int": 5442,
      "Ġknelt": 5443,
      "ĠSpark": 5444,
      "Ġtwirling": 5445,
      "Ġexamined": 5446,
      "ĠChirpy": 5447,
      "icorn": 5448,
      "Ġsnail": 5449,
      "Ġcreation": 5450,
      "Ġunicorn": 5451,
      "Ġpupp": 5452,
      "ĠChr": 5453,
      "Ġstealing": 5454,
      "Ġfascinated": 5455,
      "Ġwonders": 5456,
      "Tweet": 5457,
      "mble": 5458,
      "Ġinch": 5459,
      "Ġvoices": 5460,
      "ĠOl": 5461,
      "Ġdecorated": 5462,
      "annah": 5463,
      "Ġsix": 5464,
      "Ġaccom": 5465,
      "Ġsoaring": 5466,
      "Ġgrandmother": 5467,
      "neath": 5468,
      "zag": 5469,
      "Ġbare": 5470,
      "Ġdownstairs": 5471,
      "Ġnightmare": 5472,
      "Ġrul": 5473,
      "Ġvict": 5474,
      "Ġspiders": 5475,
      "Ġlemons": 5476,
      "Ġrides": 5477,
      "Ġprune": 5478,
      "Ġexactly": 5479,
      "isten": 5480,
      "Ġzooming": 5481,
      "Ġpancakes": 5482,
      "kins": 5483,
      "Ġbreaking": 5484,
      "Ġprinter": 5485,
      "Ġaccidents": 5486,
      "Ġbun": 5487,
      "Ġpies": 5488,
      "ulu": 5489,
      "ĠJe": 5490,
      "Ġmission": 5491,
      "Ġpupil": 5492,
      "ĠAbigail": 5493,
      "uke": 5494,
      "riage": 5495,
      "Ġdoctors": 5496,
      "Ġowned": 5497,
      "Ġitems": 5498,
      "Ġwreck": 5499,
      "dam": 5500,
      "ĠSomething": 5501,
      "terday": 5502,
      "Ġoutdo": 5503,
      "Ġtremble": 5504,
      "Ġpeel": 5505,
      "Ġjogged": 5506,
      "Ġneighbourhood": 5507,
      "usan": 5508,
      "Ġlandsc": 5509,
      "Ġpinched": 5510,
      "Ġstudied": 5511,
      "Ġaccompl": 5512,
      "Dave": 5513,
      "ĠQu": 5514,
      "Ġdied": 5515,
      "Ġsitu": 5516,
      "Andy": 5517,
      "Ġgained": 5518,
      "Ġrealize": 5519,
      "Ġwinning": 5520,
      "Ġzig": 5521,
      "ĠFloppy": 5522,
      "looking": 5523,
      "ĠUncle": 5524,
      "xygen": 5525,
      "Ġfash": 5526,
      "Ġlap": 5527,
      "izing": 5528,
      "ĠCla": 5529,
      "Ġcontro": 5530,
      "Ġtastes": 5531,
      "Ġargued": 5532,
      "Sometimes": 5533,
      "Ġnails": 5534,
      "Fluffy": 5535,
      "Ġtune": 5536,
      "ĠHowever": 5537,
      "Ġrecognize": 5538,
      "ĠRemy": 5539,
      "ĠKe": 5540,
      "Ġstretching": 5541,
      "Ġeats": 5542,
      "Ġkeys": 5543,
      "Ġpunished": 5544,
      "Ġcaut": 5545,
      "ĠFirst": 5546,
      "Ġmarkers": 5547,
      "Ġunlocked": 5548,
      "Paul": 5549,
      "Ġrele": 5550,
      "Ġstruck": 5551,
      "ffic": 5552,
      "Ġsnowball": 5553,
      "Ġbuckets": 5554,
      "Ġtravell": 5555,
      "Ġresponsible": 5556,
      "rr": 5557,
      "Ġlines": 5558,
      "Ġtraffic": 5559,
      "Ġruin": 5560,
      "Ġstirring": 5561,
      "Ġpiles": 5562,
      "Ġlandscape": 5563,
      "ĠThese": 5564,
      "Ġlied": 5565,
      "Ġslapped": 5566,
      "Ġchef": 5567,
      "ÅĵCan": 5568,
      "Goodbye": 5569,
      "ĠBubbles": 5570,
      "Ġseason": 5571,
      "Ġwagging": 5572,
      "ĠSanta": 5573,
      "ley": 5574,
      "ÅĵLook": 5575,
      "Ġyelling": 5576,
      "Ġparked": 5577,
      "Ġnetwork": 5578,
      "Ġloaded": 5579,
      "Ġemergen": 5580,
      "Ġloving": 5581,
      "Ġkeeps": 5582,
      "Happy": 5583,
      "Ġsatisfied": 5584,
      "Ġladybug": 5585,
      "Ġago": 5586,
      "Ġwondering": 5587,
      "Ġshivering": 5588,
      "Ġproperly": 5589,
      "ĠBeth": 5590,
      "ĠItÃ¢": 5591,
      "ÅĵDon": 5592,
      "Ġunderneath": 5593,
      "Ġneighbors": 5594,
      "aky": 5595,
      "Ġpockets": 5596,
      "Ġclaps": 5597,
      "Un": 5598,
      "ĠJan": 5599,
      "Ġdraws": 5600,
      "Ġtouching": 5601,
      "Ġsights": 5602,
      "ik": 5603,
      "Ġchallenge": 5604,
      "Ġbunnies": 5605,
      "Ġfashion": 5606,
      "Mar": 5607,
      "Ġtugged": 5608,
      "Ġoxygen": 5609,
      "Ġexit": 5610,
      "Ġcompleted": 5611,
      "Ġbend": 5612,
      "Ġdent": 5613,
      "Ġweb": 5614,
      "Ġsolut": 5615,
      "âĤ¬âĢĿ": 5616,
      "ĠFrank": 5617,
      "Ġinstruct": 5618,
      "Ġscurried": 5619,
      "Rex": 5620,
      "zen": 5621,
      "Ġloose": 5622,
      "indy": 5623,
      "Ġplanned": 5624,
      "Ġacorns": 5625,
      "Ġintroduc": 5626,
      "ib": 5627,
      "Ġvent": 5628,
      "ĠRa": 5629,
      "Ġpouring": 5630,
      "ody": 5631,
      "Ġcape": 5632,
      "Ġsoak": 5633,
      "Ġvowed": 5634,
      "ler": 5635,
      "Ġbank": 5636,
      "Ġpretti": 5637,
      "Ġdrift": 5638,
      "Ġbouncy": 5639,
      "Ġsneaked": 5640,
      "Ġcontrol": 5641,
      "Ġprettiest": 5642,
      "Or": 5643,
      "Ġdam": 5644,
      "ĠLike": 5645,
      "Joey": 5646,
      "ĠStop": 5647,
      "Ġintroduce": 5648,
      "Ġoutdoors": 5649,
      "ury": 5650,
      "ĠSunny": 5651,
      "ĠLucky": 5652,
      "Ġmuscles": 5653,
      "Ġrubbing": 5654,
      "Ġsurface": 5655,
      "ĠOnce": 5656,
      "Ġmittens": 5657,
      "ĠTw": 5658,
      "imy": 5659,
      "ĠAnne": 5660,
      "ilo": 5661,
      "Ġeast": 5662,
      "ĠSuzy": 5663,
      "Teddy": 5664,
      "Ġpears": 5665,
      "isters": 5666,
      "Ġtexture": 5667,
      "Ġprinted": 5668,
      "Ġburrow": 5669,
      "Ġbloomed": 5670,
      "Ġpurred": 5671,
      "Ġincrease": 5672,
      "nie": 5673,
      "Ġnicer": 5674,
      "Ġshoulders": 5675,
      "ux": 5676,
      "ĠPr": 5677,
      "Ġprotected": 5678,
      "Ġhorns": 5679,
      "Ġbalancing": 5680,
      "Ġsiren": 5681,
      "Ġbarely": 5682,
      "Ġvictory": 5683,
      "George": 5684,
      "ĠletÃ¢": 5685,
      "Ġfrozen": 5686,
      "Ġsilence": 5687,
      "Ġstamps": 5688,
      "Ġtonight": 5689,
      "ora": 5690,
      "inda": 5691,
      "Ġcrumb": 5692,
      "uesday": 5693,
      "edding": 5694,
      "ayla": 5695,
      "ĠBig": 5696,
      "Ġopin": 5697,
      "Ġbottles": 5698,
      "Ġgathering": 5699,
      "Ġpowers": 5700,
      "Ġmentioned": 5701,
      "Ġruler": 5702,
      "Ġmater": 5703,
      "ĠAn": 5704,
      "ĠDid": 5705,
      "bbing": 5706,
      "Ġadult": 5707,
      "Ġinstructions": 5708,
      "Ġmateri": 5709,
      ".'": 5710,
      "ica": 5711,
      "Ġrocked": 5712,
      "Ġsteep": 5713,
      "Ġcompetition": 5714,
      "Ġzigzag": 5715,
      "nes": 5716,
      "Ġsisters": 5717,
      "bert": 5718,
      "Ġfrost": 5719,
      "Ġplanets": 5720,
      "Ġroaring": 5721,
      "Ġ1": 5722,
      "Ġfoods": 5723,
      "Ġapplauded": 5724,
      "Ġsides": 5725,
      "Ġstrings": 5726,
      "Ġteasing": 5727,
      "ĠPip": 5728,
      "thank": 5729,
      "Ġhonk": 5730,
      "Ġsupplies": 5731,
      "Ġprints": 5732,
      "Ġdragons": 5733,
      "Ġann": 5734,
      "Ġstole": 5735,
      "Ġwinner": 5736,
      "Ġmixing": 5737,
      "Ġgiggling": 5738,
      "Bella": 5739,
      "ednes": 5740,
      "ĠTuesday": 5741,
      "Ġmatched": 5742,
      "Ġrainbows": 5743,
      "Ġmachines": 5744,
      "Ġurged": 5745,
      "ednesday": 5746,
      "die": 5747,
      "va": 5748,
      "Ġrelease": 5749,
      "Ġgrant": 5750,
      "Ġmarks": 5751,
      "Ġtickle": 5752,
      "Ġfetch": 5753,
      "zie": 5754,
      "Ġda": 5755,
      "Ġstair": 5756,
      "Ġmovies": 5757,
      "ĠJulie": 5758,
      "Bobby": 5759,
      "ason": 5760,
      "Ġsoaked": 5761,
      "ĠCoco": 5762,
      "Ġreleased": 5763,
      "Ġemergency": 5764,
      "Ġourselves": 5765,
      "Ġguns": 5766,
      "jam": 5767,
      "uly": 5768,
      "Ġranger": 5769,
      "Ġtim": 5770,
      "Ġbunch": 5771,
      "ĠBir": 5772,
      "ÅĵThis": 5773,
      "Ġbroom": 5774,
      "Ġfigured": 5775,
      "Ġpearl": 5776,
      "Ġlux": 5777,
      "ĠWednesday": 5778,
      "Ġpebbles": 5779,
      "Ġpeaches": 5780,
      "Ġbudge": 5781,
      "Ġshivered": 5782,
      "Ġbrushes": 5783,
      "Ġwest": 5784,
      "icked": 5785,
      "Ġsorting": 5786,
      "uctantly": 5787,
      "Ġexpect": 5788,
      "bric": 5789,
      "ÅĵHello": 5790,
      "Ġacted": 5791,
      "Ġcones": 5792,
      "Ġmarriage": 5793,
      "Ġcupc": 5794,
      "Ġsorted": 5795,
      "Ġfabric": 5796,
      "Ġprunes": 5797,
      "Ġcrowd": 5798,
      "Lola": 5799,
      "Ġbeard": 5800,
      "ĠJones": 5801,
      "ĠDavid": 5802,
      "though": 5803,
      "Ġmaster": 5804,
      "Ġslimy": 5805,
      "Ġproject": 5806,
      "ĠChloe": 5807,
      "Ġcamping": 5808,
      "Ġsausages": 5809,
      "Ġfrosting": 5810,
      "Ġfart": 5811,
      "ĠCar": 5812,
      "lowly": 5813,
      "Mike": 5814,
      "Maggie": 5815,
      "icky": 5816,
      "Ġdeser": 5817,
      "Ġtwinkling": 5818,
      "Ġconfident": 5819,
      "Ah": 5820,
      "Ġdragged": 5821,
      "Ġwaiter": 5822,
      "Ġscreaming": 5823,
      "Ella": 5824,
      "ira": 5825,
      "Ġpoking": 5826,
      "Ġcatches": 5827,
      "Ġdemanded": 5828,
      "bies": 5829,
      "irm": 5830,
      "Ġgoodnight": 5831,
      "ĠCarl": 5832,
      "Ġdiscovering": 5833,
      "ĠHop": 5834,
      "Ġforgi": 5835,
      "Ġbabies": 5836,
      "Ġpaintings": 5837,
      "Ġpassing": 5838,
      "Ġcautious": 5839,
      "Ġpout": 5840,
      "ĠSusan": 5841,
      "Ġchat": 5842,
      "Ġguest": 5843,
      "Ġdisagree": 5844,
      "omas": 5845,
      "Ġshock": 5846,
      "ĠLulu": 5847,
      "Ġchases": 5848,
      "Ġsweeties": 5849,
      "Ġdrives": 5850,
      "Ġincluded": 5851,
      "ĠJosh": 5852,
      "Ġentire": 5853,
      "Grace": 5854,
      "Ġcurtains": 5855,
      "Ġmuffins": 5856,
      "Ġintroduced": 5857,
      "Cl": 5858,
      "Ġwedding": 5859,
      "Ġreluctantly": 5860,
      "Ġpatience": 5861,
      "Ġsuitc": 5862,
      "exp": 5863,
      "Ġeight": 5864,
      "Ġgoals": 5865,
      "Ġdusty": 5866,
      "Remember": 5867,
      "Sophie": 5868,
      "vin": 5869,
      "Ġblink": 5870,
      "Ġbaked": 5871,
      "Ġhighest": 5872,
      "Ġmatching": 5873,
      "Ġachieve": 5874,
      "Ġguys": 5875,
      "Ġyouth": 5876,
      "ledge": 5877,
      "Ġherbs": 5878,
      "Ġsituation": 5879,
      "you": 5880,
      "Ġplenty": 5881,
      "usted": 5882,
      "Ġknowledge": 5883,
      "Ġwritten": 5884,
      "izzie": 5885,
      "Ġshelves": 5886,
      "Pete": 5887,
      "Ġlamb": 5888,
      "ashing": 5889,
      "Ġrocking": 5890,
      "Ġtowels": 5891,
      "Ġspraying": 5892,
      "ÅĵDonÃ¢": 5893,
      "Ġwink": 5894,
      "esome": 5895,
      "Ġstorekeeper": 5896,
      "Ġcheering": 5897,
      "Ġchewing": 5898,
      "Ġribbons": 5899,
      "Ġsolution": 5900,
      "vers": 5901,
      "Ġhugging": 5902,
      "Ġmotion": 5903,
      "Ġgazed": 5904,
      "expected": 5905,
      "fit": 5906,
      "immer": 5907,
      "Ġcomm": 5908,
      "Ġbravery": 5909,
      "Ġunited": 5910,
      "Ġpoliceman": 5911,
      "eezing": 5912,
      "Ġrecorded": 5913,
      "Ġcurly": 5914,
      "Ġdirection": 5915,
      "Ġdentist": 5916,
      "appy": 5917,
      "uzz": 5918,
      "Ġtruly": 5919,
      "Ġunexpected": 5920,
      "Afterwards": 5921,
      "Ġprayer": 5922,
      "Grandpa": 5923,
      "Ġstudying": 5924,
      "Ġpenguins": 5925,
      "Ġthreat": 5926,
      "ĠAlways": 5927,
      "Ġsighs": 5928,
      "ivery": 5929,
      "Ġsway": 5930,
      "lee": 5931,
      "ĠcanÃ¢": 5932,
      "ĠJamie": 5933,
      "agull": 5934,
      "Ġsweets": 5935,
      "Ġcontest": 5936,
      "Ġcreating": 5937,
      "Ġkicking": 5938,
      "Ġzookeeper": 5939,
      "Ġradishes": 5940,
      "Henry": 5941,
      "eah": 5942,
      "go": 5943,
      "iar": 5944,
      "ien": 5945,
      "hell": 5946,
      "Ġstare": 5947,
      "Ġthro": 5948,
      "Ġgreet": 5949,
      "Ġstaring": 5950,
      "Ġstrike": 5951,
      "Mrs": 5952,
      "bl": 5953,
      "igi": 5954,
      "ĠBye": 5955,
      "Ġsinger": 5956,
      "Ġpolishing": 5957,
      "Ġroads": 5958,
      "Ġthroat": 5959,
      "mas": 5960,
      "Ġfirm": 5961,
      "ĠSure": 5962,
      "asm": 5963,
      "Ġseagull": 5964,
      "Ġoutfit": 5965,
      "Ġtheirs": 5966,
      "ÅĵOh": 5967,
      "Ġexpected": 5968,
      "Ġawesome": 5969,
      "Ġcompletely": 5970,
      "ĠRabbit": 5971,
      "Mittens": 5972,
      "ĠTilly": 5973,
      "Ġimportance": 5974,
      "Ġcrackers": 5975,
      "Ġcountryside": 5976,
      "Ġventured": 5977,
      "Ġcuts": 5978,
      "Ġarrive": 5979,
      "Ġrelief": 5980,
      "Ġcaused": 5981,
      "Ġlibrarian": 5982,
      "ĠChrist": 5983,
      "James": 5984,
      "Ġast": 5985,
      "Ġexha": 5986,
      "Ġkneeled": 5987,
      "ĠMatt": 5988,
      "jamas": 5989,
      "Ġluxury": 5990,
      "njoy": 5991,
      "iles": 5992,
      "Ġscales": 5993,
      "Ġbecoming": 5994,
      "oline": 5995,
      "Ġregretted": 5996,
      "hins": 5997,
      "Ġdared": 5998,
      "Ġwandering": 5999,
      "Ġfault": 6000,
      "Ġblooming": 6001,
      "lowers": 6002,
      "oh": 6003,
      "opes": 6004,
      "Ġchips": 6005,
      "Ġsnugg": 6006,
      "ĠGr": 6007,
      "Ġsticking": 6008,
      "Ġgrowl": 6009,
      "Ġdesp": 6010,
      "Ġrescued": 6011,
      "Ġusual": 6012,
      "Ġscru": 6013,
      "ĠUnfortunately": 6014,
      "ĠChristmas": 6015,
      "Ġflat": 6016,
      "Ġdelivery": 6017,
      "Ġcrabs": 6018,
      "...": 6019,
      "Ġtrembling": 6020,
      "Ġcans": 6021,
      "ÅĵWhy": 6022,
      "Ġowners": 6023,
      "Ġpretends": 6024,
      "Ġgrowling": 6025,
      "Ġhealed": 6026,
      "Ġrepeated": 6027,
      "ĠBetty": 6028,
      "Ġwound": 6029,
      "Ġhomework": 6030,
      "Ġargu": 6031,
      "Ġpartic": 6032,
      "boat": 6033,
      "Ġpastries": 6034,
      "Ġexhausted": 6035,
      "Yeah": 6036,
      "reen": 6037,
      "Ġinviting": 6038,
      "Ġarguing": 6039,
      "Ġcent": 6040,
      "ĠSadly": 6041,
      "Ġroots": 6042,
      "Ġworries": 6043,
      "ĠFor": 6044,
      "Ġslap": 6045,
      "Ġpeeking": 6046,
      "Excuse": 6047,
      "ĠyouÃ¢": 6048,
      "une": 6049,
      "ĠJohnson": 6050,
      "Ġleader": 6051,
      "Ġinclude": 6052,
      "Ġsneaky": 6053,
      "Ġcrumbs": 6054,
      "hello": 6055,
      "Ġshined": 6056,
      "Ġboom": 6057,
      "Ġscra": 6058,
      "Ġreaching": 6059,
      "Ġpencils": 6060,
      "However": 6061,
      "Ġdolphins": 6062,
      "Kitty": 6063,
      "using": 6064,
      "essie": 6065,
      "Ġlearns": 6066,
      "Ġdesert": 6067,
      "Ġsafer": 6068,
      "Ġopening": 6069,
      "ĠJenna": 6070,
      "Ġbas": 6071,
      "iding": 6072,
      "Ġuses": 6073,
      "Ġtraveled": 6074,
      "Ġfarther": 6075,
      "ĠYes": 6076,
      "Ġsnakes": 6077,
      "Ġrolls": 6078,
      "Ġpatted": 6079,
      "Ġvalued": 6080,
      "Ġactivities": 6081,
      "rance": 6082,
      "ĠBy": 6083,
      "Ġfairies": 6084,
      "Ġpajamas": 6085,
      "ophia": 6086,
      "Ġstruggle": 6087,
      "Ġreveal": 6088,
      "ĠMart": 6089,
      "ĠJu": 6090,
      "acob": 6091,
      "Ġagrees": 6092,
      "Ġparticular": 6093,
      "Ġremoved": 6094,
      "Ġseems": 6095,
      "Fr": 6096,
      "Ġbelly": 6097,
      "Ġflames": 6098,
      "Ġmisses": 6099,
      "Ġpots": 6100,
      "Ġpastels": 6101,
      "Ġstartled": 6102,
      "angled": 6103,
      "ĠLeave": 6104,
      "Ġvanish": 6105,
      "Ġbalanced": 6106,
      "Ġden": 6107,
      "Ġheel": 6108,
      "ena": 6109,
      "Ġseesaw": 6110,
      "ĠwasnÃ¢": 6111,
      "Ġlollipops": 6112,
      "Ġwires": 6113,
      "Ġwiggled": 6114,
      "Uh": 6115,
      "Ġheav": 6116,
      "Ġleap": 6117,
      "ĠOut": 6118,
      "Ġtrips": 6119,
      "Ġcoloured": 6120,
      "Ġitchy": 6121,
      "Ġcash": 6122,
      "Ġspike": 6123,
      "ĠÌ": 6124,
      "Ġfara": 6125,
      "Ġfreed": 6126,
      "Ġchuck": 6127,
      "oys": 6128,
      "Ġreplaced": 6129,
      "Ġrockets": 6130,
      "Ġencourag": 6131,
      "Ġpoems": 6132,
      "Ġopinion": 6133,
      "Ġfaraway": 6134,
      "ĠLou": 6135,
      "Ġhowever": 6136,
      "Ġstolen": 6137,
      "Ġunf": 6138,
      "Ġsingle": 6139,
      "Ġtwinkle": 6140,
      "cc": 6141,
      "Ġtoss": 6142,
      "Ġcott": 6143,
      "Ġrisk": 6144,
      "ĠLinda": 6145,
      "Ġeverybody": 6146,
      "ĠRob": 6147,
      "Ġwinked": 6148,
      "Ġgroceries": 6149,
      "Charlie": 6150,
      "Ġtimer": 6151,
      "Ġsuitcase": 6152,
      "Ġhi": 6153,
      "ords": 6154,
      "ĠAdam": 6155,
      "ĠLizzy": 6156,
      "ÅĵMommy": 6157,
      "Ġbaker": 6158,
      "reat": 6159,
      "Ġstern": 6160,
      "Ġusually": 6161,
      "Ġflags": 6162,
      "Ġfuzzy": 6163,
      "Ġquacked": 6164,
      "Millie": 6165,
      "Ġlung": 6166,
      "ĠTess": 6167,
      "umm": 6168,
      "Ġswooped": 6169,
      "Ġorganizing": 6170,
      "Ġtickled": 6171,
      "ÅĵWhatÃ¢": 6172,
      "Ġobserved": 6173,
      "Leo": 6174,
      "ĠClaire": 6175,
      "ĠÌĥ": 6176,
      "Ġbead": 6177,
      "Ġyoun": 6178,
      "ĠĊĠ": 6179,
      "Ġinterested": 6180,
      "Harry": 6181,
      "Ġfaced": 6182,
      "Ġlined": 6183,
      "Ġteaches": 6184,
      "Ġreply": 6185,
      "ĠBuzzy": 6186,
      "Sandy": 6187,
      "dies": 6188,
      "Ġboo": 6189,
      "Ġlogs": 6190,
      "Ġworkers": 6191,
      "Ġcelebration": 6192,
      "Ġprovided": 6193,
      "gers": 6194,
      "ĠZoom": 6195,
      "Ġencourage": 6196,
      "Ġcough": 6197,
      "ĠMel": 6198,
      "Ġrestored": 6199,
      "Ġentrance": 6200,
      "Ġsandcastles": 6201,
      "Ġminerals": 6202,
      "Ġsquealed": 6203,
      "ĠJeff": 6204,
      "Ġwasted": 6205,
      "ĠSlowly": 6206,
      "Ġstaying": 6207,
      "Ġmarker": 6208,
      "Ġmiles": 6209,
      "ĠBeing": 6210,
      "Ġcracked": 6211,
      "hee": 6212,
      "ids": 6213,
      "Ġstem": 6214,
      "ently": 6215,
      "ĠJon": 6216,
      "Ġmane": 6217,
      "Ġcolored": 6218,
      "Ġprincesses": 6219,
      "Ġadding": 6220,
      "Ġpaddled": 6221,
      "Ġaccomplish": 6222,
      "Ġcautiously": 6223,
      "Ġdipped": 6224,
      "Ġworker": 6225,
      "Ġpolished": 6226,
      "ĠFollow": 6227,
      "aa": 6228,
      "uri": 6229,
      "Ġsigned": 6230,
      "Ġkites": 6231,
      "Ġnect": 6232,
      "ĠLuke": 6233,
      "Ġswirl": 6234,
      "ĠPipp": 6235,
      "brush": 6236,
      "Ġpacking": 6237,
      "Ġyounger": 6238,
      "Ġnectar": 6239,
      "Ġripe": 6240,
      "Ġsomebody": 6241,
      "ĠEnjoy": 6242,
      "Ġcloses": 6243,
      "Ġforehead": 6244,
      "Ġcovers": 6245,
      "Ġseashell": 6246,
      "Ġweeping": 6247,
      "aved": 6248,
      "Ġcause": 6249,
      "Ġliqu": 6250,
      "Ġsailboat": 6251,
      "Ġmelting": 6252,
      "Ġtricked": 6253,
      "Ġresting": 6254,
      "Ġawake": 6255,
      "Ġstroll": 6256,
      "Ġgaze": 6257,
      "ĠBoth": 6258,
      "Ġwrist": 6259,
      "Ġtallest": 6260,
      "Ġmarked": 6261,
      "Annie": 6262,
      "Alex": 6263,
      "Rose": 6264,
      "Ġty": 6265,
      "isies": 6266,
      "Ġglee": 6267,
      "ĠSorry": 6268,
      "ĠAbby": 6269,
      "Ġsmiley": 6270,
      "Ġdarkness": 6271,
      "Ġrecording": 6272,
      "Ġtasks": 6273,
      "Ġfamilies": 6274,
      "ĠHannah": 6275,
      "ĠMomo": 6276,
      "Ġnaps": 6277,
      "Ġknights": 6278,
      "Ġfirefighters": 6279,
      "Ġdaisies": 6280,
      "Fine": 6281,
      "Ġaff": 6282,
      "Ġwow": 6283,
      "ĠBo": 6284,
      "Ġrubs": 6285,
      "Ġbars": 6286,
      "ĠHappy": 6287,
      "Ġhissed": 6288,
      "Ġbacked": 6289,
      "Ġtwin": 6290,
      "Ġtalented": 6291,
      "Ġopp": 6292,
      "ĠGigi": 6293,
      "Ġphotos": 6294,
      "Ġrumble": 6295,
      "ĠWater": 6296,
      "Ġlistens": 6297,
      "Ġobjects": 6298,
      "Ġflavor": 6299,
      "Ġexplorers": 6300,
      "Ġbeginning": 6301,
      "Ġbeads": 6302,
      "Fred": 6303,
      "Ġbumpy": 6304,
      "ana": 6305,
      "ĠAunt": 6306,
      "coat": 6307,
      "Ġbowls": 6308,
      "Ġattack": 6309,
      "Ġactions": 6310,
      "Ġprotecting": 6311,
      "Ġpaddle": 6312,
      "abel": 6313,
      "ĠSuzie": 6314,
      "ĠQuack": 6315,
      "ĠY": 6316,
      "igers": 6317,
      "ĠMad": 6318,
      "bbly": 6319,
      "ĠPut": 6320,
      "Ġdirections": 6321,
      "Ġbehavi": 6322,
      "Ġcashier": 6323,
      "Ġliquid": 6324,
      "Days": 6325,
      "Some": 6326,
      "Ġpiggy": 6327,
      "sty": 6328,
      "Ġknees": 6329,
      "Ġwears": 6330,
      "Ġsecure": 6331,
      "Ġcelebrating": 6332,
      "Ġpaying": 6333,
      "Ġglasses": 6334,
      "Ġcopy": 6335,
      "fl": 6336,
      "vest": 6337,
      "yond": 6338,
      "Ġmi": 6339,
      "Ġbeyond": 6340,
      "ĠEarth": 6341,
      "Ġcubes": 6342,
      "Ġchuckled": 6343,
      "ppers": 6344,
      "ĠFriend": 6345,
      "ĠCindy": 6346,
      "Ġfilling": 6347,
      "Ġreads": 6348,
      "Ġbuying": 6349,
      "Ġimproved": 6350,
      "ĠKeep": 6351,
      "Ġsnowballs": 6352,
      "Unfortunately": 6353,
      "iki": 6354,
      "Bun": 6355,
      "Ġinsp": 6356,
      "Ġrings": 6357,
      "ĠMilo": 6358,
      "Ġrobb": 6359,
      "Ġremote": 6360,
      "Ġraincoat": 6361,
      "Ġmixture": 6362,
      "Kate": 6363,
      "aty": 6364,
      "indr": 6365,
      "Ġbadge": 6366,
      "Ġraindr": 6367,
      "ĠThomas": 6368,
      "Ġyesterday": 6369,
      "Ġpleasure": 6370,
      "Ġmagnets": 6371,
      "affes": 6372,
      "Ġpedals": 6373,
      "Ġpurr": 6374,
      "boo": 6375,
      "band": 6376,
      "Ġparties": 6377,
      "Ġrefle": 6378,
      "Ġtricky": 6379,
      "Ġrecommended": 6380,
      "ouch": 6381,
      "elia": 6382,
      "ĠLuckily": 6383,
      "Ġsnat": 6384,
      "Ġconn": 6385,
      "ths": 6386,
      "Ġfolding": 6387,
      "Ġspeaking": 6388,
      "Ġgems": 6389,
      "Ġunpacked": 6390,
      "Ġinsects": 6391,
      "Ġtodd": 6392,
      "Ġcust": 6393,
      "Ġsobbed": 6394,
      "Ġseven": 6395,
      "Ġslam": 6396,
      "Ġhandful": 6397,
      "Ġstays": 6398,
      "Ġsplashes": 6399,
      "Ġcandies": 6400,
      "Ġgiraffes": 6401,
      "Ġbakery": 6402,
      "ĠSparky": 6403,
      "May": 6404,
      "Ġcous": 6405,
      "Ġpause": 6406,
      "Ġfever": 6407,
      "Ġconc": 6408,
      "ĠDolly": 6409,
      "Ġdetermination": 6410,
      "Ġmasks": 6411,
      "Ġrusty": 6412,
      "Ġcalmed": 6413,
      "Ġscrubbed": 6414,
      "Ġsense": 6415,
      "Ġlower": 6416,
      "ĠJazz": 6417,
      "Ġafterwards": 6418,
      "Ġhealth": 6419,
      "Ġfluttered": 6420,
      "ne": 6421,
      "rig": 6422,
      "ĠSqu": 6423,
      "Ġclick": 6424,
      "ĠJulia": 6425,
      "Bad": 6426,
      "Run": 6427,
      "ĠLizzie": 6428,
      "Ġdef": 6429,
      "ĠKayla": 6430,
      "ĠOw": 6431,
      "Ġbumps": 6432,
      "Ġcustom": 6433,
      "Ġtigers": 6434,
      "Ġlimes": 6435,
      "Ġdots": 6436,
      "ĠMany": 6437,
      "Ġbedtime": 6438,
      "Ġburst": 6439,
      "Ġknocks": 6440,
      "Ġpouted": 6441,
      "tle": 6442,
      "arling": 6443,
      "Ġsnuck": 6444,
      "Ġwipes": 6445,
      "Ġcheeks": 6446,
      "ĠJessie": 6447,
      "ĠNothing": 6448,
      "Ġcupcakes": 6449,
      "Ġraindrops": 6450,
      "Bl": 6451,
      "cope": 6452,
      "ners": 6453,
      "eds": 6454,
      "alph": 6455,
      "ĠJay": 6456,
      "Ġflapping": 6457,
      "ĠGet": 6458,
      "Ġfroze": 6459,
      "Ġdances": 6460,
      "Ġdiving": 6461,
      "Ġtipto": 6462,
      "Ġtangled": 6463,
      "oni": 6464,
      "aren": 6465,
      "Ġroses": 6466,
      "Ġjoking": 6467,
      "Ġdeal": 6468,
      "Ġlighter": 6469,
      "Ġdrums": 6470,
      "Ġjackets": 6471,
      "ippy": 6472,
      "Ġmes": 6473,
      "Ġinstrum": 6474,
      "Ġmesmer": 6475,
      "?'": 6476,
      "Danny": 6477,
      "Ġchop": 6478,
      "ĠEl": 6479,
      "Ġyourselves": 6480,
      "Ġgrandp": 6481,
      "ĠPl": 6482,
      "Ġsteer": 6483,
      "Ġblows": 6484,
      "Ġartist": 6485,
      "Ġhesitated": 6486,
      "hew": 6487,
      "urry": 6488,
      "Ġscarves": 6489,
      "ĠPandy": 6490,
      "Ġtemper": 6491,
      "Ġstomped": 6492,
      "Ġtravelled": 6493,
      "sequ": 6494,
      "elle": 6495,
      "ĠWatch": 6496,
      "Ġchoo": 6497,
      "Ġvideos": 6498,
      "Ġachieved": 6499,
      "Ġmeals": 6500,
      "Ġneedles": 6501,
      "Ġconsequ": 6502,
      "Ġyells": 6503,
      "Ġsalty": 6504,
      "Ġshirts": 6505,
      "Ġhallway": 6506,
      "Ġgrandpare": 6507,
      "ĠSophia": 6508,
      "Ġscaring": 6509,
      "Ġhider": 6510,
      "Ġcreamy": 6511,
      "Toby": 6512,
      "Ġleading": 6513,
      "Ġcomplained": 6514,
      "Ġseparated": 6515,
      "ronaut": 6516,
      "Ġdiscussed": 6517,
      "Ġastronaut": 6518,
      "Polly": 6519,
      "arter": 6520,
      "ility": 6521,
      "cho": 6522,
      "Time": 6523,
      "ossible": 6524,
      "atur": 6525,
      "ĠBird": 6526,
      "Ġsmarter": 6527,
      "opsy": 6528,
      "Ġimpossible": 6529,
      "Ġsquish": 6530,
      "Ġcoloring": 6531,
      "Bobo": 6532,
      "Ġpans": 6533,
      "Ġperformance": 6534,
      "Ġdrifted": 6535,
      "Ġmaterials": 6536,
      "immering": 6537,
      "rigued": 6538,
      "Ġconsequences": 6539,
      "ĠĠĊ": 6540,
      "Ġwadd": 6541,
      "?\",": 6542,
      "ĠNick": 6543,
      "Ġtractor": 6544,
      "Ġhelmets": 6545,
      "Ġdelivered": 6546,
      "Ġcomplaining": 6547,
      "ĠOlive": 6548,
      "no": 6549,
      "itched": 6550,
      "Ġlosing": 6551,
      "ĠLarry": 6552,
      "Ġtramp": 6553,
      "Ġdollhouse": 6554,
      "Ġwindy": 6555,
      "Ġhearing": 6556,
      "Ġrivers": 6557,
      "Ġchoices": 6558,
      "Ġseeker": 6559,
      "Ġclowns": 6560,
      "Ġwidened": 6561,
      "Ġsnatched": 6562,
      "Milly": 6563,
      "Ġlun": 6564,
      "armer": 6565,
      "ĠJacob": 6566,
      "Ġnoon": 6567,
      "ĠEmmy": 6568,
      "Ġnapkins": 6569,
      "ĠwouldnÃ¢": 6570,
      "Ġarrows": 6571,
      "Ġornaments": 6572,
      "Ġfluttering": 6573,
      "Ġhus": 6574,
      "ĠTara": 6575,
      "Ġstool": 6576,
      "Ġplayers": 6577,
      "Ġnoses": 6578,
      "Those": 6579,
      "Ġbehaved": 6580,
      "Ġdreamt": 6581,
      "Ġwrapping": 6582,
      "Ġindeed": 6583,
      "ivity": 6584,
      "Ġhedgeho": 6585,
      "Ġannoy": 6586,
      "anes": 6587,
      "ept": 6588,
      "itches": 6589,
      "Ġdarker": 6590,
      "Ġcowb": 6591,
      "Ġscrews": 6592,
      "Ġaccomplishment": 6593,
      "ido": 6594,
      "ĠSque": 6595,
      "ÅĵWow": 6596,
      "Ġruining": 6597,
      "Ġsibl": 6598,
      "ĠFox": 6599,
      "Ġtemperature": 6600,
      "Ġtrampoline": 6601,
      "Ġsiblings": 6602,
      "oey": 6603,
      "uing": 6604,
      "Ġecho": 6605,
      "Ġswept": 6606,
      "ÅĵDo": 6607,
      "Ġacting": 6608,
      "Ġrule": 6609,
      "Ġdancers": 6610,
      "Ġplans": 6611,
      "Ġkicks": 6612,
      "Ġwraps": 6613,
      "Ġsquares": 6614,
      "Ellie": 6615,
      "Katie": 6616,
      "Ġthorn": 6617,
      "Ġthird": 6618,
      "Ġrip": 6619,
      "Ġtreehouse": 6620,
      "obody": 6621,
      "ĠPinky": 6622,
      "Ġbeloved": 6623,
      "Ġcreativity": 6624,
      "ĠwonÃ¢": 6625,
      "Ġforgets": 6626,
      "Ġhoriz": 6627,
      "Ġgracefully": 6628,
      "An": 6629,
      "rac": 6630,
      "Ġwilling": 6631,
      "aker": 6632,
      "ÅĵHi": 6633,
      "ĠPo": 6634,
      "Ġmuscle": 6635,
      "ĠJessica": 6636,
      "Ġhorizon": 6637,
      "tuce": 6638,
      "ĠQ": 6639,
      "Ġstain": 6640,
      "igning": 6641,
      "ades": 6642,
      "ĠBinky": 6643,
      "Ġlettuce": 6644,
      "Ġgrassy": 6645,
      "ude": 6646,
      "Ġweekend": 6647,
      "Ġstroked": 6648,
      "Shh": 6649,
      "Ru": 6650,
      "Ġdarling": 6651,
      "ĠEverybody": 6652,
      "ĠJacky": 6653,
      "Ġteased": 6654,
      "Ġpassen": 6655,
      "Ġrewarded": 6656,
      "Ġenthusiasm": 6657,
      "Ġhusband": 6658,
      "Ġaud": 6659,
      "incess": 6660,
      "Ġhitting": 6661,
      "llen": 6662,
      "ĠHoot": 6663,
      "choo": 6664,
      "iece": 6665,
      "Ġslices": 6666,
      "Ġsnowfl": 6667,
      "ĠWithout": 6668,
      "Ġsource": 6669,
      "Ġdeserve": 6670,
      "Ab": 6671,
      "Fin": 6672,
      "Ġwins": 6673,
      "Ġonions": 6674,
      "Ġaren": 6675,
      "Ġhelpers": 6676,
      "ĠEls": 6677,
      "Ġdollars": 6678,
      "Ġpointy": 6679,
      "umbling": 6680,
      "Ġpeacefully": 6681,
      "Ġleaning": 6682,
      "Ġscratches": 6683,
      "ĠFrosty": 6684,
      "For": 6685,
      "Great": 6686,
      "ded": 6687,
      "dri": 6688,
      "eal": 6689,
      "Ġcor": 6690,
      "Ġrising": 6691,
      "itted": 6692,
      "ĠMo": 6693,
      "Ġstarfish": 6694,
      "Ġneatly": 6695,
      "Ġmushrooms": 6696,
      "ĠRobert": 6697,
      "Ġcenter": 6698,
      "Wh": 6699,
      "au": 6700,
      "come": 6701,
      "ky": 6702,
      "ans": 6703,
      "ntil": 6704,
      "Ġgobbled": 6705,
      "Ġchip": 6706,
      "Ġdads": 6707,
      "ueen": 6708,
      "Ġblocking": 6709,
      "Ġtunnels": 6710,
      "Ġtempt": 6711,
      "Ġrepaired": 6712,
      "Ġafford": 6713,
      "Ġhedgehog": 6714,
      "Dan": 6715,
      "Ġhour": 6716,
      "Ġfears": 6717,
      "Ġdet": 6718,
      "Ġmerry": 6719,
      "ĠMa": 6720,
      "Ġbackwards": 6721,
      "ÅĵCome": 6722,
      "Ġzipping": 6723,
      "Ġpotion": 6724,
      "Ġcuddly": 6725,
      "Ġbuzzed": 6726,
      "ĠGoodbye": 6727,
      "Maria": 6728,
      "Ġbasement": 6729,
      "Ġgri": 6730,
      "ĠSun": 6731,
      "Ġstung": 6732,
      "ĠMon": 6733,
      "Ġavoid": 6734,
      "Ġseconds": 6735,
      "Ġtoddler": 6736,
      "Tina": 6737,
      "Ġbeam": 6738,
      "Ġgrowls": 6739,
      "Ġneighbours": 6740,
      "Ġshrinking": 6741,
      "ĠJudy": 6742,
      "weed": 6743,
      "Ġbully": 6744,
      "atul": 6745,
      "ĠPam": 6746,
      "Ġhandsome": 6747,
      "ĠTwo": 6748,
      "urious": 6749,
      "Pe": 6750,
      "the": 6751,
      "Ġcoup": 6752,
      "arrow": 6753,
      "Ġgross": 6754,
      "Ġneither": 6755,
      "Ġreass": 6756,
      "Ġposter": 6757,
      "Ġgrabbing": 6758,
      "Ġspreading": 6759,
      "Ġforgiven": 6760,
      "Ġreflect": 6761,
      "Ġtiptoed": 6762,
      "Have": 6763,
      "jo": 6764,
      "ĠLi": 6765,
      "ĠDoggy": 6766,
      "Ġbatteries": 6767,
      "ĠMaya": 6768,
      "ĠPrincess": 6769,
      "ĠQueen": 6770,
      "Ġaudience": 6771,
      "wk": 6772,
      "Ġmer": 6773,
      "Ġamong": 6774,
      "Ġbaths": 6775,
      "Meow": 6776,
      "Ġincluding": 6777,
      "Ġpuppies": 6778,
      "Ġchefs": 6779,
      "Ġdamage": 6780,
      "ĠAbbie": 6781,
      "Ġpromises": 6782,
      "Ġsnowmen": 6783,
      "Ġseaweed": 6784,
      "Ġsprinkled": 6785,
      "Ġracco": 6786,
      "ÅĵYouÃ¢": 6787,
      "ĠRover": 6788,
      "Ġrequested": 6789,
      "Ew": 6790,
      "Fo": 6791,
      "Nina": 6792,
      "Ġhawk": 6793,
      "ĠMick": 6794,
      "Ġcond": 6795,
      "anging": 6796,
      "Ġtwice": 6797,
      "ertain": 6798,
      "Ġintrigued": 6799,
      "Ġpraying": 6800,
      "Ġbreathed": 6801,
      "Ġhesitant": 6802,
      "Ġcouple": 6803,
      "worm": 6804,
      "Ġsale": 6805,
      "ushing": 6806,
      "ados": 6807,
      "Ġdod": 6808,
      "Ġdrawn": 6809,
      "Ġheading": 6810,
      "Ġarr": 6811,
      "ĠRobby": 6812,
      "Ġtails": 6813,
      "Ġmatters": 6814,
      "mallow": 6815,
      "ĠListen": 6816,
      "Ġhides": 6817,
      "Ġwishing": 6818,
      "Ġforks": 6819,
      "arshmallow": 6820,
      "Ġresisted": 6821,
      "Ġavocados": 6822,
      "Ġsurroundings": 6823,
      "Ġswimsuit": 6824,
      "Ġgranted": 6825,
      "aura": 6826,
      "Whee": 6827,
      "eese": 6828,
      "fall": 6829,
      "uzzy": 6830,
      "itude": 6831,
      "Ġbodies": 6832,
      "Ġuns": 6833,
      "ĠThose": 6834,
      "Ġthroughout": 6835,
      "Ġdecorating": 6836,
      "Ġgasp": 6837,
      "Ġstudents": 6838,
      "Roar": 6839,
      "Ġ10": 6840,
      "Oops": 6841,
      "Tw": 6842,
      "pr": 6843,
      "years": 6844,
      "esp": 6845,
      "ashes": 6846,
      "Ġthrown": 6847,
      "Ġplanning": 6848,
      "Ġheavier": 6849,
      "Ġcousin": 6850,
      "Pat": 6851,
      "Ġskunk": 6852,
      "Ġcrew": 6853,
      "Ġforgetting": 6854,
      "Ġspoonful": 6855,
      "Ġrecipe": 6856,
      "ĠRobbie": 6857,
      "Woof": 6858,
      "cl": 6859,
      "ition": 6860,
      "Ġropes": 6861,
      "Ġchos": 6862,
      "ĠRemember": 6863,
      "Ġbows": 6864,
      "Ġwarri": 6865,
      "Ġwiping": 6866,
      "Ġsilent": 6867,
      "Ġchosen": 6868,
      "By": 6869,
      "Baby": 6870,
      "Ducky": 6871,
      "Nemo": 6872,
      "ĠJune": 6873,
      "step": 6874,
      "Ġwept": 6875,
      "Ġmagician": 6876,
      "Ġimagining": 6877,
      "Ġpresses": 6878,
      "ĠFriends": 6879,
      "Ġwag": 6880,
      "Ġgeese": 6881,
      "ĠFarmer": 6882,
      "Ġsled": 6883,
      "Ġache": 6884,
      "Ġremembering": 6885,
      "Ġjoyful": 6886,
      "Ġsnuggle": 6887,
      "Ġraccoon": 6888,
      "ael": 6889,
      "yes": 6890,
      "Ġtouc": 6891,
      "Ġpecked": 6892,
      "ichael": 6893,
      "Ġexpress": 6894,
      "ments": 6895,
      "Ġrustling": 6896,
      "Ġgreeted": 6897,
      "--": 6898,
      "ĠAng": 6899,
      "Ġscamp": 6900,
      "Ġalien": 6901,
      "ongr": 6902,
      "ĠDr": 6903,
      "ĠFido": 6904,
      "ĠNina": 6905,
      "Ġprinting": 6906,
      "Ġdropping": 6907,
      "Ġdesigned": 6908,
      "Ġborrowed": 6909,
      "ĠAmelia": 6910,
      "Ġfirefighter": 6911,
      "Clara": 6912,
      "Like": 6913,
      "Yummy": 6914,
      "Ġtoaster": 6915,
      "ĠTuna": 6916,
      "child": 6917,
      "Ġspong": 6918,
      "Ġblast": 6919,
      "Ġwobbled": 6920,
      "Ġsailors": 6921,
      "Ġpostman": 6922,
      "Lilly": 6923,
      "Miss": 6924,
      "Surpr": 6925,
      "Ġpeppers": 6926,
      "Ġcuriously": 6927,
      "Ġshops": 6928,
      "Ġhopeful": 6929,
      "ĠZip": 6930,
      "Ġgrandchild": 6931,
      "Ġlungs": 6932,
      "ongratul": 6933,
      "Jul": 6934,
      "iel": 6935,
      "Ġwoof": 6936,
      "Ġspices": 6937,
      "ĠAsh": 6938,
      "Ġtalks": 6939,
      "Ġstreets": 6940,
      "Ġgrandparents": 6941,
      "Boo": 6942,
      "cused": 6943,
      "Ġocc": 6944,
      "Ġflight": 6945,
      "Ġblinking": 6946,
      "Ġleast": 6947,
      "Ġprett": 6948,
      "Ġfocused": 6949,
      "meal": 6950,
      "Ġgenie": 6951,
      "Ġperforming": 6952,
      "Ġincreased": 6953,
      "Ġwarnings": 6954,
      "Ġfamiliar": 6955,
      "Ġslammed": 6956,
      "Ġsquishy": 6957,
      "fire": 6958,
      "Ġmunch": 6959,
      "Ġthud": 6960,
      "Ġrout": 6961,
      "Ġplain": 6962,
      "adie": 6963,
      "Ġwarmer": 6964,
      "ĠOwl": 6965,
      "Ġvanilla": 6966,
      "Ġfeeding": 6967,
      "Ġappreciation": 6968,
      "Ġsuperheroes": 6969,
      "Ġtrembled": 6970,
      "Ġprettier": 6971,
      "Ġdie": 6972,
      "Ġmarshmallow": 6973,
      "Ġworn": 6974,
      "retty": 6975,
      "Ġsneezing": 6976,
      "acing": 6977,
      "ĠCra": 6978,
      "Ġslower": 6979,
      "ĠFlopsy": 6980,
      "ĠStan": 6981,
      "ĠZoey": 6982,
      "Ġnervously": 6983,
      "ĠBluey": 6984,
      "Ġoatmeal": 6985,
      "Ġsponge": 6986,
      "yan": 6987,
      "Ġnood": 6988,
      "Ġnine": 6989,
      "ĠMira": 6990,
      "Ġreason": 6991,
      "Ġposs": 6992,
      "Ġcreations": 6993,
      "Ġconvers": 6994,
      "attered": 6995,
      "Ġnecklaces": 6996,
      "Ġsqueak": 6997,
      "Ġwiggle": 6998,
      "ably": 6999,
      "Ġreflection": 7000,
      "Ġsank": 7001,
      "Ġfail": 7002,
      "ĠTake": 7003,
      "allowed": 7004,
      "Ġspins": 7005,
      "ĠLia": 7006,
      "Ġswallowed": 7007,
      "Ġwrink": 7008,
      "Ġdefe": 7009,
      "Ġshaped": 7010,
      "Ġhonked": 7011,
      "Ġfirmly": 7012,
      "Ġtouches": 7013,
      "ebr": 7014,
      "Ġsy": 7015,
      "anie": 7016,
      "Ġspikes": 7017,
      "Ġroars": 7018,
      "Ġage": 7019,
      "Ġfeast": 7020,
      "Ġlessons": 7021,
      "ĠTodd": 7022,
      "ĠThanks": 7023,
      "Ġtested": 7024,
      "Ġtriangles": 7025,
      "Ġscrewdri": 7026,
      "ĠGranny": 7027,
      "Ġpens": 7028,
      "Ġnibb": 7029,
      "imon": 7030,
      "Ġrushing": 7031,
      "Ġsofter": 7032,
      "Ġtrot": 7033,
      "Ġpeck": 7034,
      "Ġwhispers": 7035,
      "Ġdelivering": 7036,
      "Ġbehaving": 7037,
      "Ġscraped": 7038,
      "Br": 7039,
      "fia": 7040,
      "Ġnur": 7041,
      "Ġsmallest": 7042,
      "emma": 7043,
      "Ġglued": 7044,
      "ÅĵNow": 7045,
      "Ġdresser": 7046,
      "Ġsteady": 7047,
      "Ġcounts": 7048,
      "ĠUntil": 7049,
      "Ġcushions": 7050,
      "Ġconfl": 7051,
      "Blue": 7052,
      "ĠSqueaky": 7053,
      "Ġscampered": 7054,
      "ebras": 7055,
      "abby": 7056,
      "vil": 7057,
      "isc": 7058,
      "Ġpours": 7059,
      "ĠSc": 7060,
      "Ġonward": 7061,
      "unched": 7062,
      "Ġscored": 7063,
      "Ġpuff": 7064,
      "Ġdrawers": 7065,
      "otten": 7066,
      "Ġpolitely": 7067,
      "Ġsniffs": 7068,
      "Ġwaddled": 7069,
      "Ġscrewdriver": 7070,
      "Ġconflict": 7071,
      "Back": 7072,
      "Bill": 7073,
      "Su": 7074,
      "Ġcoral": 7075,
      "aying": 7076,
      "Ġoh": 7077,
      "Ġaside": 7078,
      "stick": 7079,
      "Ġamount": 7080,
      "Ġzebras": 7081,
      "Ġpops": 7082,
      "ĠStella": 7083,
      "ĠBirthday": 7084,
      "Ġfreedom": 7085,
      "Sadly": 7086,
      "Tr": 7087,
      "mates": 7088,
      "while": 7089,
      "Ġdip": 7090,
      "inger": 7091,
      "Ġnapping": 7092,
      "Ġrotten": 7093,
      "ĠBessie": 7094,
      "Ġmanag": 7095,
      "Ġswords": 7096,
      "ÅĵMy": 7097,
      "ÅĵWell": 7098,
      "ĠNobody": 7099,
      "Ġwrigg": 7100,
      "uggles": 7101,
      "Ġcausing": 7102,
      "ĠOur": 7103,
      "Ġheroes": 7104,
      "Ġloading": 7105,
      "Ġsports": 7106,
      "Ġadults": 7107,
      "Ġ2": 7108,
      "Ġcrashing": 7109,
      "Ġworrying": 7110,
      "Ġstands": 7111,
      "Quick": 7112,
      "Ġguests": 7113,
      "ĠSquirrel": 7114,
      "Ġmesmerized": 7115,
      "Ġunsure": 7116,
      "Ġmate": 7117,
      "arac": 7118,
      "Ġexplo": 7119,
      "Ġrespond": 7120,
      "Ġlifts": 7121,
      "Ġrespected": 7122,
      "Ġignoring": 7123,
      "Ġpumpkins": 7124,
      "Ġsunflowers": 7125,
      "ĠSnuggles": 7126,
      "Ġrefreshing": 7127,
      "Ġproper": 7128,
      "Ġflavors": 7129,
      "Ruby": 7130,
      "Ġpassengers": 7131,
      "Ġmarshmallows": 7132,
      "erate": 7133,
      "Ġmoo": 7134,
      "iment": 7135,
      "cky": 7136,
      "Ġplayroom": 7137,
      "Ġreun": 7138,
      "Ġsever": 7139,
      "Ġchanging": 7140,
      "Ġsails": 7141,
      "Ġchopped": 7142,
      "Ġdrivers": 7143,
      "Ġcrossing": 7144,
      "Ġangels": 7145,
      "ĠFinn": 7146,
      "Ġstacked": 7147,
      "Ġyielded": 7148,
      "Ġwider": 7149,
      "eel": 7150,
      "endy": 7151,
      "Ġplucked": 7152,
      "ĠWally": 7153,
      "ĠElly": 7154,
      "roken": 7155,
      "Ġfinishing": 7156,
      "ĠRay": 7157,
      "Ġtables": 7158,
      "Ġcorners": 7159,
      "ounced": 7160,
      "Ġinchworm": 7161,
      "Ġtossed": 7162,
      "ĠMickey": 7163,
      "lves": 7164,
      "Ġdaring": 7165,
      "Ġsadd": 7166,
      "Ġbravest": 7167,
      "Ġhops": 7168,
      "Ġjoining": 7169,
      "Ġmonths": 7170,
      "Ġdived": 7171,
      "Ġfrowning": 7172,
      "Ġpigeons": 7173,
      "Ġsending": 7174,
      "ĊĊ": 7175,
      "Ġheight": 7176,
      "Ġshown": 7177,
      "Ġevil": 7178,
      "Ġcosy": 7179,
      "iley": 7180,
      "Ġgardener": 7181,
      "ĠRock": 7182,
      "Ġcampfire": 7183,
      "Even": 7184,
      "now": 7185,
      "Ġais": 7186,
      "rey": 7187,
      "onies": 7188,
      "ĠthatÃ¢": 7189,
      "ĠBee": 7190,
      "Ġscient": 7191,
      "Ġslips": 7192,
      "Ġrainy": 7193,
      "ĠKiki": 7194,
      "Ġcloudy": 7195,
      "Ġprove": 7196,
      "Ġbells": 7197,
      "Ġcoop": 7198,
      "Ġtwisty": 7199,
      "Ġbelts": 7200,
      "Tweety": 7201,
      "rrr": 7202,
      "Ġscientist": 7203,
      "Ġtuck": 7204,
      "Ġtiss": 7205,
      "Ġfaded": 7206,
      "Ġgest": 7207,
      "ĠBow": 7208,
      "Ġscen": 7209,
      "acles": 7210,
      "ĠGreen": 7211,
      "ĠThatÃ¢": 7212,
      "Ġhealing": 7213,
      "Ġpanicked": 7214,
      "Ġoysters": 7215,
      "inite": 7216,
      "Ġease": 7217,
      "Ġraces": 7218,
      "Ġkittens": 7219,
      "ongo": 7220,
      "Ġflown": 7221,
      "ĠChe": 7222,
      "ection": 7223,
      "Ġwobble": 7224,
      "Ġstrongest": 7225,
      "ounce": 7226,
      "Ġpuzzled": 7227,
      "ĠMikey": 7228,
      "Ġtwinkled": 7229,
      "Ġbrushing": 7230,
      "Ġbehavior": 7231,
      "Ġnotes": 7232,
      "ters": 7233,
      "ugs": 7234,
      "Ġwobbly": 7235,
      "Ġfinal": 7236,
      "Ġnearly": 7237,
      "Ġbiting": 7238,
      "Ġsurv": 7239,
      "Ġaction": 7240,
      "ĠStay": 7241,
      "Ġfishes": 7242,
      "Ġseller": 7243,
      "Ġperformed": 7244,
      "Ġhumans": 7245,
      "Ġsuffered": 7246,
      "espite": 7247,
      "Am": 7248,
      "Kim": 7249,
      "vant": 7250,
      "rect": 7251,
      "Ġponies": 7252,
      "ĠWell": 7253,
      "Ġcharac": 7254,
      "Ġoffic": 7255,
      "athan": 7256,
      "Ġpolar": 7257,
      "ĠPatty": 7258,
      "Ġsymbols": 7259,
      "Ġsurrendered": 7260,
      "Ġmints": 7261,
      "Ġburying": 7262,
      "ĠFrog": 7263,
      "Follow": 7264,
      "Ġinj": 7265,
      "Ġshady": 7266,
      "ĠLena": 7267,
      "Ġwaterfall": 7268,
      "Ġovercome": 7269,
      "ÅĵMom": 7270,
      "Ġpackages": 7271,
      "Ġlifting": 7272,
      "Ġpaths": 7273,
      "ĠAlong": 7274,
      "ĠOnly": 7275,
      "Ġstreamers": 7276,
      "Ġtravelling": 7277,
      "ĠMartha": 7278,
      "Ġencouraging": 7279,
      "Ġrobber": 7280,
      "Ġechoed": 7281,
      "Ġsnowflakes": 7282,
      "Ġoccas": 7283,
      "initely": 7284,
      "Our": 7285,
      "upt": 7286,
      "Ġtapped": 7287,
      "onse": 7288,
      "onna": 7289,
      "Ġgap": 7290,
      "ening": 7291,
      "antastic": 7292,
      "ĠMouse": 7293,
      "Ġspat": 7294,
      "Ġbru": 7295,
      "ĠFire": 7296,
      "iona": 7297,
      "Ġbaskets": 7298,
      "Ġresponse": 7299,
      "Ġpays": 7300,
      "eezes": 7301,
      "Ġloops": 7302,
      "Ġfirefly": 7303,
      "Ġleapt": 7304,
      "Ġnoodles": 7305,
      "Ġwakes": 7306,
      "Ġfantastic": 7307,
      "anwhile": 7308,
      "ĠHoney": 7309,
      "plash": 7310,
      "Ġwatering": 7311,
      "Ġdoorway": 7312,
      "Ġpennies": 7313,
      "Ġlaying": 7314,
      "Ġsuits": 7315,
      "Ġsurfboard": 7316,
      "Ġspells": 7317,
      "ĠMeg": 7318,
      "ĠBirdy": 7319,
      "Ġdefinitely": 7320,
      "Ġcorrect": 7321,
      "Jerry": 7322,
      "broken": 7323,
      "rian": 7324,
      "elie": 7325,
      "Ġsurprising": 7326,
      "Ġsparks": 7327,
      "Ġexamining": 7328,
      "Ġleads": 7329,
      "Ġsurfing": 7330,
      "Ġpunishment": 7331,
      "Ġlicking": 7332,
      "Ġexplorer": 7333,
      "ĠPippin": 7334,
      "During": 7335,
      "Ġni": 7336,
      "Ġedges": 7337,
      "...\"": 7338,
      "Ġscurry": 7339,
      "alloween": 7340,
      "Ġmerma": 7341,
      "Ġwarrior": 7342,
      "Ġseveral": 7343,
      "bird": 7344,
      "rew": 7345,
      "Ġgonna": 7346,
      "Ġund": 7347,
      "ĠLaura": 7348,
      "ĠEva": 7349,
      "bbling": 7350,
      "ĠCle": 7351,
      "Whenever": 7352,
      "Ġconqu": 7353,
      "Ġcollap": 7354,
      "ĠAlthough": 7355,
      "Ġsuggestion": 7356,
      "form": 7357,
      "Ġpound": 7358,
      "ĠHalloween": 7359,
      "ighting": 7360,
      "ĠLove": 7361,
      "TMd": 7362,
      "ĠGina": 7363,
      "Ġaddress": 7364,
      "Ġappreciated": 7365,
      "Ġshovels": 7366,
      "Ġpassports": 7367,
      "Rachel": 7368,
      "Ġaimed": 7369,
      "Ġbless": 7370,
      "Ġyel": 7371,
      "Ġplaytime": 7372,
      "Ġclues": 7373,
      "asty": 7374,
      "Ġslipping": 7375,
      "Ġcleaner": 7376,
      "Ġcraft": 7377,
      "Ġgrows": 7378,
      "Ġbattle": 7379,
      "Beep": 7380,
      "Ġswans": 7381,
      "undred": 7382,
      "Ġdisturbing": 7383,
      "Ġquarreling": 7384,
      "Ġpreparing": 7385,
      "Ġsewing": 7386,
      "Ġefforts": 7387,
      "Frank": 7388,
      "Ġcottage": 7389,
      "Surprise": 7390,
      "Very": 7391,
      "Ġtying": 7392,
      "Ġpins": 7393,
      "ppies": 7394,
      "Ġmemb": 7395,
      "Ġgoodby": 7396,
      "Ġslither": 7397,
      "Ġhanding": 7398,
      "ÅĵBut": 7399,
      "ÅĵOkay": 7400,
      "Ġforests": 7401,
      "Ġrains": 7402,
      "Ġcalmly": 7403,
      "Ġgrandd": 7404,
      "ĠDavey": 7405,
      "ĠPatch": 7406,
      "Ġreunited": 7407,
      "Ġyelped": 7408,
      "Ġmembers": 7409,
      "found": 7410,
      "please": 7411,
      "Ġcoug": 7412,
      "Ġcertain": 7413,
      "Ġanger": 7414,
      "Ġbraver": 7415,
      "Ġblocked": 7416,
      "Ġtricycle": 7417,
      "Ġelf": 7418,
      "Ġplanting": 7419,
      "Ġfits": 7420,
      "ĠZoomy": 7421,
      "Ġdespite": 7422,
      "Ġrisks": 7423,
      "Ġseashells": 7424,
      "Ġgoodbyes": 7425,
      "Hannah": 7426,
      "cher": 7427,
      "isions": 7428,
      "Ġnuzz": 7429,
      "ĠIm": 7430,
      "unity": 7431,
      "Ġsnort": 7432,
      "Ġfills": 7433,
      "Ġcolder": 7434,
      "Ġpaintbrush": 7435,
      "Ġheartbroken": 7436,
      "Ġtravels": 7437,
      "Ġresults": 7438,
      "ĠAngel": 7439,
      "iscuit": 7440,
      "Bet": 7441,
      "bage": 7442,
      "piece": 7443,
      "erm": 7444,
      "Ġlent": 7445,
      "ĠTry": 7446,
      "Ġgears": 7447,
      "Ġspook": 7448,
      "bba": 7449,
      "Ġstopping": 7450,
      "Ġtoward": 7451,
      "Ġquieter": 7452,
      "ÅĵIf": 7453,
      "Ġantic": 7454,
      "Ġgarbage": 7455,
      "Ġlending": 7456,
      "Ġdiscussing": 7457,
      "Ġtissue": 7458,
      "Poppy": 7459,
      "Ġtipped": 7460,
      "utter": 7461,
      "Ġrays": 7462,
      "Ġwhose": 7463,
      "Ġsqueezing": 7464,
      "ĠRain": 7465,
      "ĠRalph": 7466,
      "Ġdriveway": 7467,
      "Ġchocolates": 7468,
      "Ġpuppet": 7469,
      "ĠJanie": 7470,
      "Ġdamaged": 7471,
      "Ġarranged": 7472,
      "eeling": 7473,
      "Ġcongratul": 7474,
      "Ġstitches": 7475,
      "rier": 7476,
      "ĠBongo": 7477,
      "ĠJax": 7478,
      "âĤ¬,": 7479,
      "Ġweeds": 7480,
      "Ġnewfound": 7481,
      "Ġdecisions": 7482,
      "Ġbeautif": 7483,
      "Ġteles": 7484,
      "ĠRyan": 7485,
      "ĠStar": 7486,
      "ĠZero": 7487,
      "Ġfrowns": 7488,
      "ĠUnder": 7489,
      "Ġdesigns": 7490,
      "Ġcrystals": 7491,
      "Ġsqueaked": 7492,
      "Ġmaterial": 7493,
      "Ġconnected": 7494,
      "Ġtrotted": 7495,
      "Ġspooky": 7496,
      "Ġtelescope": 7497,
      "Penny": 7498,
      "Tony": 7499,
      "ibbit": 7500,
      "mered": 7501,
      "ĠMabel": 7502,
      "Ġpoppies": 7503,
      "acy": 7504,
      "ÅĵWhere": 7505,
      "Ġappl": 7506,
      "Ġbusiness": 7507,
      "action": 7508,
      "Ġtoolbox": 7509,
      "ĠZara": 7510,
      "Ġawo": 7511,
      "Ġreversed": 7512,
      "Ġbeautifully": 7513,
      "Listen": 7514,
      "Since": 7515,
      "ĠX": 7516,
      "Ġsou": 7517,
      "order": 7518,
      "Ġshoo": 7519,
      "asers": 7520,
      "Ġsoaking": 7521,
      "ĠMichael": 7522,
      "Ġreapp": 7523,
      "Ġprob": 7524,
      "Ġcheers": 7525,
      "ĠAbi": 7526,
      "ĠQuick": 7527,
      "ĠLouise": 7528,
      "ĠQuackers": 7529,
      "Ġconversation": 7530,
      "Ġprobably": 7531,
      "?!\"": 7532,
      "Get": 7533,
      "Mad": 7534,
      "Mine": 7535,
      "Ros": 7536,
      "aven": 7537,
      "crow": 7538,
      "fly": 7539,
      "line": 7540,
      "rup": 7541,
      "vroom": 7542,
      "Ġdot": 7543,
      "Ġdump": 7544,
      "Ġma": 7545,
      "ammy": 7546,
      "Ġcharge": 7547,
      "Ġfocus": 7548,
      "ĠSofia": 7549,
      "Ġunw": 7550,
      "Ġrepeating": 7551,
      "Ġofficers": 7552,
      "whe": 7553,
      "Ġhundred": 7554,
      "Ġnasty": 7555,
      "Ġfins": 7556,
      "Ġsweetest": 7557,
      "ĠJaney": 7558,
      "Ġmailed": 7559,
      "Ġreminding": 7560,
      "Ġtwisting": 7561,
      "Ġsniffing": 7562,
      "Ġrotting": 7563,
      "Ġexercises": 7564,
      "Ġsewed": 7565,
      "Ġforgiving": 7566,
      "Ġthorns": 7567,
      "Ġmermaid": 7568,
      "dress": 7569,
      "Ġtar": 7570,
      "ĠSatur": 7571,
      "Ġexcept": 7572,
      "acle": 7573,
      "ÅĵOf": 7574,
      "Ġduckling": 7575,
      "Ġsmelling": 7576,
      "Steve": 7577,
      "Ġprayers": 7578,
      "Ġrefuse": 7579,
      "ivia": 7580,
      "ĠUp": 7581,
      "Ġluckily": 7582,
      "ĠSnowman": 7583,
      "Ġnovels": 7584,
      "Ġtubes": 7585,
      "Ġwhispering": 7586,
      "Ġcobwebs": 7587,
      "Ġsyrup": 7588,
      "Watch": 7589,
      "but": 7590,
      "what": 7591,
      "ooking": 7592,
      "Ġcoach": 7593,
      "Ġvines": 7594,
      "ĠFighting": 7595,
      "issa": 7596,
      "Ġtidied": 7597,
      "Ġrobots": 7598,
      "Ġpermitted": 7599,
      "Ġcotton": 7600,
      "ĠSadie": 7601,
      "Ġstall": 7602,
      "arest": 7603,
      "ĠLion": 7604,
      "ĠDin": 7605,
      "ĠJoan": 7606,
      "Ġbits": 7607,
      "Ġunderstands": 7608,
      "Ġresponsib": 7609,
      "Ġpupils": 7610,
      "Ġaccomplished": 7611,
      "Ġinspired": 7612,
      "Ġcowboy": 7613,
      "Ġgrip": 7614,
      "Ġgesture": 7615,
      "Adam": 7616,
      "top": 7617,
      "wise": 7618,
      "Ġties": 7619,
      "Ġgerm": 7620,
      "ppa": 7621,
      "ĠAva": 7622,
      "Ġscent": 7623,
      "Ġalthough": 7624,
      "gets": 7625,
      "Ġhairdress": 7626,
      "Ġtighter": 7627,
      "Ġcuddles": 7628,
      "Ġmagnif": 7629,
      "Ġbreathing": 7630,
      "Ġartwork": 7631,
      "Ġinsisting": 7632,
      "Ġsuffering": 7633,
      "Ġnurses": 7634,
      "Ġawoke": 7635,
      "gain": 7636,
      "hil": 7637,
      "Ġcons": 7638,
      "ĠSmo": 7639,
      "ĠSimon": 7640,
      "Ġrather": 7641,
      "Ġramp": 7642,
      "ĠBaa": 7643,
      "ĠWendy": 7644,
      "iza": 7645,
      "ances": 7646,
      "Ġbelieving": 7647,
      "Ġteachers": 7648,
      "Ġgiggles": 7649,
      "Ġimages": 7650,
      "ĠAli": 7651,
      "Ġscram": 7652,
      "Ġwealth": 7653,
      "Ġsupported": 7654,
      "Ġfleas": 7655,
      "Ġmasterpiece": 7656,
      "Ġcustomers": 7657,
      "Ġreassured": 7658,
      "Ġanticip": 7659,
      "Car": 7660,
      "Jamie": 7661,
      "Mimi": 7662,
      "Ted": 7663,
      "mies": 7664,
      "Ġmood": 7665,
      "ĠHolly": 7666,
      "ighing": 7667,
      "elvet": 7668,
      "ĠMag": 7669,
      "itedly": 7670,
      "ĠFuzzy": 7671,
      "ÅĵPlease": 7672,
      "Ġunfortunately": 7673,
      "Ġwisely": 7674,
      "Ġencount": 7675,
      "Ġpedaled": 7676,
      "Ġgazing": 7677,
      "cie": 7678,
      "ilted": 7679,
      "Ġnearest": 7680,
      "ĠgirlÃ¢": 7681,
      "Ġknots": 7682,
      "Ġdecl": 7683,
      "Ġthanking": 7684,
      "Ġposit": 7685,
      "Ġpeas": 7686,
      "ilda": 7687,
      "ails": 7688,
      "Ġbuses": 7689,
      "Ġguide": 7690,
      "Ġhumming": 7691,
      "Ġinstruments": 7692,
      "Ġannoyed": 7693,
      "Ġhairdresser": 7694,
      "Joy": 7695,
      "da": 7696,
      "pen": 7697,
      "Ġaim": 7698,
      "Ġdangers": 7699,
      "Ġhen": 7700,
      "idence": 7701,
      "Ġchilly": 7702,
      "ĠEll": 7703,
      "Ġthoughts": 7704,
      "inkle": 7705,
      "ÅĵThe": 7706,
      "Ġbelongings": 7707,
      "Ġwhistles": 7708,
      "Ġhonking": 7709,
      "Ġguessing": 7710,
      "Ġstomp": 7711,
      "Ġbothering": 7712,
      "Ġvehicles": 7713,
      "Ġactivity": 7714,
      "Ġcongratulated": 7715,
      "Ġanticipation": 7716,
      "idey": 7717,
      "Ġboil": 7718,
      "ĠWin": 7719,
      "Ġuntied": 7720,
      "ÅĵHey": 7721,
      "ÅĵGood": 7722,
      "Ġdrown": 7723,
      "Ġtablet": 7724,
      "Ġafar": 7725,
      "Ġbandages": 7726,
      "Ġclassmates": 7727,
      "Ġships": 7728,
      "Ġcrowns": 7729,
      "Ġspeeding": 7730,
      "Ġwiggly": 7731,
      "Ġsimply": 7732,
      "Ġspills": 7733,
      "Ġconcert": 7734,
      "ĠAshley": 7735,
      "Ġsill": 7736,
      "ĠSl": 7737,
      "ĠSw": 7738,
      "Ġstumble": 7739,
      "ended": 7740,
      "Ġbea": 7741,
      "ading": 7742,
      "Ġspy": 7743,
      "Ġchanges": 7744,
      "Ġblond": 7745,
      "Ġsquir": 7746,
      "ĠKaren": 7747,
      "Ġvegg": 7748,
      "Alright": 7749,
      "Ġlabels": 7750,
      "Ġspits": 7751,
      "Tweetie": 7752,
      "Ġpeeled": 7753,
      "Ġconduct": 7754,
      "Mat": 7755,
      "Ġdep": 7756,
      "antha": 7757,
      "Ġform": 7758,
      "ĠBecause": 7759,
      "Ġsped": 7760,
      "sol": 7761,
      "Ġpleaded": 7762,
      "Ġcovering": 7763,
      "Ġturtles": 7764,
      "Ġapologised": 7765,
      "Ġrescuing": 7766,
      "Ġstatues": 7767,
      "Ġbracelets": 7768,
      "Ġtires": 7769,
      "Ġadmiration": 7770,
      "Ġoppos": 7771,
      "Ġscrambled": 7772,
      "sm": 7773,
      "Ġtumbled": 7774,
      "Ġmaker": 7775,
      "ilities": 7776,
      "Ġwithin": 7777,
      "Ġforce": 7778,
      "Ġexch": 7779,
      "Ġtreated": 7780,
      "Ġflip": 7781,
      "Ġtrans": 7782,
      "Ġuntie": 7783,
      "Ġwarmly": 7784,
      "Ġcomforting": 7785,
      "Ġscarecrow": 7786,
      "Ġsharks": 7787,
      "ĠBubba": 7788,
      "Ġseagulls": 7789,
      "Abigail": 7790,
      "Two": 7791,
      "ĠSaturday": 7792,
      "Ġconductor": 7793,
      "Vroom": 7794,
      "even": 7795,
      "Ġshimmering": 7796,
      "Ġstored": 7797,
      "Ġjars": 7798,
      "Ġflick": 7799,
      "Ġtweet": 7800,
      "ĠJojo": 7801,
      "Ġsquished": 7802,
      "ĠOther": 7803,
      "Ġrecorder": 7804,
      "Ġsolving": 7805,
      "Ġtrusting": 7806,
      "Ġdecoration": 7807,
      "Ġprick": 7808,
      "Always": 7809,
      "Ġrats": 7810,
      "Ġsweaty": 7811,
      "Ġotters": 7812,
      "Ġlipstick": 7813,
      "Ġuniforms": 7814,
      "ĠKevin": 7815,
      "Ġopport": 7816,
      "Ġroutine": 7817,
      "Ġnibble": 7818,
      "Ġscurrying": 7819,
      "Ġcollapsed": 7820,
      "Je": 7821,
      "Ġsav": 7822,
      "ortunately": 7823,
      "Ġkings": 7824,
      "Ġsmashed": 7825,
      "ĠAny": 7826,
      "Ġflips": 7827,
      "ĠDespite": 7828,
      "Ġjoins": 7829,
      "Ġtasting": 7830,
      "Ġvisits": 7831,
      "Ġfoxes": 7832,
      "ugging": 7833,
      "Ġpresented": 7834,
      "Meanwhile": 7835,
      "illiam": 7836,
      "Ġaware": 7837,
      "Ġsweat": 7838,
      "ĠPepper": 7839,
      "Ġvibr": 7840,
      "Anne": 7841,
      "intment": 7842,
      "Ġencouragement": 7843,
      "Ġsurvive": 7844,
      "Ġveggies": 7845,
      "Ġopposite": 7846,
      "Beth": 7847,
      "Jess": 7848,
      "Take": 7849,
      "eedy": 7850,
      "father": 7851,
      "Ġsens": 7852,
      "its": 7853,
      "ĠTiger": 7854,
      "Ġgall": 7855,
      "Ġlies": 7856,
      "chy": 7857,
      "Ġloses": 7858,
      "Ġgoodies": 7859,
      "ĠExc": 7860,
      "ĠAnnab": 7861,
      "Ġsquaw": 7862,
      "Ġswimmer": 7863,
      "Ġdripping": 7864,
      "ĠKelly": 7865,
      "Ġsprout": 7866,
      "Ġgenerosity": 7867,
      "Ġteams": 7868,
      "Ġglittering": 7869,
      "ĠClaus": 7870,
      "Ġtype": 7871,
      "Ġfailed": 7872,
      "Ġmanager": 7873,
      "Ġgranddaughter": 7874,
      "Bunny": 7875,
      "Each": 7876,
      "fus": 7877,
      "Ġtapping": 7878,
      "Ġshorts": 7879,
      "Ġrely": 7880,
      "ĠDory": 7881,
      "Ġconvin": 7882,
      "Ġexpert": 7883,
      "Ġshrunk": 7884,
      "Ġghosts": 7885,
      "Ġdelayed": 7886,
      "Ġemerged": 7887,
      "ĠMegan": 7888,
      "Ġwrinkled": 7889,
      "Ġcorrectly": 7890,
      "Cla": 7891,
      "Mira": 7892,
      "iens": 7893,
      "olp": 7894,
      "pit": 7895,
      "Ġbitten": 7896,
      "Ġbuddy": 7897,
      "Ġbeating": 7898,
      "ĠBon": 7899,
      "Ġnodd": 7900,
      "Ġaliens": 7901,
      "ĠWelcome": 7902,
      "empt": 7903,
      "ipes": 7904,
      "ĠSpidey": 7905,
      "Ġbrightest": 7906,
      "Ġdressing": 7907,
      "udolp": 7908,
      "Ġmarve": 7909,
      "Ġattempt": 7910,
      "Ġpurpose": 7911,
      "Goodnight": 7912,
      "Ġcleared": 7913,
      "Ġsoapy": 7914,
      "Ġfigures": 7915,
      "Ġdiamonds": 7916,
      "Ġsweep": 7917,
      "Ġgrandson": 7918,
      "Ġexplains": 7919,
      "Ġexperien": 7920,
      "steps": 7921,
      "Claire": 7922,
      "udolph": 7923,
      "Boys": 7924,
      "Ġheaven": 7925,
      "Ġshall": 7926,
      "artled": 7927,
      "Ġmanners": 7928,
      "Ġswo": 7929,
      "Ġdisc": 7930,
      "Ġstew": 7931,
      "boards": 7932,
      "Ġbanged": 7933,
      "ĠFreddie": 7934,
      "Chloe": 7935,
      "ummies": 7936,
      "Ġattacked": 7937,
      "Ġforgiveness": 7938,
      "Ġnibbled": 7939,
      "Ġresponded": 7940,
      "Ġaisle": 7941,
      "Ġdeclared": 7942,
      "ĠOkay": 7943,
      "Ġting": 7944,
      "Ġhoo": 7945,
      "ats": 7946,
      "lyn": 7947,
      "Ġflock": 7948,
      "Ġgrat": 7949,
      "Ġfond": 7950,
      "Ġsnug": 7951,
      "Ġfootsteps": 7952,
      "Ġdiscoveries": 7953,
      "Ġbeeped": 7954,
      "Ġtaped": 7955,
      "Ġdisplayed": 7956,
      "Ġmagazines": 7957,
      "Ġapplauding": 7958,
      "ĠDaniel": 7959,
      "Ġflaps": 7960,
      "Ġlaptop": 7961,
      "Ġswayed": 7962,
      "Ġastronauts": 7963,
      "ĠElsa": 7964,
      "Ġsadder": 7965,
      "Ġgerms": 7966,
      "Ġswollen": 7967,
      "Out": 7968,
      "munk": 7969,
      "rily": 7970,
      "Ġtummies": 7971,
      "ĠHelen": 7972,
      "Ġwhimp": 7973,
      "Ġloc": 7974,
      "Ġspies": 7975,
      "str": 7976,
      "Ġflipped": 7977,
      "ĠFiona": 7978,
      "Ġdiso": 7979,
      "Ġslowed": 7980,
      "Ġreminds": 7981,
      "Ġgrandfather": 7982,
      "Ġmillion": 7983,
      "Ġconfidence": 7984,
      "ĠFroggy": 7985,
      "Ġsternly": 7986,
      "Ġmunching": 7987,
      "Ġencountered": 7988,
      "Ġgratitude": 7989,
      "Abby": 7990,
      "Rob": 7991,
      "uel": 7992,
      "water": 7993,
      "Ġdarl": 7994,
      "ĠMaisy": 7995,
      "Ġjoked": 7996,
      "ctric": 7997,
      "ĠFlora": 7998,
      "Ġpicnics": 7999,
      "Ġtentacles": 8000,
      "Ġfilms": 8001,
      "ĠVelvet": 8002,
      "Ġmeowing": 8003,
      "ĠPippa": 8004,
      "Ġtransform": 8005,
      "Ġdarlings": 8006,
      "David": 8007,
      "bell": 8008,
      "oor": 8009,
      "we": 8010,
      "Ġsoot": 8011,
      "Ġwhoo": 8012,
      "romise": 8013,
      "Ġends": 8014,
      "Ġdesigning": 8015,
      "Ġtroubles": 8016,
      "Ġservant": 8017,
      "Ġbreaths": 8018,
      "Ġmosquitoes": 8019,
      "ĠAmanda": 8020,
      "Ġobeyed": 8021,
      "Leave": 8022,
      "ĠChris": 8023,
      "ĠOlivia": 8024,
      "racted": 8025,
      "Ġexperienced": 8026,
      "Any": 8027,
      "Jessie": 8028,
      "Ke": 8029,
      "bank": 8030,
      "zed": 8031,
      "ĠHold": 8032,
      "Ġyum": 8033,
      "ulpt": 8034,
      "Ġsculpt": 8035,
      "avi": 8036,
      "Ġfloors": 8037,
      "Ġelbow": 8038,
      "Ġbeeh": 8039,
      "ĠFlo": 8040,
      "Ġcourt": 8041,
      "Ġimaginary": 8042,
      "Ġcheckout": 8043,
      "Ġtoothbrush": 8044,
      "Ġbackpacks": 8045,
      "Ġbothered": 8046,
      "Ġcupcake": 8047,
      "Ġswaying": 8048,
      "Ġpurrs": 8049,
      "Ġsteering": 8050,
      "Ġdodged": 8051,
      "Ġconquered": 8052,
      "Ġapplause": 8053,
      "Ġbeaver": 8054,
      "Dear": 8055,
      "ca": 8056,
      "emy": 8057,
      "five": 8058,
      "lied": 8059,
      "Ġicing": 8060,
      "erk": 8061,
      "ĠMina": 8062,
      "Ġbirdhouse": 8063,
      "Ġwhoever": 8064,
      "Ġflashed": 8065,
      "ÅĵSure": 8066,
      "ÅĵWho": 8067,
      "Ġteap": 8068,
      "Ġdoorbell": 8069,
      "ĠPhil": 8070,
      "Ġsingers": 8071,
      "Ġpetting": 8072,
      "ordinary": 8073,
      "Ġbathing": 8074,
      "Ġcracks": 8075,
      "Ġlowered": 8076,
      "Ġenvelopes": 8077,
      "Ġcocoon": 8078,
      "Ġwindowsill": 8079,
      "ĠPeppa": 8080,
      "Ġcustomer": 8081,
      "Ġinstrument": 8082,
      "Ġnuzzled": 8083,
      "Che": 8084,
      "Mart": 8085,
      "Papa": 8086,
      "Ġwasting": 8087,
      "Ġrowed": 8088,
      "Ġcares": 8089,
      "Ġpeep": 8090,
      "Ġraising": 8091,
      "LetÃ¢": 8092,
      "Ġmovements": 8093,
      "Ġvisitor": 8094,
      "Ġelectric": 8095,
      "Ġnests": 8096,
      "Ġminds": 8097,
      "Ġtickling": 8098,
      "Ġextraordinary": 8099,
      "Ġscooters": 8100,
      "ĠRudy": 8101,
      "Ġstroke": 8102,
      "Ġsatisf": 8103,
      "Ġpaddling": 8104,
      "Ġchipmunk": 8105,
      "Ġmatey": 8106,
      "Ġteapot": 8107,
      "Co": 8108,
      "Karen": 8109,
      "Zoe": 8110,
      "hind": 8111,
      "Ġbou": 8112,
      "rie": 8113,
      "ĠBrian": 8114,
      "Ġjugg": 8115,
      "Ġclicked": 8116,
      "Ġclerk": 8117,
      "Ġflashing": 8118,
      "Ġquilt": 8119,
      "Ġglimmering": 8120,
      "Ġparted": 8121,
      "Ġvisitors": 8122,
      "Ġzooms": 8123,
      "Ġcrawls": 8124,
      "screen": 8125,
      "Ġquarre": 8126,
      "Quack": 8127,
      "Ġincreasing": 8128,
      "Ġexpecting": 8129,
      "Ġbeaming": 8130,
      "Ġcharacters": 8131,
      "Ġgallop": 8132,
      "Ġnodding": 8133,
      "ĠTaking": 8134,
      "Ġsheets": 8135,
      "aint": 8136,
      "quet": 8137,
      "Ġswitched": 8138,
      "ĠJoanna": 8139,
      "Ġhardest": 8140,
      "Ġwinding": 8141,
      "Ġforgives": 8142,
      "Ġdeed": 8143,
      "Josh": 8144,
      "Ġsets": 8145,
      "Ġbuckled": 8146,
      "Ġsupplied": 8147,
      "Ġrobin": 8148,
      "Ġtidying": 8149,
      "Ġscrub": 8150,
      "Ġmischie": 8151,
      "Ġquestioned": 8152,
      "Ġoffering": 8153,
      "Ġtextures": 8154,
      "Someone": 8155,
      "Ġmischievous": 8156,
      "lor": 8157,
      "ware": 8158,
      "Ġtilted": 8159,
      "idnight": 8160,
      "ative": 8161,
      "ĠSplash": 8162,
      "ĠBarry": 8163,
      "entr": 8164,
      "ĠMan": 8165,
      "storm": 8166,
      "ĠFish": 8167,
      "Ġsunscreen": 8168,
      "ĠPin": 8169,
      "ĠSpeedy": 8170,
      "ĠRudolph": 8171,
      "Ġsnowy": 8172,
      "Ġrelaxing": 8173,
      "Ġstudent": 8174,
      "ĠJean": 8175,
      "ĠTessa": 8176,
      "Ġconcentr": 8177,
      "Ġoccasion": 8178,
      "Ġbouquet": 8179,
      "Ol": 8180,
      "Tilly": 8181,
      "ae": 8182,
      "ering": 8183,
      "ators": 8184,
      "Ġshin": 8185,
      "Ġrumbling": 8186,
      "ĠIzzy": 8187,
      "ĠMoo": 8188,
      "ument": 8189,
      "Ġscri": 8190,
      "ĠCurious": 8191,
      "ÅĵSee": 8192,
      "ÅĵOk": 8193,
      "Ġbadger": 8194,
      "Ġconv": 8195,
      "ĠNana": 8196,
      "Ġnights": 8197,
      "Ġfires": 8198,
      "Ġjobs": 8199,
      "Ġstorms": 8200,
      "Ġstretches": 8201,
      "Ġclearly": 8202,
      "Ġbounces": 8203,
      "Ġadds": 8204,
      "Ġmember": 8205,
      "Ġstamped": 8206,
      "ĠPeggy": 8207,
      "Ġunpacking": 8208,
      "Ġexpression": 8209,
      "ĠCrabby": 8210,
      "True": 8211,
      "Ġconvinced": 8212,
      "Ġbeehive": 8213,
      "Bang": 8214,
      "rough": 8215,
      "Ġinse": 8216,
      "uno": 8217,
      "ift": 8218,
      "arable": 8219,
      "Ġtwenty": 8220,
      "Ġcheated": 8221,
      "ĠSpring": 8222,
      "ĠDog": 8223,
      "Ġriverbank": 8224,
      "ĠStri": 8225,
      "Ġscratching": 8226,
      "Ġdestroying": 8227,
      "Ġenviron": 8228,
      "Ġobserving": 8229,
      "Uncle": 8230,
      "Ġsirens": 8231,
      "Julie": 8232,
      "elieve": 8233,
      "Rosie": 8234,
      "Ġconvince": 8235,
      "Ġinsep": 8236,
      "Ġenvironment": 8237,
      "Buzz": 8238,
      "Milo": 8239,
      "Nice": 8240,
      "lt": 8241,
      "val": 8242,
      "amma": 8243,
      "ĠYouÃ¢": 8244,
      "andas": 8245,
      "Ġwaters": 8246,
      "Ġenemy": 8247,
      "ĠJackie": 8248,
      "Ġgardens": 8249,
      "Ġbrains": 8250,
      "ĠCara": 8251,
      "ÅĵMaybe": 8252,
      "bee": 8253,
      "airy": 8254,
      "udged": 8255,
      "spe": 8256,
      "ĠStitch": 8257,
      "Ġgoats": 8258,
      "Ġterrified": 8259,
      "Ġcheaper": 8260,
      "Ġgroan": 8261,
      "ĠRoger": 8262,
      "Ġprevented": 8263,
      "Ġmeows": 8264,
      "Maya": 8265,
      "ĠPoor": 8266,
      "Ġunwra": 8267,
      "ĠElle": 8268,
      "Ġinseparable": 8269,
      "Lena": 8270,
      "Ġill": 8271,
      "ĠSay": 8272,
      "Ġsteth": 8273,
      "Ġbond": 8274,
      "Ġseals": 8275,
      "Ġblown": 8276,
      "angle": 8277,
      "Ġchecks": 8278,
      "TMve": 8279,
      "Ġsurely": 8280,
      "Ġyoungest": 8281,
      "Ġburger": 8282,
      "Stay": 8283,
      "Ġself": 8284,
      "Ġunlo": 8285,
      "Ġrepairman": 8286,
      "Ġscolds": 8287,
      "Ġtearing": 8288,
      "Ġsprinkle": 8289,
      "Ġsnaps": 8290,
      "ĠMaddie": 8291,
      "Ġstethos": 8292,
      "iences": 8293,
      "rink": 8294,
      "inc": 8295,
      "Ġwaded": 8296,
      "Ġwashes": 8297,
      "Ġyumm": 8298,
      "anted": 8299,
      "Ġmommies": 8300,
      "Ġkilled": 8301,
      "Ġrewards": 8302,
      "usty": 8303,
      "Ġmoat": 8304,
      "Ġoverhead": 8305,
      "Ġstrum": 8306,
      "ĠGary": 8307,
      "Ġsandpit": 8308,
      "Ġgrassho": 8309,
      "otte": 8310,
      "Ġburnt": 8311,
      "Ġwhisk": 8312,
      "Ġawful": 8313,
      "arlotte": 8314,
      "Ġexperiences": 8315,
      "Ġfloats": 8316,
      "Ġairplanes": 8317,
      "Ġweapons": 8318,
      "ĠVroom": 8319,
      "asmine": 8320,
      "ĠElsie": 8321,
      "ĠLiam": 8322,
      "pril": 8323,
      "Ġexploded": 8324,
      "Ġdisobey": 8325,
      "Ġsculpture": 8326,
      "Arrr": 8327,
      "Bear": 8328,
      "Gina": 8329,
      "Honey": 8330,
      "Liz": 8331,
      "Ralph": 8332,
      "flowers": 8333,
      "Ġtin": 8334,
      "ĠTy": 8335,
      "ĠSk": 8336,
      "ĠmomÃ¢": 8337,
      "ittered": 8338,
      "Ġsmelt": 8339,
      "ĠAlly": 8340,
      "ĠAna": 8341,
      "aret": 8342,
      "Ġchin": 8343,
      "Ġgrumbled": 8344,
      "aving": 8345,
      "ĠJoJo": 8346,
      "Yesterday": 8347,
      "ĠRavi": 8348,
      "idents": 8349,
      "Ġpizzas": 8350,
      "Ġtests": 8351,
      "Ġwiser": 8352,
      "Ġorders": 8353,
      "Ġtwists": 8354,
      "Ġawhile": 8355,
      "ĠPaula": 8356,
      "Robbie": 8357,
      "Freddy": 8358,
      "ccidents": 8359,
      "Ġdefeated": 8360,
      "Brown": 8361,
      "Ġdrowned": 8362,
      "Ġstethoscope": 8363,
      "Pl": 8364,
      "Too": 8365,
      "lo": 8366,
      "yle": 8367,
      "Ġdears": 8368,
      "Ġpouch": 8369,
      "aron": 8370,
      "Ġhaven": 8371,
      "llas": 8372,
      "lest": 8373,
      "ĠMother": 8374,
      "Ġscow": 8375,
      "ĠwhatÃ¢": 8376,
      "Ġcarries": 8377,
      "Ġswap": 8378,
      "Ġque": 8379,
      "Momma": 8380,
      "ĠPet": 8381,
      "ĠPretty": 8382,
      "Ġsoundly": 8383,
      "Ġcompan": 8384,
      "Ġinstantly": 8385,
      "Ġcaw": 8386,
      "Ġcheerfully": 8387,
      "ĠAlan": 8388,
      "Ġfaith": 8389,
      "Ġcomputers": 8390,
      "Ġcops": 8391,
      "Ġumbrellas": 8392,
      "Ġpepperoni": 8393,
      "ĠTrust": 8394,
      "Ġquacking": 8395,
      "ĠReady": 8396,
      "Ġfascinating": 8397,
      "Ġcommon": 8398,
      "ĠMaddy": 8399,
      "Ġbehaviour": 8400,
      "Ġwriggled": 8401,
      "Ġconsid": 8402,
      "',": 8403,
      "Feeling": 8404,
      "Lia": 8405,
      "Mon": 8406,
      "free": 8407,
      "ĠYum": 8408,
      "Ġlasers": 8409,
      "omp": 8410,
      "ĠSuper": 8411,
      "Ġplugged": 8412,
      "ĠAlf": 8413,
      "ĠWilliam": 8414,
      "ĠLooking": 8415,
      "Ġchill": 8416,
      "ĠMomma": 8417,
      "ession": 8418,
      "Ġtraded": 8419,
      "anced": 8420,
      "Ġmesses": 8421,
      "Ġprod": 8422,
      "Ġsmoking": 8423,
      "Ġmysteries": 8424,
      "Ġtesting": 8425,
      "Ġerase": 8426,
      "Ġknocking": 8427,
      "Ġsqueaky": 8428,
      "ĠSeeing": 8429,
      "Ġexploration": 8430,
      "Ġwounds": 8431,
      "Ġparticularly": 8432,
      "ĠJonny": 8433,
      "ĠMonkey": 8434,
      "Ġprickly": 8435,
      "Ġvibrant": 8436,
      "bu": 8437,
      "hny": 8438,
      "Ġcuc": 8439,
      "ĠTime": 8440,
      "Ġnatur": 8441,
      "ĠHope": 8442,
      "otch": 8443,
      "Ġshattered": 8444,
      "rick": 8445,
      "ĠMidnight": 8446,
      "ĠWil": 8447,
      "getic": 8448,
      "ooks": 8449,
      "Ġleaking": 8450,
      "Ġskies": 8451,
      "Ġclosing": 8452,
      "Ġdesc": 8453,
      "Ġactive": 8454,
      "Ġmelody": 8455,
      "Ġlanguages": 8456,
      "Ġrobbers": 8457,
      "ĠPlaying": 8458,
      "Ġpopsic": 8459,
      "Ġgrasshopper": 8460,
      "Ġcompanion": 8461,
      "Aunt": 8462,
      "Jon": 8463,
      "Put": 8464,
      "Red": 8465,
      "off": 8466,
      "Â¦": 8467,
      "Ġsigning": 8468,
      "Ġpandas": 8469,
      "asant": 8470,
      "Ġupside": 8471,
      "Ġshorter": 8472,
      "âĤ¬Â¦": 8473,
      "roll": 8474,
      "Ġbund": 8475,
      "Ġdonkey": 8476,
      "ÅĵBe": 8477,
      "Ġrealizes": 8478,
      "Ġsquinted": 8479,
      "ĠNice": 8480,
      "Ġreturning": 8481,
      "Ġmattered": 8482,
      "Ġsalon": 8483,
      "Ġchecking": 8484,
      "Ġmodels": 8485,
      "Ġcrocodiles": 8486,
      "Ġcombed": 8487,
      "Choo": 8488,
      "Ġcubs": 8489,
      "whel": 8490,
      "Ġresponsibility": 8491,
      "Ġopportunity": 8492,
      "Ġsatisfaction": 8493,
      "Ġqueens": 8494,
      "Cindy": 8495,
      "Kids": 8496,
      "oss": 8497,
      "Ġtot": 8498,
      "Ġbound": 8499,
      "Ġhood": 8500,
      "ouraged": 8501,
      "rest": 8502,
      "Ġpuck": 8503,
      "Ġhab": 8504,
      "immered": 8505,
      "eline": 8506,
      "Ġoverwhel": 8507,
      "ĠGinger": 8508,
      "Ġsandy": 8509,
      "shadow": 8510,
      "Ġearned": 8511,
      "balls": 8512,
      "Ġsprays": 8513,
      "Ġmoonlight": 8514,
      "Ġhangers": 8515,
      "Ġargument": 8516,
      "Ġaeroplanes": 8517,
      "ĠIsn": 8518,
      "Ġcontainer": 8519,
      "Ġannounced": 8520,
      "ĠEliza": 8521,
      "Ġannoying": 8522,
      "Ġgasps": 8523,
      "Snow": 8524,
      "ole": 8525,
      "ris": 8526,
      "Ġtips": 8527,
      "Ġborn": 8528,
      "iliar": 8529,
      "Ġgul": 8530,
      "Ġthump": 8531,
      "amiliar": 8532,
      "Ġmomma": 8533,
      "unic": 8534,
      "ecca": 8535,
      "urn": 8536,
      "ickie": 8537,
      "Ġswallow": 8538,
      "Ġability": 8539,
      "Ġposes": 8540,
      "Ġraking": 8541,
      "ĠNancy": 8542,
      "asha": 8543,
      "Ġdrip": 8544,
      "Ġhotter": 8545,
      "Ġcreams": 8546,
      "Ġpasses": 8547,
      "Ġinches": 8548,
      "ogo": 8549,
      "Ġanswering": 8550,
      "Ġforts": 8551,
      "ĠBecky": 8552,
      "ĠMarie": 8553,
      "Ġproviding": 8554,
      "Ġtraveling": 8555,
      "Ġoutfits": 8556,
      "Ġunfamiliar": 8557,
      "Ġswirls": 8558,
      "Ġtypes": 8559,
      "Buddy": 8560,
      "Friend": 8561,
      "Ġ5": 8562,
      "ĠOh": 8563,
      "Ġouch": 8564,
      "Ġlar": 8565,
      "Ġlump": 8566,
      "ĠSleep": 8567,
      "ending": 8568,
      "Ġwhales": 8569,
      "Ġlocks": 8570,
      "Ġcanv": 8571,
      "stand": 8572,
      "ĠLy": 8573,
      "Ġfoam": 8574,
      "Ġbubbly": 8575,
      "Ġamused": 8576,
      "ĠDoes": 8577,
      "ship": 8578,
      "Ġwildflowers": 8579,
      "Ġserving": 8580,
      "ĠZack": 8581,
      "ĠZee": 8582,
      "ippers": 8583,
      "Ġapology": 8584,
      "Ġcamel": 8585,
      "Ġjogger": 8586,
      "Ġcells": 8587,
      "Ġcalmer": 8588,
      "ĠFrankie": 8589,
      "ĠTwinkle": 8590,
      "Ahoy": 8591,
      "ĠJonathan": 8592,
      "Ġcowboys": 8593,
      "Ġtemptation": 8594,
      "ĠImmediately": 8595,
      "Ġpeeped": 8596,
      "Hold": 8597,
      "Kayla": 8598,
      "Lizzie": 8599,
      "jest": 8600,
      "Ġlav": 8601,
      "Ġodd": 8602,
      "ige": 8603,
      "Ġhiss": 8604,
      "Ġplayd": 8605,
      "ĠBang": 8606,
      "ĠAgain": 8607,
      "ddie": 8608,
      "ĠFel": 8609,
      "ĠSamantha": 8610,
      "Ġflowing": 8611,
      "Thomas": 8612,
      "Ġglided": 8613,
      "Ġdollar": 8614,
      "Ġcrops": 8615,
      "Ġsqueezes": 8616,
      "shaped": 8617,
      "Ġengines": 8618,
      "Ġintelligence": 8619,
      "Ġmeatballs": 8620,
      "Ġvests": 8621,
      "Ġburns": 8622,
      "Ġharvest": 8623,
      "Ġstrips": 8624,
      "Ġchatted": 8625,
      "Ġcommunic": 8626,
      "Ġdetails": 8627,
      "Ġbruises": 8628,
      "Ġreappeared": 8629,
      "Bu": 8630,
      "Big": 8631,
      "Never": 8632,
      "gr": 8633,
      "iving": 8634,
      "Ġ4": 8635,
      "Ġbiscuit": 8636,
      "erg": 8637,
      "Ġhisses": 8638,
      "ĠBad": 8639,
      "Ġass": 8640,
      "Ġsometime": 8641,
      "ĠLenny": 8642,
      "ĠDuck": 8643,
      "venir": 8644,
      "Ġcheat": 8645,
      "Ġcleans": 8646,
      "ĠPick": 8647,
      "uffin": 8648,
      "Ġmessages": 8649,
      "ĠKaty": 8650,
      "Ġpreschool": 8651,
      "Ġhunting": 8652,
      "Ġspringtime": 8653,
      "Ġenergetic": 8654,
      "Chirp": 8655,
      "Ġfreezing": 8656,
      "ĠFoxy": 8657,
      "Ġspilling": 8658,
      "ĠRocky": 8659,
      "Ġsouvenir": 8660,
      "ĠMagic": 8661,
      "Ġnatural": 8662,
      "Ġcanvas": 8663,
      "ĠTerry": 8664,
      "athy": 8665,
      "lephant": 8666,
      "ĠHo": 8667,
      "Ġrack": 8668,
      "adually": 8669,
      "Ġroast": 8670,
      "Ġbride": 8671,
      "Ġblades": 8672,
      "ĠPing": 8673,
      "ĠPink": 8674,
      "ĠRich": 8675,
      "Jacky": 8676,
      "Ġcompete": 8677,
      "Ġdragonfly": 8678,
      "Ġtownspe": 8679,
      "Ġdryer": 8680,
      "Ġnecks": 8681,
      "Ġpractised": 8682,
      "Ġhummed": 8683,
      "Ġhonesty": 8684,
      "Ġpinching": 8685,
      "Ġpressing": 8686,
      "Ġmicrow": 8687,
      "Ġscares": 8688,
      "Ġguarding": 8689,
      "ĠSnowball": 8690,
      "Ġweighs": 8691,
      "Ġdemanding": 8692,
      "Ġrows": 8693,
      "amboo": 8694,
      "Suzie": 8695,
      "ĠBonnie": 8696,
      "Ġdiscouraged": 8697,
      "Ġtownspeople": 8698,
      "HE": 8699,
      "Hmm": 8700,
      "barrow": 8701,
      "oc": 8702,
      "zes": 8703,
      "Ġsipped": 8704,
      "Ġsinc": 8705,
      "Ġmunched": 8706,
      "ĠSweet": 8707,
      "ĠHar": 8708,
      "etch": 8709,
      "Ġinvent": 8710,
      "igger": 8711,
      "Ġroo": 8712,
      "Ġformed": 8713,
      "ĠMin": 8714,
      "Ġrebu": 8715,
      "ĠĊĊ": 8716,
      "ĠAccidents": 8717,
      "Ġexamp": 8718,
      "ĠJason": 8719,
      "Ġfunn": 8720,
      "Ġclut": 8721,
      "Ġweighing": 8722,
      "Ġswat": 8723,
      "uddles": 8724,
      "andra": 8725,
      "Ġtrigger": 8726,
      "Ġmoons": 8727,
      "Ġglittered": 8728,
      "ÅĵYay": 8729,
      "ĠGemma": 8730,
      "ĠRuth": 8731,
      "Ġmonth": 8732,
      "ĠOuch": 8733,
      "Ġshrank": 8734,
      "Instead": 8735,
      "Ġbats": 8736,
      "Ġmeadows": 8737,
      "Ġsuccessfully": 8738,
      "ĠDonÃ¢": 8739,
      "Ġwheelbarrow": 8740,
      "ĠPeep": 8741,
      "Ġexperiment": 8742,
      "Ġhaircuts": 8743,
      "ĠRufus": 8744,
      "ĠWhoever": 8745,
      "ĠSparkle": 8746,
      "ĠAnother": 8747,
      "ĠMelissa": 8748,
      "ĠHootie": 8749,
      "ĠMae": 8750,
      "ĠLibby": 8751,
      "Jeff": 8752,
      "Ġlocal": 8753,
      "Ġsincere": 8754,
      "ai": 8755,
      "lers": 8756,
      "Ġfaint": 8757,
      "orking": 8758,
      "ĠTammy": 8759,
      "inging": 8760,
      "Ġnapped": 8761,
      "ĠBoo": 8762,
      "stantly": 8763,
      "Ġbacks": 8764,
      "ellie": 8765,
      "Ġtreas": 8766,
      "Ġflashes": 8767,
      "Ġlevers": 8768,
      "Ġlongest": 8769,
      "Ġunable": 8770,
      "Ġenjoyable": 8771,
      "Ġcrou": 8772,
      "ĠNora": 8773,
      "Ġcompared": 8774,
      "ĠAllie": 8775,
      "Ġmiracle": 8776,
      "Ġthicker": 8777,
      "Ġdigs": 8778,
      "Ġangrily": 8779,
      "Ġcurl": 8780,
      "Ġcompliment": 8781,
      "Ġexplaining": 8782,
      "Ġopinions": 8783,
      "ĠDino": 8784,
      "Ġmicrowave": 8785,
      "Nick": 8786,
      "Zoom": 8787,
      "jack": 8788,
      "rupt": 8789,
      "vy": 8790,
      "Ġcages": 8791,
      "Ġpipes": 8792,
      "ĠTre": 8793,
      "ĠSir": 8794,
      "oto": 8795,
      "ĠLots": 8796,
      "ĠEr": 8797,
      "Ġpopping": 8798,
      "Ġwaterm": 8799,
      "ĠPa": 8800,
      "Ġbluebird": 8801,
      "ĠRight": 8802,
      "Ġdev": 8803,
      "ĠGracie": 8804,
      "Ġwelcoming": 8805,
      "Ġsprang": 8806,
      "Ġattitude": 8807,
      "Ġprotection": 8808,
      "ĠStill": 8809,
      "Ġtraps": 8810,
      "Ġthumbs": 8811,
      "Ġglobe": 8812,
      "ĠMatilda": 8813,
      "Ġchatting": 8814,
      "Whiskers": 8815,
      "Ġinjured": 8816,
      "Ġslithered": 8817,
      "Ġsnorted": 8818,
      "Ġblonde": 8819,
      "ĠAnnabelle": 8820,
      "Ġoverwhelmed": 8821,
      "Ġexample": 8822,
      "Deal": 8823,
      "Lulu": 8824,
      "Mabel": 8825,
      "belt": 8826,
      "zing": 8827,
      "Ġarom": 8828,
      "Ġshallow": 8829,
      "Ġripp": 8830,
      "Ġbeast": 8831,
      "Ġnoticing": 8832,
      "Ġkit": 8833,
      "Ġbecomes": 8834,
      "Ġrunner": 8835,
      "Ġbubbling": 8836,
      "Ġfinishes": 8837,
      "ĠPiggy": 8838,
      "Ġunco": 8839,
      "Ġdifferently": 8840,
      "ĠRicky": 8841,
      "Ġjoyfully": 8842,
      "Ġhamster": 8843,
      "Ġhippos": 8844,
      "Ġkayaking": 8845,
      "ĠOrange": 8846,
      "Ġstyles": 8847,
      "ÅĵWeÃ¢": 8848,
      "print": 8849,
      "Ġcoughed": 8850,
      "Betty": 8851,
      "Matt": 8852,
      "Brownie": 8853,
      "Ġlarger": 8854,
      "Ġwatermel": 8855,
      "oard": 8856,
      "Ġtopp": 8857,
      "Ġbamboo": 8858,
      "Ġlull": 8859,
      "Ġcav": 8860,
      "Ġdashed": 8861,
      "orse": 8862,
      "Ġheels": 8863,
      "isp": 8864,
      "Ġgoo": 8865,
      "Ġstur": 8866,
      "ĠShelly": 8867,
      "Ġshave": 8868,
      "Ġshines": 8869,
      "Ġplug": 8870,
      "ĠBra": 8871,
      "Ġwhined": 8872,
      "Ġboards": 8873,
      "ĠApril": 8874,
      "Ġprank": 8875,
      "Ġgoodness": 8876,
      "ĠEver": 8877,
      "Ġaboard": 8878,
      "Ġenem": 8879,
      "Ġbud": 8880,
      "Ġcheating": 8881,
      "Ġtops": 8882,
      "Ġinvites": 8883,
      "Ġseatbelt": 8884,
      "Ġtunes": 8885,
      "iana": 8886,
      "Ġcaterpillars": 8887,
      "ĠBruce": 8888,
      "Ġhunters": 8889,
      "Ġcroaked": 8890,
      "Ġscattering": 8891,
      "Ġimproving": 8892,
      "ĠShow": 8893,
      "Ġjudges": 8894,
      "Ġracer": 8895,
      "Ġrepeats": 8896,
      "ĠBirdie": 8897,
      "Which": 8898,
      "Ġpossib": 8899,
      "Maddy": 8900,
      "Ġpositive": 8901,
      "Ġwhimpered": 8902,
      "Ġtreasured": 8903,
      "Ġenemies": 8904,
      "Ollie": 8905,
      "Pretty": 8906,
      "gar": 8907,
      "Ġwaking": 8908,
      "isdom": 8909,
      "aming": 8910,
      "rice": 8911,
      "tered": 8912,
      "uddled": 8913,
      "Ġslapping": 8914,
      "Ġsnapping": 8915,
      "Ġshares": 8916,
      "Ġdolly": 8917,
      "Ġfishy": 8918,
      "Ġmeaning": 8919,
      "Ġbaa": 8920,
      "shirt": 8921,
      "Still": 8922,
      "Ġcoolest": 8923,
      "ĠStep": 8924,
      "Ġpleasant": 8925,
      "ĠBruno": 8926,
      "Ġpantry": 8927,
      "Ġluckiest": 8928,
      "Ġlumberjack": 8929,
      "Ġhesitation": 8930,
      "Ġsituations": 8931,
      "Ġhealthier": 8932,
      "ĠJoanne": 8933,
      "Ġrebuild": 8934,
      "Ġaroma": 8935,
      "well": 8936,
      "Ãĥ": 8937,
      "Ġspears": 8938,
      "arefully": 8939,
      "Ġworst": 8940,
      "Ġblushed": 8941,
      "ĠDuke": 8942,
      "Ġunderwater": 8943,
      "Ġthrill": 8944,
      "ĠGogo": 8945,
      "Ġcrisp": 8946,
      "Ġarrest": 8947,
      "Ġsweeter": 8948,
      "Ġbowing": 8949,
      "Ġchopping": 8950,
      "Ġdrying": 8951,
      "Ġobst": 8952,
      "Ġembarrassing": 8953,
      "Ġ''": 8954,
      "Ġprizes": 8955,
      "Ġsilently": 8956,
      "Ġhoops": 8957,
      "Ġallowing": 8958,
      "Ġdaily": 8959,
      "ĠBobbie": 8960,
      "Suzy": 8961,
      "Ġscenery": 8962,
      "Ġwatermelon": 8963,
      "Fro": 8964,
      "Hop": 8965,
      "gress": 8966,
      "Ġicky": 8967,
      "Ġhuddled": 8968,
      "Ġlim": 8969,
      "Ġdou": 8970,
      "ushes": 8971,
      "ĠBounce": 8972,
      "ĠEd": 8973,
      "Ġblade": 8974,
      "Ġbloss": 8975,
      "Ġhoses": 8976,
      "Ġpeak": 8977,
      "ĠWeÃ¢": 8978,
      "ĠJose": 8979,
      "ÅĵHow": 8980,
      "Ġtalents": 8981,
      "ĠNever": 8982,
      "Ġwarmed": 8983,
      "Ġsweetly": 8984,
      "Ġpapa": 8985,
      "Ġguards": 8986,
      "Ġcafe": 8987,
      "ĠOf": 8988,
      "Ġdistracted": 8989,
      "Ġburgers": 8990,
      "Ġshrug": 8991,
      "Ġshrugs": 8992,
      "Ġintently": 8993,
      "Ġcircled": 8994,
      "ĠFinny": 8995,
      "Ġcurre": 8996,
      "Ġsupporting": 8997,
      "Ġwiggling": 8998,
      "Ġrevealing": 8999,
      "ĠSunshine": 9000,
      "reya": 9001,
      "Ġcertainly": 9002,
      "solut": 9003,
      "Ġsoothing": 9004,
      "Ġgroaned": 9005,
      "Both": 9006,
      "Susan": 9007,
      "Years": 9008,
      "Ġtheat": 9009,
      "Ġhike": 9010,
      "Ġfade": 9011,
      "Ġfacing": 9012,
      "Ġpounced": 9013,
      "atty": 9014,
      "Ġhamb": 9015,
      "Ġthie": 9016,
      "ooly": 9017,
      "Ġwhipped": 9018,
      "Ġbolt": 9019,
      "ĠJilly": 9020,
      "ĠweÃ¢": 9021,
      "aste": 9022,
      "Ġench": 9023,
      "Ġglisten": 9024,
      "Ġstores": 9025,
      "Ġstepping": 9026,
      "Ġsmartest": 9027,
      "Ġoceans": 9028,
      "Ġembra": 9029,
      "ĠAlbert": 9030,
      "Ġcuddling": 9031,
      "Ġerupt": 9032,
      "Ġrewarding": 9033,
      "Ġpoisonous": 9034,
      "ĠVery": 9035,
      "Ġbends": 9036,
      "Ġdesper": 9037,
      "ĠMartin": 9038,
      "ĠRobo": 9039,
      "Ġmajest": 9040,
      "Ġmagnifying": 9041,
      "Ġhooves": 9042,
      "Ġcrouched": 9043,
      "Ġtheatre": 9044,
      "Ġhambur": 9045,
      "Tara": 9046,
      "Tess": 9047,
      "edic": 9048,
      "iter": 9049,
      "atrice": 9050,
      "ĠHurry": 9051,
      "Ġrins": 9052,
      "adab": 9053,
[...]
